<pad>	0
<s>	0
</s>	0
<unk>	0
▁t	-0
▁a	-1
he	-2
in	-3
▁s	-4
▁the	-5
re	-6
on	-7
er	-8
▁w	-9
▁c	-10
▁.	-11
▁,	-12
▁o	-13
en	-14
▁p	-15
▁b	-16
an	-17
ed	-18
at	-19
▁f	-20
or	-21
it	-22
▁m	-23
es	-24
▁in	-25
is	-26
ar	-27
ing	-28
▁to	-29
▁h	-30
al	-31
▁an	-32
▁of	-33
▁d	-34
ou	-35
as	-36
ic	-37
id	-38
▁n	-39
le	-40
▁and	-41
ion	-42
ro	-43
il	-44
▁th	-45
ent	-46
▁re	-47
▁l	-48
▁g	-49
▁e	-50
ay	-51
om	-52
▁be	-53
▁u	-54
ve	-55
st	-56
ad	-57
▁on	-58
ut	-59
▁st	-60
▁sa	-61
▁for	-62
ol	-63
▁he	-64
ir	-65
ter	-66
ur	-67
▁k	-68
ac	-69
im	-70
ig	-71
am	-72
▁said	-73
ly	-74
ot	-75
ec	-76
▁is	-77
ation	-78
ver	-79
▁that	-80
ill	-81
ore	-82
▁we	-83
▁r	-84
et	-85
▁it	-86
ow	-87
ld	-88
▁wh	-89
us	-90
▁y	-91
▁as	-92
th	-93
▁at	-94
▁j	-95
▁was	-96
▁de	-97
ce	-98
▁al	-99
ith	-100
▁ch	-101
▁con	-102
▁with	-103
un	-104
oun	-105
ers	-106
ts	-107
▁ne	-108
ment	-109
res	-110
▁1	-111
se	-112
▁pro	-113
day	-114
op	-115
ate	-116
▁v	-117
ak	-118
est	-119
her	-120
el	-121
ul	-122
▁com	-123
and	-124
ain	-125
ri	-126
▁un	-127
ist	-128
▁le	-129
ap	-130
ave	-131
rom	-132
ch	-133
ct	-134
ag	-135
▁2	-136
▁se	-137
▁sh	-138
▁from	-139
▁by	-140
igh	-141
os	-142
ial	-143
if	-144
▁has	-145
ort	-146
▁sp	-147
▁su	-148
▁af	-149
ear	-150
▁are	-151
ast	-152
▁ex	-153
▁his	-154
▁off	-155
▁have	-156
▁go	-157
art	-158
ity	-159
00	-160
red	-161
pp	-162
ies	-163
▁ab	-164
ice	-165
oc	-166
▁pres	-167
▁tr	-168
ould	-169
out	-170
▁kore	-171
▁year	-172
end	-173
our	-174
▁will	-175
▁but	-176
em	-177
ident	-178
ab	-179
um	-180
ack	-181
ong	-182
▁rep	-183
▁not	-184
▁were	-185
▁ag	-186
▁ar	-187
ive	-188
ud	-189
▁pl	-190
all	-191
ian	-192
od	-193
▁wor	-194
ess	-195
qu	-196
▁who	-197
ia	-198
▁new	-199
iv	-200
▁pol	-201
ary	-202
▁or	-203
cc	-204
gh	-205
▁pe	-206
▁cl	-207
▁after	-208
▁they	-209
ry	-210
▁mon	-211
ie	-212
ight	-213
ect	-214
▁whe	-215
ust	-216
ok	-217
ren	-218
▁had	-219
ich	-220
ound	-221
ost	-222
mer	-223
ome	-224
ard	-225
ide	-226
▁been	-227
▁ro	-228
ant	-229
▁president	-230
ge	-231
ra	-232
▁this	-233
▁min	-234
▁i	-235
▁its	-236
▁tw	-237
ther	-238
▁their	-239
▁res	-240
▁say	-241
▁peop	-242
▁people	-243
▁out	-244
▁ad	-245
▁int	-246
ign	-247
▁offic	-248
▁about	-249
▁more	-250
ber	-251
ord	-252
ount	-253
ated	-254
vern	-255
uc	-256
ime	-257
▁ir	-258
ine	-259
▁pr	-260
▁per	-261
ans	-262
ions	-263
▁two	-264
▁part	-265
▁me	-266
▁exp	-267
▁govern	-268
ks	-269
▁sec	-270
▁inc	-271
▁up	-272
▁comp	-273
▁acc	-274
▁her	-275
▁3	-276
▁nor	-277
▁en	-278
ace	-279
▁korea	-280
▁dis	-281
▁which	-282
▁all	-283
▁over	-284
ous	-285
▁she	-286
▁one	-287
ree	-288
▁man	-289
ations	-290
iz	-291
ough	-292
▁cont	-293
so	-294
esday	-295
ke	-296
▁gr	-297
▁government	-298
age	-299
ates	-300
pt	-301
▁would	-302
▁official	-303
▁mil	-304
▁mar	-305
▁att	-306
cent	-307
▁br	-308
ib	-309
ip	-310
▁than	-311
▁north	-312
man	-313
▁state	-314
ub	-315
▁us	-316
ational	-317
▁inter	-318
▁count	-319
ors	-320
▁also	-321
▁sc	-322
▁do	-323
▁cr	-324
av	-325
ure	-326
▁fir	-327
own	-328
ang	-329
der	-330
ass	-331
▁im	-332
▁5	-333
▁comm	-334
ff	-335
▁other	-336
ical	-337
▁200	-338
ue	-339
ake	-340
ite	-341
ters	-342
ile	-343
outh	-344
▁no	-345
▁can	-346
nn	-347
▁ind	-348
ail	-349
▁last	-350
lo	-351
▁cnn	-352
▁day	-353
▁police	-354
hed	-355
aq	-356
▁mo	-357
▁jo	-358
ish	-359
▁when	-360
ited	-361
▁first	-362
▁dec	-363
ond	-364
ire	-365
▁south	-366
▁iraq	-367
▁4	-368
▁app	-369
ict	-370
ence	-371
ition	-372
▁lead	-373
▁la	-374
▁so	-375
▁qu	-376
ell	-377
▁te	-378
▁there	-379
▁wee	-380
▁milit	-381
illion	-382
▁inv	-383
ase	-384
lect	-385
▁bus	-386
▁co	-387
▁am	-388
act	-389
▁bec	-390
▁dem	-391
▁into	-392
int	-393
▁some	-394
ade	-395
▁report	-396
▁fin	-397
one	-398
▁19	-399
▁car	-400
▁ob	-401
ild	-402
iss	-403
ince	-404
▁cam	-405
ning	-406
▁ev	-407
og	-408
▁fr	-409
▁chin	-410
▁ear	-411
▁ser	-412
ied	-413
aus	-414
ep	-415
▁bl	-416
▁kill	-417
lic	-418
old	-419
enc	-420
▁tal	-421
▁war	-422
oup	-423
▁told	-424
▁op	-425
▁time	-426
ose	-427
ll	-428
▁world	-429
ned	-430
ress	-431
ru	-432
lear	-433
▁li	-434
▁years	-435
▁work	-436
ved	-437
▁percent	-438
ance	-439
▁pre	-440
▁fe	-441
▁call	-442
▁korean	-443
ally	-444
itt	-445
▁sun	-446
ama	-447
lud	-448
▁bo	-449
▁6	-450
ens	-451
▁elect	-452
ey	-453
li	-454
▁month	-455
very	-456
we	-457
are	-458
▁them	-459
▁00	-460
▁week	-461
ater	-462
▁again	-463
▁accord	-464
wn	-465
con	-466
▁united	-467
orts	-468
▁you	-469
▁par	-470
ities	-471
▁000	-472
▁act	-473
▁officials	-474
▁could	-475
ces	-476
▁fl	-477
fe	-478
oll	-479
▁according	-480
▁if	-481
▁under	-482
reat	-483
▁country	-484
▁includ	-485
arg	-486
▁bet	-487
hing	-488
▁party	-489
▁imp	-490
▁three	-491
ister	-492
▁cons	-493
▁tu	-494
▁ass	-495
▁monday	-496
▁says	-497
orm	-498
urs	-499
▁national	-500
▁rec	-501
ked	-502
▁air	-503
▁news	-504
ese	-505
▁sur	-506
uring	-507
▁lo	-508
vers	-509
ected	-510
▁kn	-511
▁tuesday	-512
▁military	-513
▁plan	-514
ause	-515
▁7	-516
ons	-517
▁cent	-518
ory	-519
meric	-520
▁americ	-521
▁just	-522
▁intern	-523
▁wed	-524
▁states	-525
ings	-526
▁reg	-527
▁may	-528
▁ter	-529
ath	-530
able	-531
▁ban	-532
fore	-533
ital	-534
ult	-535
ach	-536
ft	-537
▁down	-538
▁group	-539
▁aut	-540
ublic	-541
▁obama	-542
▁old	-543
▁sen	-544
istan	-545
▁him	-546
▁minister	-547
▁attack	-548
▁end	-549
▁fore	-550
▁spok	-551
▁win	-552
▁supp	-553
▁wedn	-554
▁what	-555
▁wednesday	-556
▁8	-557
apan	-558
▁japan	-559
▁before	-560
ased	-561
▁ac	-562
land	-563
▁most	-564
▁dep	-565
▁since	-566
▁rem	-567
▁ann	-568
ah	-569
ouse	-570
▁rel	-571
leg	-572
▁against	-573
▁sunday	-574
▁econ	-575
▁econom	-576
▁show	-577
uclear	-578
▁million	-579
▁like	-580
▁now	-581
ious	-582
▁back	-583
rat	-584
▁cap	-585
ency	-586
▁any	-587
▁law	-588
▁how	-589
ket	-590
ents	-591
▁china	-592
med	-593
▁gen	-594
▁nuclear	-595
▁mem	-596
▁bush	-597
ix	-598
▁ph	-599
▁where	-600
rop	-601
▁des	-602
▁invest	-603
▁em	-604
row	-605
ced	-606
▁near	-607
app	-608
ists	-609
▁prov	-610
▁killed	-611
uss	-612
▁po	-613
▁med	-614
king	-615
way	-616
▁add	-617
▁prot	-618
▁secur	-619
▁during	-620
vel	-621
▁bro	-622
▁city	-623
aking	-624
▁because	-625
▁str	-626
▁spokes	-627
▁get	-628
▁made	-629
ursday	-630
▁thursday	-631
▁former	-632
ton	-633
▁bu	-634
gan	-635
▁ap	-636
led	-637
hn	-638
ame	-639
▁reported	-640
rest	-641
▁security	-642
az	-643
▁bar	-644
▁while	-645
▁only	-646
air	-647
ween	-648
▁ins	-649
other	-650
▁thr	-651
▁four	-652
▁democ	-653
▁between	-654
ered	-655
▁tur	-656
ating	-657
▁cour	-658
orn	-659
ants	-660
gr	-661
▁10	-662
▁ret	-663
▁house	-664
du	-665
▁being	-666
▁high	-667
▁bel	-668
▁inf	-669
▁def	-670
▁found	-671
▁z	-672
▁ma	-673
ution	-674
oss	-675
eral	-676
▁compan	-677
▁my	-678
▁sm	-679
▁brit	-680
▁gu	-681
▁col	-682
▁meet	-683
▁mus	-684
anc	-685
▁many	-686
ood	-687
rent	-688
▁stud	-689
und	-690
▁wom	-691
▁hel	-692
▁through	-693
▁camp	-694
ai	-695
▁vis	-696
▁miss	-697
hor	-698
▁tri	-699
▁conf	-700
▁set	-701
les	-702
▁rele	-703
▁child	-704
▁sy	-705
ester	-706
ral	-707
▁head	-708
ops	-709
xt	-710
ower	-711
ick	-712
▁called	-713
▁eu	-714
ert	-715
▁long	-716
▁fam	-717
▁author	-718
ments	-719
ret	-720
▁including	-721
▁play	-722
ared	-723
▁ref	-724
omb	-725
▁foreign	-726
ward	-727
▁ve	-728
▁press	-729
▁won	-730
▁did	-731
ling	-732
ork	-733
als	-734
ife	-735
▁our	-736
▁international	-737
▁run	-738
▁help	-739
▁opp	-740
▁vi	-741
ision	-742
ss	-743
ug	-744
ily	-745
ung	-746
olog	-747
▁six	-748
ands	-749
▁tro	-750
ange	-751
▁disc	-752
min	-753
▁9	-754
▁polit	-755
imes	-756
▁home	-757
▁reports	-758
oul	-759
▁che	-760
ble	-761
▁democrat	-762
▁20	-763
ms	-764
ric	-765
▁second	-766
me	-767
ise	-768
bers	-769
▁spokesman	-770
▁sch	-771
▁see	-772
▁eff	-773
▁iss	-774
▁days	-775
▁take	-776
▁statement	-777
▁sl	-778
ful	-779
▁conc	-780
▁eng	-781
▁next	-782
▁resp	-783
▁talks	-784
ual	-785
▁way	-786
ives	-787
ting	-788
▁public	-789
ized	-790
▁five	-791
▁announ	-792
▁num	-793
▁those	-794
▁death	-795
▁still	-796
ind	-797
rael	-798
▁israel	-799
ying	-800
atur	-801
ief	-802
▁serv	-803
ction	-804
▁bot	-805
▁court	-806
io	-807
ures	-808
▁even	-809
▁loc	-810
▁spe	-811
▁sus	-812
ries	-813
sel	-814
▁troops	-815
▁pak	-816
▁open	-817
▁investig	-818
▁make	-819
▁need	-820
▁det	-821
ross	-822
▁prime	-823
hern	-824
iew	-825
▁ra	-826
▁seoul	-827
▁maj	-828
ink	-829
ics	-830
ivers	-831
▁top	-832
▁least	-833
ecut	-834
▁pakistan	-835
ool	-836
▁terr	-837
▁ke	-838
▁around	-839
ven	-840
istr	-841
▁afgh	-842
▁sign	-843
▁american	-844
att	-845
osed	-846
gram	-847
istry	-848
ices	-849
▁recent	-850
▁another	-851
▁vot	-852
▁start	-853
iday	-854
▁hour	-855
▁susp	-856
▁program	-857
ady	-858
▁pal	-859
▁want	-860
▁contin	-861
▁cor	-862
ollow	-863
▁dire	-864
▁afghan	-865
▁hum	-866
▁market	-867
ible	-868
oci	-869
▁such	-870
▁follow	-871
▁ministry	-872
▁trans	-873
ages	-874
▁then	-875
ather	-876
▁clint	-877
▁oper	-878
▁pers	-879
▁viol	-880
ash	-881
per	-882
alth	-883
▁iran	-884
▁major	-885
▁visit	-886
▁put	-887
▁vict	-888
▁commun	-889
ior	-890
▁contro	-891
▁clinton	-892
ee	-893
ained	-894
▁leader	-895
▁washing	-896
▁every	-897
ody	-898
▁spec	-899
ged	-900
▁washington	-901
▁big	-902
▁russ	-903
▁mor	-904
▁bomb	-905
uch	-906
▁fil	-907
ians	-908
▁office	-909
ute	-910
osp	-911
▁should	-912
▁company	-913
osition	-914
▁cur	-915
▁retur	-916
te	-917
▁dr	-918
▁secret	-919
▁pa	-920
▁belie	-921
ights	-922
▁times	-923
▁saying	-924
ger	-925
▁agency	-926
▁expected	-927
ense	-928
ern	-929
▁presidential	-930
oot	-931
▁ed	-932
▁fire	-933
▁look	-934
▁pass	-935
▁well	-936
▁forces	-937
▁don	-938
ought	-939
▁dead	-940
au	-941
▁chief	-942
▁nation	-943
aim	-944
ative	-945
▁inst	-946
ient	-947
ular	-948
▁cond	-949
▁members	-950
ism	-951
ving	-952
▁ext	-953
▁power	-954
rope	-955
▁direct	-956
hip	-957
aign	-958
ility	-959
▁europe	-960
atch	-961
▁very	-962
▁children	-963
▁campaign	-964
amp	-965
ins	-966
▁support	-967
ale	-968
▁sub	-969
▁sold	-970
ird	-971
▁ent	-972
▁far	-973
▁billion	-974
feren	-975
▁bank	-976
▁good	-977
▁main	-978
▁york	-979
ph	-980
hes	-981
▁pop	-982
▁both	-983
▁earli	-984
▁sever	-985
▁199	-986
▁leg	-987
▁school	-988
ner	-989
▁est	-990
arch	-991
▁political	-992
aw	-993
▁died	-994
▁ge	-995
▁coun	-996
▁leaders	-997
▁mcc	-998
▁early	-999
▁15	-1000
ember	-1001
▁satur	-1002
▁authorities	-1003
▁john	-1004
▁arrest	-1005
▁deal	-1006
ull	-1007
▁rest	-1008
▁several	-1009
used	-1010
▁british	-1011
▁30	-1012
aster	-1013
▁saturday	-1014
rib	-1015
▁know	-1016
▁earlier	-1017
ament	-1018
▁wr	-1019
ock	-1020
▁incre	-1021
▁sw	-1022
▁hop	-1023
▁friday	-1024
▁election	-1025
ier	-1026
▁ce	-1027
▁art	-1028
▁months	-1029
▁white	-1030
▁hal	-1031
▁tak	-1032
gg	-1033
▁number	-1034
ific	-1035
ured	-1036
▁crit	-1037
▁countries	-1038
▁kim	-1039
ark	-1040
ene	-1041
▁chinese	-1042
▁bur	-1043
gress	-1044
▁move	-1045
▁women	-1046
▁cre	-1047
▁meeting	-1048
▁pri	-1049
▁iraqi	-1050
▁claim	-1051
▁arm	-1052
▁left	-1053
ator	-1054
son	-1055
▁health	-1056
▁democratic	-1057
▁inj	-1058
▁team	-1059
▁11	-1060
▁sent	-1061
▁going	-1062
▁capital	-1063
ines	-1064
gy	-1065
ty	-1066
reed	-1067
▁fed	-1068
▁came	-1069
▁among	-1070
duc	-1071
▁neg	-1072
▁own	-1073
▁rul	-1074
▁terror	-1075
ison	-1076
line	-1077
▁took	-1078
port	-1079
▁poss	-1080
▁night	-1081
velop	-1082
▁build	-1083
▁pros	-1084
▁family	-1085
▁dif	-1086
artment	-1087
ued	-1088
▁12	-1089
▁associ	-1090
▁economic	-1091
▁aff	-1092
▁cal	-1093
▁hosp	-1094
▁general	-1095
iness	-1096
▁tour	-1097
up	-1098
▁expl	-1099
orters	-1100
▁organ	-1101
▁person	-1102
▁hospital	-1103
▁har	-1104
▁prev	-1105
▁char	-1106
▁later	-1107
▁men	-1108
▁used	-1109
▁much	-1110
▁star	-1111
▁univers	-1112
ised	-1113
▁lee	-1114
▁mid	-1115
ided	-1116
▁host	-1117
ij	-1118
▁ste	-1119
▁rese	-1120
▁human	-1121
ues	-1122
▁develop	-1123
▁cand	-1124
ves	-1125
ony	-1126
▁sum	-1127
ky	-1128
ched	-1129
▁charg	-1130
▁life	-1131
▁peace	-1132
gin	-1133
▁ago	-1134
▁threat	-1135
esterday	-1136
▁bag	-1137
▁yesterday	-1138
ax	-1139
loy	-1140
ests	-1141
▁ant	-1142
▁gre	-1143
▁alleg	-1144
stem	-1145
▁prom	-1146
▁secretary	-1147
its	-1148
ames	-1149
▁adv	-1150
▁tele	-1151
▁pen	-1152
ened	-1153
ones	-1154
▁civ	-1155
▁allow	-1156
▁aust	-1157
▁announced	-1158
ont	-1159
ains	-1160
▁fac	-1161
▁sout	-1162
▁think	-1163
▁record	-1164
uel	-1165
▁hy	-1166
▁admin	-1167
▁sim	-1168
▁free	-1169
▁system	-1170
ired	-1171
ys	-1172
ets	-1173
▁site	-1174
▁test	-1175
bal	-1176
▁post	-1177
▁held	-1178
▁grow	-1179
▁hold	-1180
▁past	-1181
▁stre	-1182
▁area	-1183
▁met	-1184
▁glo	-1185
▁candid	-1186
▁san	-1187
▁ger	-1188
▁same	-1189
▁region	-1190
▁committ	-1191
lam	-1192
▁poll	-1193
ted	-1194
▁den	-1195
ference	-1196
▁financ	-1197
▁business	-1198
▁q	-1199
▁ur	-1200
ified	-1201
▁oil	-1202
▁invol	-1203
side	-1204
▁nort	-1205
▁tec	-1206
ending	-1207
▁right	-1208
ects	-1209
▁use	-1210
▁pat	-1211
▁unt	-1212
▁const	-1213
▁hom	-1214
▁hand	-1215
▁today	-1216
estin	-1217
ention	-1218
▁place	-1219
▁job	-1220
▁university	-1221
▁prop	-1222
▁based	-1223
ov	-1224
▁proble	-1225
icle	-1226
ering	-1227
▁case	-1228
▁stri	-1229
ury	-1230
iers	-1231
▁economy	-1232
ness	-1233
▁cut	-1234
▁third	-1235
aff	-1236
ize	-1237
duct	-1238
▁hit	-1239
view	-1240
▁bre	-1241
▁department	-1242
▁opposition	-1243
acy	-1244
▁released	-1245
▁these	-1246
▁roh	-1247
▁hill	-1248
▁agree	-1249
▁el	-1250
▁del	-1251
hd	-1252
▁morning	-1253
▁il	-1254
▁chr	-1255
▁your	-1256
▁media	-1257
▁financial	-1258
oti	-1259
▁quest	-1260
cept	-1261
iban	-1262
▁dri	-1263
riend	-1264
▁half	-1265
▁center	-1266
▁inform	-1267
aving	-1268
▁civil	-1269
co	-1270
▁few	-1271
▁prof	-1272
▁until	-1273
▁negoti	-1274
▁republic	-1275
▁ang	-1276
▁sit	-1277
▁come	-1278
▁find	-1279
▁trave	-1280
to	-1281
▁fight	-1282
▁hours	-1283
ondon	-1284
▁100	-1285
▁jun	-1286
▁late	-1287
▁islam	-1288
▁local	-1289
▁london	-1290
▁taliban	-1291
▁25	-1292
▁fund	-1293
▁indust	-1294
▁whether	-1295
▁without	-1296
ns	-1297
▁50	-1298
ides	-1299
cess	-1300
aly	-1301
iting	-1302
▁decl	-1303
aring	-1304
▁bill	-1305
▁youn	-1306
istration	-1307
amed	-1308
▁disp	-1309
omin	-1310
ended	-1311
▁defense	-1312
▁som	-1313
▁attacks	-1314
▁close	-1315
▁weap	-1316
▁vide	-1317
▁water	-1318
▁emer	-1319
▁requ	-1320
▁taken	-1321
ik	-1322
▁led	-1323
▁nearly	-1324
▁nations	-1325
▁sing	-1326
▁appro	-1327
▁0	-1328
ason	-1329
▁jan	-1330
▁beij	-1331
▁step	-1332
▁sex	-1333
▁beijing	-1334
▁strong	-1335
▁workers	-1336
mp	-1337
ever	-1338
ually	-1339
▁space	-1340
uck	-1341
▁money	-1342
▁afghanistan	-1343
head	-1344
▁japanese	-1345
▁palestin	-1346
ished	-1347
▁others	-1348
▁austral	-1349
▁stand	-1350
▁vo	-1351
▁mccain	-1352
ds	-1353
▁py	-1354
▁geor	-1355
aining	-1356
▁polic	-1357
▁organiz	-1358
▁does	-1359
▁sour	-1360
▁plans	-1361
▁deb	-1362
▁short	-1363
▁ris	-1364
ready	-1365
ators	-1366
▁stop	-1367
▁administration	-1368
ived	-1369
▁best	-1370
▁laun	-1371
ats	-1372
▁exper	-1373
▁trad	-1374
iving	-1375
▁baghd	-1376
▁larg	-1377
▁comple	-1378
▁already	-1379
▁service	-1380
iate	-1381
▁appe	-1382
▁land	-1383
▁mass	-1384
▁german	-1385
▁baghdad	-1386
▁central	-1387
self	-1388
▁beh	-1389
▁lar	-1390
▁18	-1391
▁town	-1392
ove	-1393
▁kid	-1394
▁along	-1395
els	-1396
▁conv	-1397
▁happ	-1398
▁keep	-1399
ield	-1400
▁activ	-1401
▁began	-1402
▁small	-1403
▁web	-1404
▁hist	-1405
pped	-1406
▁confir	-1407
▁rights	-1408
aged	-1409
mb	-1410
▁es	-1411
▁fail	-1412
▁real	-1413
▁13	-1414
ject	-1415
▁food	-1416
▁rece	-1417
▁force	-1418
ission	-1419
rench	-1420
▁level	-1421
▁dam	-1422
▁known	-1423
ints	-1424
▁env	-1425
ology	-1426
▁army	-1427
▁control	-1428
▁er	-1429
▁let	-1430
▁hol	-1431
▁miles	-1432
▁christ	-1433
raw	-1434
▁away	-1435
▁face	-1436
▁emb	-1437
▁jud	-1438
▁thous	-1439
▁produc	-1440
ium	-1441
ney	-1442
augh	-1443
▁parli	-1444
▁province	-1445
▁16	-1446
ounded	-1447
▁weeks	-1448
▁prison	-1449
irl	-1450
▁each	-1451
▁current	-1452
▁decision	-1453
▁parliament	-1454
▁sn	-1455
aper	-1456
▁french	-1457
▁return	-1458
utes	-1459
▁lab	-1460
▁sal	-1461
▁vote	-1462
▁techn	-1463
▁however	-1464
by	-1465
▁clear	-1466
ck	-1467
ump	-1468
▁across	-1469
▁wal	-1470
ae	-1471
▁av	-1472
▁lat	-1473
ined	-1474
▁vir	-1475
▁eight	-1476
▁conference	-1477
ban	-1478
ety	-1479
▁film	-1480
▁southern	-1481
▁gas	-1482
idence	-1483
▁soldiers	-1484
▁40	-1485
▁ju	-1486
▁ham	-1487
▁attem	-1488
▁barack	-1489
▁release	-1490
▁young	-1491
olution	-1492
▁woman	-1493
▁discuss	-1494
ims	-1495
mak	-1496
▁aid	-1497
▁information	-1498
str	-1499
▁14	-1500
▁issue	-1501
oo	-1502
get	-1503
gency	-1504
less	-1505
▁hot	-1506
▁pay	-1507
▁asked	-1508
▁trade	-1509
▁bord	-1510
▁girl	-1511
▁violence	-1512
▁relations	-1513
cil	-1514
oon	-1515
yang	-1516
▁point	-1517
▁here	-1518
▁weapons	-1519
▁east	-1520
▁global	-1521
▁arrested	-1522
sh	-1523
▁foot	-1524
▁coup	-1525
▁agreement	-1526
go	-1527
▁militants	-1528
▁final	-1529
▁making	-1530
▁russia	-1531
▁red	-1532
▁march	-1533
▁park	-1534
ession	-1535
▁change	-1536
▁prices	-1537
lood	-1538
▁tot	-1539
▁care	-1540
▁form	-1541
▁students	-1542
▁fact	-1543
▁demand	-1544
▁execut	-1545
▁taking	-1546
▁european	-1547
▁thousands	-1548
▁largest	-1549
▁inte	-1550
▁following	-1551
be	-1552
erv	-1553
ploy	-1554
avy	-1555
▁reb	-1556
▁friend	-1557
▁killing	-1558
▁di	-1559
▁israeli	-1560
ina	-1561
▁mal	-1562
▁key	-1563
▁arri	-1564
▁body	-1565
ically	-1566
ases	-1567
▁northern	-1568
▁cost	-1569
▁video	-1570
ongyang	-1571
▁appear	-1572
▁seven	-1573
▁gun	-1574
▁tax	-1575
▁give	-1576
▁calif	-1577
bo	-1578
ried	-1579
▁seen	-1580
▁afric	-1581
▁internet	-1582
▁caus	-1583
▁become	-1584
▁federal	-1585
▁fur	-1586
ience	-1587
▁ident	-1588
▁scient	-1589
ards	-1590
▁fall	-1591
▁import	-1592
▁agreed	-1593
▁californ	-1594
har	-1595
▁got	-1596
▁mod	-1597
▁black	-1598
▁alleged	-1599
▁port	-1600
▁added	-1601
▁large	-1602
▁desp	-1603
▁california	-1604
ank	-1605
ars	-1606
eng	-1607
▁net	-1608
▁concern	-1609
▁22	-1610
▁britain	-1611
ham	-1612
▁great	-1613
▁might	-1614
ressed	-1615
▁telev	-1616
▁points	-1617
▁list	-1618
▁committee	-1619
▁pyongyang	-1620
▁tre	-1621
undred	-1622
▁never	-1623
▁trying	-1624
▁targ	-1625
▁hundred	-1626
▁congress	-1627
▁rad	-1628
mediate	-1629
▁prosecut	-1630
ech	-1631
▁batt	-1632
▁cris	-1633
▁hig	-1634
uge	-1635
estern	-1636
▁interview	-1637
▁article	-1638
▁elections	-1639
rap	-1640
ially	-1641
▁ahead	-1642
▁chair	-1643
▁director	-1644
▁island	-1645
▁outside	-1646
▁ri	-1647
ract	-1648
▁jour	-1649
uary	-1650
ption	-1651
▁shar	-1652
ef	-1653
mar	-1654
ittle	-1655
▁accused	-1656
▁despite	-1657
▁working	-1658
▁immediate	-1659
ley	-1660
rug	-1661
ergy	-1662
▁went	-1663
▁associated	-1664
hers	-1665
▁meas	-1666
ection	-1667
▁likely	-1668
ored	-1669
▁super	-1670
▁partic	-1671
▁emergency	-1672
mit	-1673
▁gaz	-1674
▁mean	-1675
atic	-1676
▁less	-1677
▁perf	-1678
▁charges	-1679
▁palestinian	-1680
oy	-1681
▁hard	-1682
▁must	-1683
▁fut	-1684
ulation	-1685
eda	-1686
lom	-1687
lymp	-1688
▁cho	-1689
▁olymp	-1690
br	-1691
▁shot	-1692
▁broad	-1693
▁somet	-1694
▁little	-1695
ival	-1696
▁coll	-1697
▁estim	-1698
▁crisis	-1699
▁500	-1700
▁mos	-1701
▁senior	-1702
▁possible	-1703
▁research	-1704
▁dav	-1705
▁earth	-1706
▁low	-1707
▁investigation	-1708
▁ord	-1709
ached	-1710
▁2006	-1711
▁border	-1712
ults	-1713
▁sept	-1714
▁side	-1715
▁union	-1716
▁critic	-1717
▁energy	-1718
▁road	-1719
▁france	-1720
▁groups	-1721
▁council	-1722
▁process	-1723
ew	-1724
lish	-1725
▁amb	-1726
▁chang	-1727
▁17	-1728
▁qa	-1729
▁los	-1730
▁too	-1731
▁station	-1732
▁companies	-1733
▁lot	-1734
ccess	-1735
▁commission	-1736
com	-1737
ler	-1738
imin	-1739
▁priv	-1740
▁policy	-1741
▁dip	-1742
▁fell	-1743
▁grand	-1744
▁january	-1745
▁interest	-1746
urch	-1747
▁bas	-1748
▁suff	-1749
▁west	-1750
▁believe	-1751
▁question	-1752
▁mot	-1753
▁newsp	-1754
itions	-1755
che	-1756
▁boy	-1757
▁val	-1758
▁corp	-1759
▁deleg	-1760
▁total	-1761
▁latest	-1762
▁mag	-1763
▁mat	-1764
▁june	-1765
▁command	-1766
rem	-1767
▁sugg	-1768
▁coast	-1769
▁reporters	-1770
▁qaeda	-1771
ape	-1772
▁occ	-1773
▁game	-1774
▁live	-1775
par	-1776
▁ill	-1777
▁suic	-1778
inc	-1779
▁mov	-1780
▁dest	-1781
▁july	-1782
▁tell	-1783
▁within	-1784
▁continue	-1785
pr	-1786
ald	-1787
ona	-1788
▁desc	-1789
astern	-1790
▁showed	-1791
▁attempt	-1792
▁special	-1793
▁previous	-1794
▁gl	-1795
▁front	-1796
nal	-1797
▁shut	-1798
▁toward	-1799
▁travel	-1800
▁further	-1801
▁drug	-1802
▁diplom	-1803
▁sk	-1804
most	-1805
▁due	-1806
▁x	-1807
ming	-1808
▁198	-1809
▁line	-1810
▁break	-1811
▁watch	-1812
▁building	-1813
▁member	-1814
▁24	-1815
▁cross	-1816
▁candidate	-1817
ta	-1818
▁anti	-1819
▁prim	-1820
▁treat	-1821
ann	-1822
ush	-1823
▁rev	-1824
▁capt	-1825
▁name	-1826
▁carry	-1827
▁america	-1828
raft	-1829
▁once	-1830
itution	-1831
▁minutes	-1832
▁respons	-1833
▁weekend	-1834
▁cust	-1835
▁england	-1836
iven	-1837
▁mur	-1838
▁dist	-1839
ane	-1840
▁ran	-1841
▁efforts	-1842
▁sea	-1843
▁ship	-1844
ertain	-1845
▁george	-1846
▁success	-1847
▁september	-1848
ighb	-1849
▁gaza	-1850
▁begin	-1851
▁neighb	-1852
▁round	-1853
eration	-1854
▁mess	-1855
▁consid	-1856
▁anim	-1857
▁airport	-1858
▁television	-1859
ino	-1860
▁soc	-1861
▁doll	-1862
▁order	-1863
▁hundreds	-1864
▁lost	-1865
▁class	-1866
▁storm	-1867
▁lawmak	-1868
▁ruling	-1869
▁medical	-1870
▁div	-1871
idents	-1872
▁suicide	-1873
raf	-1874
▁equ	-1875
▁event	-1876
▁mak	-1877
▁pot	-1878
epend	-1879
▁employ	-1880
▁independ	-1881
ening	-1882
▁surve	-1883
▁sol	-1884
uation	-1885
▁using	-1886
▁russian	-1887
ways	-1888
▁consum	-1889
▁rom	-1890
duction	-1891
ibility	-1892
▁americans	-1893
cl	-1894
ya	-1895
▁squ	-1896
asing	-1897
▁race	-1898
▁sched	-1899
▁explos	-1900
▁repres	-1901
▁victory	-1902
oman	-1903
▁nomin	-1904
▁study	-1905
▁ky	-1906
▁cit	-1907
▁hur	-1908
icted	-1909
▁comput	-1910
▁future	-1911
▁series	-1912
▁serious	-1913
ude	-1914
▁hus	-1915
thing	-1916
▁resc	-1917
▁soon	-1918
▁stay	-1919
▁demon	-1920
na	-1921
▁better	-1922
▁term	-1923
ril	-1924
▁deter	-1925
▁father	-1926
▁target	-1927
oint	-1928
▁full	-1929
▁mother	-1930
▁confirmed	-1931
urg	-1932
uty	-1933
ague	-1934
▁nat	-1935
▁mount	-1936
▁communist	-1937
▁trip	-1938
▁react	-1939
▁street	-1940
▁journal	-1941
▁industry	-1942
▁60	-1943
▁feb	-1944
▁december	-1945
ades	-1946
▁tem	-1947
woman	-1948
▁phot	-1949
harraf	-1950
▁bring	-1951
▁musharraf	-1952
ili	-1953
xic	-1954
▁april	-1955
▁action	-1956
▁dev	-1957
▁cell	-1958
▁ever	-1959
▁fuel	-1960
ze	-1961
▁tv	-1962
▁wa	-1963
aced	-1964
apped	-1965
▁doct	-1966
▁view	-1967
▁almost	-1968
▁ground	-1969
▁aug	-1970
▁book	-1971
▁heart	-1972
▁dou	-1973
▁able	-1974
▁homes	-1975
▁injured	-1976
▁wounded	-1977
oring	-1978
▁though	-1979
iam	-1980
▁ty	-1981
cast	-1982
mber	-1983
▁yet	-1984
▁hope	-1985
▁mich	-1986
▁champ	-1987
▁inside	-1988
▁really	-1989
dle	-1990
ten	-1991
▁oct	-1992
ada	-1993
ari	-1994
▁veh	-1995
ising	-1996
▁init	-1997
▁angel	-1998
▁enough	-1999
▁describ	-2000
▁started	-2001
▁important	-2002
arc	-2003
ees	-2004
imb	-2005
key	-2006
▁having	-2007
▁history	-2008
▁koreans	-2009
pre	-2010
ule	-2011
ring	-2012
▁vol	-2013
▁alth	-2014
▁although	-2015
▁involved	-2016
ances	-2017
▁nove	-2018
▁analy	-2019
▁november	-2020
iron	-2021
▁david	-2022
▁behind	-2023
▁coming	-2024
▁sources	-2025
▁chairman	-2026
▁asia	-2027
▁wall	-2028
▁cle	-2029
▁quar	-2030
▁result	-2031
▁season	-2032
▁western	-2033
▁republican	-2034
ani	-2035
▁ken	-2036
▁believed	-2037
▁fighting	-2038
que	-2039
▁fig	-2040
▁roc	-2041
▁wife	-2042
▁given	-2043
▁accept	-2044
▁king	-2045
▁rice	-2046
▁design	-2047
itional	-2048
▁leading	-2049
▁dise	-2050
▁room	-2051
▁areas	-2052
▁environ	-2053
▁amid	-2054
▁cred	-2055
▁exch	-2056
▁nine	-2057
▁arg	-2058
▁vill	-2059
▁private	-2060
▁21	-2061
▁comes	-2062
▁whose	-2063
▁flight	-2064
ida	-2065
yal	-2066
▁india	-2067
ruction	-2068
▁protest	-2069
tle	-2070
▁labor	-2071
▁stock	-2072
▁search	-2073
zy	-2074
▁arab	-2075
▁rich	-2076
ferent	-2077
▁environment	-2078
uled	-2079
▁ide	-2080
▁coal	-2081
▁indic	-2082
▁suggest	-2083
imate	-2084
▁sell	-2085
▁conduct	-2086
▁problems	-2087
bc	-2088
▁detail	-2089
▁organization	-2090
ole	-2091
▁ball	-2092
▁role	-2093
▁plane	-2094
▁august	-2095
▁middle	-2096
▁ben	-2097
▁hyun	-2098
▁victims	-2099
▁different	-2100
▁27	-2101
▁fear	-2102
▁son	-2103
aps	-2104
▁bad	-2105
▁2005	-2106
▁newspaper	-2107
▁represent	-2108
▁doc	-2109
▁mer	-2110
▁base	-2111
▁doz	-2112
▁mill	-2113
▁insp	-2114
▁evidence	-2115
▁23	-2116
▁pet	-2117
▁comb	-2118
▁kidn	-2119
▁rate	-2120
▁surv	-2121
▁voters	-2122
itted	-2123
▁wants	-2124
▁planned	-2125
pl	-2126
umb	-2127
ably	-2128
ging	-2129
▁heavy	-2130
▁mic	-2131
ellig	-2132
▁infl	-2133
▁distr	-2134
▁wanted	-2135
▁stru	-2136
▁shoot	-2137
▁mission	-2138
▁intellig	-2139
▁scientists	-2140
▁gave	-2141
▁mark	-2142
▁light	-2143
▁turned	-2144
ago	-2145
▁paul	-2146
▁australia	-2147
ster	-2148
▁cat	-2149
▁looking	-2150
▁increase	-2151
▁dro	-2152
ruary	-2153
▁didn	-2154
▁brown	-2155
▁compet	-2156
▁problem	-2157
▁february	-2158
ex	-2159
▁cab	-2160
▁withd	-2161
▁results	-2162
oud	-2163
▁crow	-2164
▁board	-2165
▁assist	-2166
ograp	-2167
▁read	-2168
▁music	-2169
▁resign	-2170
▁islamic	-2171
gest	-2172
▁wat	-2173
arent	-2174
itive	-2175
▁calls	-2176
▁illeg	-2177
▁senate	-2178
▁analyst	-2179
▁pan	-2180
▁2004	-2181
▁flor	-2182
▁lawy	-2183
▁movie	-2184
▁train	-2185
▁deaths	-2186
▁spokeswoman	-2187
let	-2188
off	-2189
▁crew	-2190
▁goal	-2191
▁announce	-2192
cer	-2193
▁age	-2194
iding	-2195
▁received	-2196
the	-2197
oted	-2198
▁ver	-2199
▁asse	-2200
▁pack	-2201
▁tried	-2202
▁summit	-2203
▁markets	-2204
▁appeared	-2205
▁incident	-2206
▁bid	-2207
▁sad	-2208
▁green	-2209
▁conserv	-2210
fic	-2211
wan	-2212
▁ll	-2213
▁feel	-2214
▁recently	-2215
▁supporters	-2216
▁prosecutors	-2217
bert	-2218
▁bab	-2219
▁lim	-2220
▁negotiations	-2221
▁pub	-2222
▁ren	-2223
▁tib	-2224
verage	-2225
▁price	-2226
▁assemb	-2227
▁os	-2228
▁loss	-2229
esters	-2230
▁couple	-2231
▁situation	-2232
ober	-2233
▁turn	-2234
▁october	-2235
▁thought	-2236
▁protesters	-2237
▁docu	-2238
gether	-2239
▁tibet	-2240
▁together	-2241
▁scheduled	-2242
▁development	-2243
▁intelligence	-2244
ays	-2245
ify	-2246
duce	-2247
▁bri	-2248
▁mad	-2249
▁saf	-2250
▁cele	-2251
▁nas	-2252
▁needed	-2253
▁district	-2254
▁constitution	-2255
▁foc	-2256
▁separ	-2257
▁florida	-2258
▁something	-2259
ma	-2260
kyo	-2261
men	-2262
work	-2263
▁cause	-2264
▁hotel	-2265
▁tokyo	-2266
aughter	-2267
▁germany	-2268
▁ca	-2269
▁kil	-2270
▁vice	-2271
atives	-2272
▁games	-2273
▁disease	-2274
band	-2275
down	-2276
wide	-2277
▁cup	-2278
▁citiz	-2279
▁services	-2280
▁adm	-2281
▁lin	-2282
▁chall	-2283
▁hamas	-2284
▁caused	-2285
▁issues	-2286
▁mom	-2287
orney	-2288
▁attorney	-2289
▁technology	-2290
▁bh	-2291
▁2008	-2292
▁judge	-2293
▁leban	-2294
▁immediately	-2295
ael	-2296
itz	-2297
▁lif	-2298
▁tit	-2299
▁clos	-2300
▁hong	-2301
▁seem	-2302
▁paris	-2303
▁staff	-2304
▁online	-2305
▁decided	-2306
▁include	-2307
▁operation	-2308
wh	-2309
▁uk	-2310
▁moo	-2311
▁shi	-2312
▁deep	-2313
▁musl	-2314
▁simp	-2315
▁growth	-2316
▁biggest	-2317
▁eastern	-2318
▁getting	-2319
▁growing	-2320
▁reached	-2321
ador	-2322
▁aim	-2323
▁fat	-2324
▁church	-2325
rew	-2326
ula	-2327
ager	-2328
▁quick	-2329
▁popular	-2330
han	-2331
use	-2332
ayed	-2333
▁kar	-2334
▁2003	-2335
▁lower	-2336
▁claimed	-2337
▁quarter	-2338
▁coalition	-2339
ots	-2340
▁beat	-2341
▁gold	-2342
▁prep	-2343
▁impro	-2344
▁missing	-2345
▁pressure	-2346
▁lawmakers	-2347
▁try	-2348
lished	-2349
▁award	-2350
▁assembly	-2351
▁officers	-2352
▁esc	-2353
▁saw	-2354
▁expect	-2355
▁apparent	-2356
lin	-2357
▁colle	-2358
▁league	-2359
▁strike	-2360
▁pakistani	-2361
▁nec	-2362
▁pos	-2363
itness	-2364
▁warning	-2365
▁exchange	-2366
stand	-2367
▁polls	-2368
▁closed	-2369
▁summer	-2370
12	-2371
roy	-2372
▁hillary	-2373
here	-2374
iana	-2375
over	-2376
▁kind	-2377
ctions	-2378
▁phone	-2379
▁project	-2380
▁tex	-2381
▁deli	-2382
▁angeles	-2383
▁condition	-2384
▁executive	-2385
yl	-2386
ither	-2387
▁sark	-2388
▁speech	-2389
▁provide	-2390
oid	-2391
ball	-2392
▁tens	-2393
▁mexic	-2394
▁effect	-2395
▁warned	-2396
▁officer	-2397
val	-2398
▁26	-2399
▁fav	-2400
▁joint	-2401
▁remain	-2402
▁survey	-2403
▁protests	-2404
▁educ	-2405
▁jail	-2406
overed	-2407
▁sarko	-2408
▁democr	-2409
▁issued	-2410
▁charged	-2411
ni	-2412
▁repl	-2413
▁failed	-2414
▁instit	-2415
hu	-2416
▁dang	-2417
▁jobs	-2418
▁share	-2419
▁address	-2420
▁protect	-2421
raz	-2422
▁effort	-2423
igr	-2424
ode	-2425
▁prob	-2426
▁wind	-2427
▁counter	-2428
▁sarkozy	-2429
▁rob	-2430
▁pain	-2431
▁lives	-2432
▁transf	-2433
▁hostages	-2434
50	-2435
ories	-2436
ential	-2437
▁match	-2438
▁speak	-2439
▁texas	-2440
▁running	-2441
ural	-2442
▁fle	-2443
▁olympic	-2444
▁democracy	-2445
zz	-2446
▁send	-2447
▁asian	-2448
▁flood	-2449
▁experts	-2450
▁respond	-2451
▁speaking	-2452
rents	-2453
▁cann	-2454
▁pred	-2455
▁opened	-2456
▁social	-2457
▁justice	-2458
den	-2459
▁je	-2460
▁story	-2461
ounding	-2462
▁colomb	-2463
▁majority	-2464
bs	-2465
cy	-2466
▁hon	-2467
▁doing	-2468
▁offer	-2469
▁sales	-2470
▁things	-2471
▁complete	-2472
▁launched	-2473
▁community	-2474
ires	-2475
ners	-2476
▁field	-2477
▁higher	-2478
▁named	-2479
▁forced	-2480
▁turkey	-2481
▁request	-2482
▁programs	-2483
▁continued	-2484
ilar	-2485
▁eth	-2486
arian	-2487
▁bhut	-2488
▁cult	-2489
▁battle	-2490
▁became	-2491
▁why	-2492
▁dail	-2493
▁safety	-2494
▁civilians	-2495
ott	-2496
▁wild	-2497
▁county	-2498
ounds	-2499
▁senator	-2500
ality	-2501
▁celebr	-2502
▁embass	-2503
▁researc	-2504
▁ten	-2505
▁talk	-2506
▁radio	-2507
▁urged	-2508
▁diffic	-2509
▁disapp	-2510
▁primary	-2511
iod	-2512
▁bir	-2513
▁tom	-2514
▁tor	-2515
ensive	-2516
▁leave	-2517
▁virgin	-2518
▁arrived	-2519
▁concerns	-2520
▁described	-2521
▁residents	-2522
▁ey	-2523
uted	-2524
▁rule	-2525
▁shows	-2526
▁parties	-2527
▁similar	-2528
▁difficult	-2529
udi	-2530
▁tim	-2531
▁2007	-2532
▁damage	-2533
▁himself	-2534
▁indones	-2535
▁present	-2536
▁prevent	-2537
▁governor	-2538
▁measures	-2539
▁delegates	-2540
▁association	-2541
bi	-2542
ana	-2543
aled	-2544
vere	-2545
▁compl	-2546
▁daily	-2547
▁comment	-2548
while	-2549
▁stat	-2550
▁often	-2551
▁bhutto	-2552
▁denied	-2553
ne	-2554
▁coop	-2555
▁wide	-2556
▁witness	-2557
▁carrying	-2558
▁oh	-2559
▁conn	-2560
▁cerem	-2561
▁period	-2562
▁william	-2563
▁daughter	-2564
▁estimated	-2565
▁identified	-2566
ortun	-2567
▁cars	-2568
▁prem	-2569
▁message	-2570
airs	-2571
ares	-2572
uries	-2573
▁dism	-2574
▁hous	-2575
jected	-2576
▁fired	-2577
▁river	-2578
▁access	-2579
▁deputy	-2580
▁destroy	-2581
▁ordered	-2582
ote	-2583
▁197	-2584
▁bod	-2585
▁buy	-2586
▁africa	-2587
▁credit	-2588
▁calling	-2589
ron	-2590
uses	-2591
▁cop	-2592
▁non	-2593
▁ple	-2594
▁2002	-2595
▁kong	-2596
▁laws	-2597
▁cabin	-2598
▁store	-2599
▁husband	-2600
▁progress	-2601
▁australian	-2602
▁resolution	-2603
▁28	-2604
▁29	-2605
▁always	-2606
▁demonstr	-2607
aces	-2608
iles	-2609
▁300	-2610
▁wel	-2611
ilies	-2612
▁cast	-2613
▁chance	-2614
▁launch	-2615
▁robert	-2616
▁average	-2617
▁parents	-2618
▁82	-2619
ocks	-2620
pted	-2621
▁enc	-2622
ashed	-2623
▁done	-2624
▁scre	-2625
▁cases	-2626
▁traff	-2627
▁danger	-2628
▁minute	-2629
▁missile	-2630
▁families	-2631
▁meanwhile	-2632
▁production	-2633
▁safe	-2634
▁smok	-2635
▁michael	-2636
▁champions	-2637
▁population	-2638
iff	-2639
▁dog	-2640
▁hun	-2641
anmar	-2642
▁rout	-2643
▁reform	-2644
▁profess	-2645
uf	-2646
oming	-2647
▁funds	-2648
▁scene	-2649
▁strugg	-2650
▁illegal	-2651
▁myanmar	-2652
▁computer	-2653
ask	-2654
igin	-2655
heast	-2656
▁legal	-2657
▁details	-2658
▁included	-2659
▁suspected	-2660
ania	-2661
hest	-2662
▁club	-2663
▁pict	-2664
▁spent	-2665
▁ambass	-2666
▁citizens	-2667
▁particip	-2668
▁withdraw	-2669
uk	-2670
ata	-2671
isl	-2672
▁brief	-2673
▁royal	-2674
▁engine	-2675
▁brought	-2676
▁certain	-2677
▁iranian	-2678
▁cas	-2679
▁pled	-2680
▁armed	-2681
▁camer	-2682
ecution	-2683
▁sanctions	-2684
▁candidates	-2685
▁increasing	-2686
ches	-2687
iter	-2688
▁esp	-2689
▁resum	-2690
▁expressed	-2691
▁aw	-2692
▁cy	-2693
▁bit	-2694
▁bene	-2695
▁freed	-2696
▁custom	-2697
▁played	-2698
▁embassy	-2699
▁related	-2700
▁followed	-2701
▁31	-2702
▁ah	-2703
▁risk	-2704
▁guard	-2705
▁transport	-2706
iled	-2707
▁dow	-2708
▁fif	-2709
▁aftern	-2710
▁commer	-2711
▁living	-2712
kn	-2713
rel	-2714
▁ele	-2715
ences	-2716
▁mart	-2717
▁nato	-2718
▁rise	-2719
▁broke	-2720
▁carried	-2721
▁english	-2722
▁terrorist	-2723
for	-2724
hen	-2725
irc	-2726
▁abd	-2727
▁mob	-2728
▁obs	-2729
▁mater	-2730
▁rally	-2731
▁worst	-2732
▁afternoon	-2733
mal	-2734
▁80	-2735
ault	-2736
▁sud	-2737
enced	-2738
▁lear	-2739
▁mult	-2740
selves	-2741
▁ended	-2742
▁ready	-2743
▁trial	-2744
▁fourth	-2745
▁accident	-2746
▁comments	-2747
▁contract	-2748
▁activities	-2749
ilt	-2750
▁imm	-2751
▁pun	-2752
▁doesn	-2753
▁means	-2754
▁track	-2755
▁kilome	-2756
▁friends	-2757
▁streets	-2758
een	-2759
read	-2760
▁bal	-2761
▁ber	-2762
▁huge	-2763
▁snow	-2764
▁favor	-2765
▁brother	-2766
▁opening	-2767
▁refused	-2768
▁democrats	-2769
▁nomination	-2770
mad	-2771
▁crowd	-2772
▁parts	-2773
▁raised	-2774
▁refuge	-2775
▁allowed	-2776
▁cabinet	-2777
▁millions	-2778
▁researchers	-2779
tt	-2780
ges	-2781
▁fly	-2782
agement	-2783
▁claims	-2784
▁legisl	-2785
▁doctors	-2786
▁leaving	-2787
▁position	-2788
▁returned	-2789
▁fun	-2790
▁rose	-2791
engers	-2792
▁blood	-2793
▁rival	-2794
▁bodies	-2795
▁source	-2796
▁account	-2797
▁african	-2798
▁controvers	-2799
ev	-2800
▁bud	-2801
▁tai	-2802
▁occur	-2803
▁ambassador	-2804
▁feat	-2805
▁turk	-2806
▁crash	-2807
▁resol	-2808
▁matter	-2809
▁rocket	-2810
▁struck	-2811
ead	-2812
iant	-2813
lant	-2814
uing	-2815
▁fem	-2816
aging	-2817
▁rain	-2818
▁advis	-2819
▁putin	-2820
▁terrorism	-2821
▁conditions	-2822
ceed	-2823
iance	-2824
▁braz	-2825
▁circ	-2826
▁sure	-2827
▁surr	-2828
▁rescue	-2829
▁70	-2830
▁mis	-2831
atory	-2832
insula	-2833
▁needs	-2834
ighters	-2835
▁origin	-2836
▁peninsula	-2837
hood	-2838
ruct	-2839
▁chic	-2840
▁poor	-2841
▁birth	-2842
▁hopes	-2843
▁sites	-2844
▁stage	-2845
ilities	-2846
▁prince	-2847
▁instead	-2848
▁passengers	-2849
rial	-2850
▁typ	-2851
going	-2852
▁operations	-2853
amb	-2854
▁cub	-2855
aries	-2856
▁reach	-2857
▁traffic	-2858
▁gn	-2859
▁ts	-2860
amin	-2861
▁love	-2862
▁avail	-2863
▁estab	-2864
▁cities	-2865
▁mexico	-2866
▁quoted	-2867
▁forward	-2868
▁material	-2869
ara	-2870
▁pic	-2871
▁pul	-2872
inois	-2873
▁sect	-2874
▁blast	-2875
▁debate	-2876
▁taiwan	-2877
lled	-2878
onse	-2879
▁fans	-2880
▁gener	-2881
ability	-2882
▁course	-2883
▁passed	-2884
▁holding	-2885
▁trading	-2886
▁illinois	-2887
▁published	-2888
aped	-2889
wood	-2890
▁brazil	-2891
▁spread	-2892
▁communic	-2893
▁interior	-2894
ha	-2895
▁nom	-2896
▁pil	-2897
▁banks	-2898
▁announcement	-2899
iet	-2900
ift	-2901
ows	-2902
▁35	-2903
resp	-2904
▁card	-2905
▁feet	-2906
▁hands	-2907
▁liber	-2908
▁natur	-2909
▁restr	-2910
▁spending	-2911
▁relationship	-2912
ece	-2913
aves	-2914
▁pus	-2915
▁swe	-2916
istic	-2917
▁repe	-2918
▁temp	-2919
▁common	-2920
▁available	-2921
arks	-2922
▁bul	-2923
▁eas	-2924
ograph	-2925
▁chung	-2926
▁micro	-2927
▁smith	-2928
▁network	-2929
▁nothing	-2930
ped	-2931
▁gnp	-2932
itten	-2933
▁draw	-2934
▁evac	-2935
▁carol	-2936
▁index	-2937
▁insurg	-2938
ding	-2939
hold	-2940
▁fel	-2941
▁pow	-2942
izing	-2943
▁ital	-2944
▁franc	-2945
▁saudi	-2946
▁suffered	-2947
emy	-2948
▁90	-2949
itor	-2950
▁dae	-2951
anish	-2952
pping	-2953
▁crack	-2954
▁focus	-2955
▁makes	-2956
▁moved	-2957
▁histor	-2958
▁murder	-2959
▁currently	-2960
owed	-2961
▁aud	-2962
▁und	-2963
▁aimed	-2964
▁surpr	-2965
▁rising	-2966
ification	-2967
ria	-2968
ateg	-2969
idge	-2970
▁vac	-2971
▁2001	-2972
▁astr	-2973
itting	-2974
▁influ	-2975
▁annual	-2976
▁charge	-2977
▁concer	-2978
▁longer	-2979
▁nomine	-2980
▁worked	-2981
▁contact	-2982
▁schools	-2983
▁ceremony	-2984
▁broadcast	-2985
▁education	-2986
▁treatment	-2987
▁investment	-2988
▁201	-2989
▁dom	-2990
▁hen	-2991
▁sle	-2992
licop	-2993
▁soci	-2994
▁teen	-2995
▁trou	-2996
▁helicop	-2997
▁winning	-2998
▁declared	-2999
oned	-3000
▁196	-3001
▁pac	-3002
▁pur	-3003
▁data	-3004
▁sens	-3005
▁teac	-3006
▁worth	-3007
ization	-3008
▁cannot	-3009
▁either	-3010
▁signed	-3011
▁square	-3012
▁decades	-3013
▁themselves	-3014
of	-3015
atell	-3016
ients	-3017
▁steps	-3018
▁crimin	-3019
▁lawyer	-3020
▁letter	-3021
▁rebels	-3022
▁affairs	-3023
▁analysts	-3024
▁movement	-3025
▁response	-3026
▁virginia	-3027
ugh	-3028
▁ol	-3029
▁born	-3030
▁mail	-3031
iation	-3032
▁harry	-3033
▁thing	-3034
▁helped	-3035
▁muslim	-3036
▁satell	-3037
▁players	-3038
▁neighbor	-3039
▁signific	-3040
▁increased	-3041
▁institute	-3042
▁400	-3043
▁bak	-3044
▁dar	-3045
icles	-3046
▁lack	-3047
inking	-3048
▁above	-3049
▁cover	-3050
▁creat	-3051
ruption	-3052
▁moment	-3053
▁chicago	-3054
▁professor	-3055
▁diplomatic	-3056
▁particular	-3057
ike	-3058
▁ice	-3059
fully	-3060
overy	-3061
▁adding	-3062
▁atlant	-3063
▁century	-3064
▁weather	-3065
▁injuries	-3066
▁probably	-3067
▁employees	-3068
▁discovered	-3069
▁dub	-3070
▁bang	-3071
▁appoint	-3072
▁remains	-3073
▁consider	-3074
▁personal	-3075
▁commander	-3076
▁kilometers	-3077
hol	-3078
ker	-3079
▁45	-3080
▁toll	-3081
▁italy	-3082
▁challen	-3083
▁construction	-3084
af	-3085
hel	-3086
▁asp	-3087
▁blo	-3088
aling	-3089
ocked	-3090
▁date	-3091
▁moon	-3092
ological	-3093
▁questions	-3094
▁investigators	-3095
▁flo	-3096
▁fill	-3097
▁female	-3098
▁highest	-3099
▁destroyed	-3100
▁opt	-3101
▁nasa	-3102
▁rare	-3103
▁spot	-3104
▁weak	-3105
▁plant	-3106
▁dozens	-3107
▁indian	-3108
▁overse	-3109
▁playing	-3110
▁quickly	-3111
▁understand	-3112
aur	-3113
hua	-3114
▁32	-3115
cing	-3116
▁row	-3117
▁xin	-3118
itude	-3119
▁fort	-3120
apping	-3121
▁spain	-3122
▁create	-3123
▁deploy	-3124
▁dollars	-3125
▁italian	-3126
▁industrial	-3127
▁independent	-3128
uit	-3129
▁displ	-3130
▁jones	-3131
▁giving	-3132
▁earthqu	-3133
▁natural	-3134
▁turkish	-3135
avez	-3136
▁exc	-3137
▁sil	-3138
preme	-3139
▁2000	-3140
▁vers	-3141
idered	-3142
▁chavez	-3143
▁dollar	-3144
▁reason	-3145
▁manager	-3146
▁supreme	-3147
▁anything	-3148
▁shooting	-3149
▁threatened	-3150
arm	-3151
nel	-3152
wor	-3153
erve	-3154
gypt	-3155
▁abb	-3156
▁ful	-3157
▁arch	-3158
▁drop	-3159
▁espec	-3160
▁collect	-3161
▁numbers	-3162
▁seeking	-3163
▁approved	-3164
▁detained	-3165
▁transfer	-3166
▁especially	-3167
▁everything	-3168
gu	-3169
▁bi	-3170
▁ho	-3171
▁ii	-3172
▁jer	-3173
▁nic	-3174
▁unc	-3175
▁farm	-3176
▁mosc	-3177
▁paid	-3178
▁phys	-3179
▁maint	-3180
▁mayor	-3181
▁stren	-3182
▁necess	-3183
▁changes	-3184
▁vehicle	-3185
▁allegedly	-3186
▁considered	-3187
omp	-3188
aded	-3189
west	-3190
house	-3191
▁song	-3192
isters	-3193
▁egypt	-3194
▁marri	-3195
▁speed	-3196
▁nearby	-3197
▁hearing	-3198
▁richard	-3199
nam	-3200
olf	-3201
▁kh	-3202
enez	-3203
room	-3204
▁die	-3205
▁las	-3206
▁mac	-3207
aught	-3208
craft	-3209
jects	-3210
▁defe	-3211
▁hear	-3212
▁idea	-3213
▁jack	-3214
▁regul	-3215
▁barrel	-3216
▁commit	-3217
▁corpor	-3218
▁levels	-3219
▁moscow	-3220
▁review	-3221
▁evening	-3222
▁politic	-3223
▁opportun	-3224
▁allegations	-3225
▁unf	-3226
▁posted	-3227
▁single	-3228
▁streng	-3229
▁massive	-3230
▁additional	-3231
▁fre	-3232
▁kept	-3233
▁range	-3234
▁sides	-3235
▁condem	-3236
▁sexual	-3237
▁mountain	-3238
yan	-3239
akes	-3240
come	-3241
ional	-3242
▁euro	-3243
▁georg	-3244
▁wrong	-3245
▁perfor	-3246
▁dropped	-3247
▁session	-3248
▁carolina	-3249
▁apparently	-3250
▁prosecution	-3251
▁abs	-3252
▁kur	-3253
onaut	-3254
▁blue	-3255
▁doub	-3256
▁join	-3257
▁lang	-3258
▁shin	-3259
▁autom	-3260
▁check	-3261
▁title	-3262
▁happened	-3263
▁attention	-3264
body	-3265
▁bird	-3266
▁stra	-3267
▁backed	-3268
▁driving	-3269
▁remarks	-3270
▁convicted	-3271
▁investors	-3272
▁potential	-3273
▁criticized	-3274
▁responsible	-3275
hi	-3276
ylv	-3277
mine	-3278
▁cro	-3279
▁dig	-3280
ively	-3281
▁8212	-3282
▁shiite	-3283
▁aircraft	-3284
▁training	-3285
▁significant	-3286
▁37	-3287
quar	-3288
nsylv	-3289
▁jump	-3290
▁muse	-3291
▁reve	-3292
▁extra	-3293
▁critical	-3294
▁pennsylv	-3295
▁responsibility	-3296
▁sel	-3297
lines	-3298
▁firm	-3299
▁propos	-3300
▁visitors	-3301
pts	-3302
▁beg	-3303
▁rod	-3304
apers	-3305
hered	-3306
▁purs	-3307
▁soft	-3308
▁cance	-3309
▁costs	-3310
▁sharp	-3311
▁venez	-3312
▁cancer	-3313
▁xinhua	-3314
▁society	-3315
▁admitted	-3316
▁venezuel	-3317
▁parliamentary	-3318
ken	-3319
▁ow	-3320
ream	-3321
▁ale	-3322
▁ron	-3323
▁uri	-3324
isted	-3325
phone	-3326
▁whom	-3327
ination	-3328
▁attend	-3329
▁animals	-3330
▁college	-3331
▁alliance	-3332
▁products	-3333
▁authority	-3334
▁buildings	-3335
ado	-3336
agon	-3337
ises	-3338
▁haw	-3339
▁arms	-3340
▁ohio	-3341
▁boost	-3342
▁crime	-3343
▁heard	-3344
▁subst	-3345
▁planning	-3346
▁indonesia	-3347
▁prisoners	-3348
▁conservative	-3349
▁independence	-3350
▁pennsylvania	-3351
▁environmental	-3352
kes	-3353
gery	-3354
▁bin	-3355
ufact	-3356
▁seat	-3357
ailand	-3358
▁museum	-3359
▁territ	-3360
▁consumer	-3361
▁manufact	-3362
▁thailand	-3363
▁performan	-3364
omm	-3365
▁ep	-3366
iger	-3367
▁raid	-3368
▁shop	-3369
▁medic	-3370
▁offered	-3371
▁student	-3372
▁suspects	-3373
▁management	-3374
back	-3375
▁ans	-3376
▁shr	-3377
▁jose	-3378
▁rail	-3379
▁benef	-3380
▁scand	-3381
▁pacific	-3382
▁respect	-3383
▁someone	-3384
▁written	-3385
▁committed	-3386
▁worldwide	-3387
▁ps	-3388
where	-3389
▁size	-3390
lement	-3391
▁motor	-3392
▁serve	-3393
▁combat	-3394
▁holiday	-3395
▁attacked	-3396
▁electric	-3397
▁rejected	-3398
▁separate	-3399
▁beginning	-3400
▁previously	-3401
ware	-3402
▁gar	-3403
▁lib	-3404
alled	-3405
orter	-3406
▁baby	-3407
▁abbas	-3408
▁domin	-3409
▁tests	-3410
▁works	-3411
▁defend	-3412
▁severe	-3413
▁suspect	-3414
▁leadership	-3415
ao	-3416
rs	-3417
bed	-3418
resh	-3419
▁hall	-3420
▁recon	-3421
▁rules	-3422
▁seats	-3423
▁forest	-3424
▁regard	-3425
▁custody	-3426
▁nominee	-3427
▁shortly	-3428
▁includes	-3429
▁vehicles	-3430
ibly	-3431
ston	-3432
estic	-3433
▁ties	-3434
▁ruled	-3435
▁rather	-3436
▁commerc	-3437
▁regional	-3438
▁remained	-3439
▁insurgents	-3440
ezz	-3441
▁lu	-3442
ider	-3443
rote	-3444
▁bail	-3445
▁phil	-3446
▁rock	-3447
▁avoid	-3448
▁penal	-3449
▁allies	-3450
▁figure	-3451
▁herald	-3452
▁reactor	-3453
▁actually	-3454
▁proposed	-3455
▁criticism	-3456
rid	-3457
pper	-3458
▁opin	-3459
▁contr	-3460
▁langu	-3461
▁signs	-3462
▁occurred	-3463
▁explosion	-3464
▁corruption	-3465
aks	-3466
ran	-3467
soft	-3468
▁adop	-3469
▁mort	-3470
▁sale	-3471
▁giant	-3472
▁votes	-3473
▁georgia	-3474
▁everyone	-3475
▁olympics	-3476
▁repeated	-3477
▁microsoft	-3478
▁satellite	-3479
▁earthquake	-3480
▁bol	-3481
▁mel	-3482
asion	-3483
duced	-3484
▁zone	-3485
▁refer	-3486
▁relig	-3487
▁takes	-3488
▁apolog	-3489
▁linked	-3490
▁moving	-3491
▁shares	-3492
▁product	-3493
▁civilian	-3494
▁starting	-3495
▁mc	-3496
▁ul	-3497
know	-3498
▁sky	-3499
uters	-3500
lywood	-3501
▁paper	-3502
▁wrote	-3503
▁events	-3504
▁elected	-3505
▁figures	-3506
▁improve	-3507
▁inspect	-3508
▁conducted	-3509
▁documents	-3510
▁pi	-3511
▁bay	-3512
▁han	-3513
▁jew	-3514
▁sty	-3515
ently	-3516
field	-3517
oting	-3518
▁word	-3519
▁fifth	-3520
▁pract	-3521
respond	-3522
▁charac	-3523
▁correspond	-3524
wer	-3525
▁hu	-3526
chie	-3527
▁lad	-3528
▁mas	-3529
icket	-3530
vered	-3531
▁built	-3532
▁minor	-3533
▁myung	-3534
▁treas	-3535
knowled	-3536
▁impact	-3537
▁attract	-3538
▁complex	-3539
▁science	-3540
▁acknowled	-3541
▁commercial	-3542
abe	-3543
ray	-3544
ych	-3545
▁fer	-3546
▁slow	-3547
▁actor	-3548
▁evacu	-3549
▁fresh	-3550
▁anyone	-3551
▁flights	-3552
▁determin	-3553
car	-3554
eth	-3555
ris	-3556
▁36	-3557
rain	-3558
force	-3559
using	-3560
▁remo	-3561
▁yong	-3562
▁envoy	-3563
▁faces	-3564
▁girls	-3565
▁james	-3566
▁marine	-3567
▁bombing	-3568
▁climate	-3569
▁spanish	-3570
▁surgery	-3571
▁addition	-3572
▁football	-3573
unt	-3574
ivid	-3575
ping	-3576
▁ali	-3577
▁deg	-3578
▁fair	-3579
▁fest	-3580
▁guil	-3581
▁trig	-3582
▁wood	-3583
▁bombs	-3584
▁brain	-3585
▁prize	-3586
▁rates	-3587
▁perform	-3588
▁showing	-3589
ota	-3590
▁fish	-3591
▁sant	-3592
▁blamed	-3593
▁guilty	-3594
▁itself	-3595
▁player	-3596
ox	-3597
ties	-3598
▁flu	-3599
▁cash	-3600
▁jung	-3601
▁ahmad	-3602
▁spoke	-3603
▁career	-3604
▁created	-3605
▁restaur	-3606
▁electron	-3607
▁tourists	-3608
sp	-3609
berg	-3610
▁alex	-3611
encies	-3612
▁clean	-3613
▁fears	-3614
▁terms	-3615
▁encour	-3616
▁reduce	-3617
▁marriage	-3618
ica	-3619
ogn	-3620
▁acad	-3621
▁jong	-3622
iction	-3623
▁behav	-3624
▁animal	-3625
▁citing	-3626
▁mosque	-3627
▁confirm	-3628
▁suggested	-3629
▁au	-3630
▁fa	-3631
abwe	-3632
▁fro	-3633
▁gat	-3634
ullah	-3635
▁hurt	-3636
▁self	-3637
▁zimb	-3638
▁gates	-3639
▁moham	-3640
▁queen	-3641
▁sleep	-3642
▁mobile	-3643
▁normal	-3644
▁recogn	-3645
▁regime	-3646
▁colombia	-3647
▁domestic	-3648
▁peaceful	-3649
▁policies	-3650
▁provided	-3651
▁zimbabwe	-3652
▁ministers	-3653
▁operating	-3654
my	-3655
ites	-3656
rators	-3657
▁filed	-3658
▁mostly	-3659
▁astronaut	-3660
▁concerned	-3661
ga	-3662
hib	-3663
▁et	-3664
▁ha	-3665
anda	-3666
▁ens	-3667
▁names	-3668
▁owner	-3669
▁shown	-3670
▁winds	-3671
▁screen	-3672
▁contrib	-3673
▁dispute	-3674
▁finance	-3675
▁measure	-3676
▁patients	-3677
▁necessary	-3678
lies	-3679
rupt	-3680
usal	-3681
▁rap	-3682
▁gall	-3683
▁push	-3684
▁panel	-3685
▁words	-3686
▁supply	-3687
▁damaged	-3688
▁francis	-3689
▁individ	-3690
▁replace	-3691
▁criminal	-3692
▁lebanese	-3693
▁terrorists	-3694
ba	-3695
erc	-3696
mert	-3697
▁ask	-3698
▁mah	-3699
▁ton	-3700
erson	-3701
▁mary	-3702
▁stem	-3703
▁ways	-3704
▁intro	-3705
▁assass	-3706
▁stocks	-3707
▁lebanon	-3708
▁stopped	-3709
▁compared	-3710
▁promised	-3711
▁dangerous	-3712
▁neighborhood	-3713
▁palestinians	-3714
bel	-3715
ett	-3716
uan	-3717
▁id	-3718
keep	-3719
▁150	-3720
▁bbc	-3721
▁dut	-3722
▁ram	-3723
ature	-3724
▁heav	-3725
▁ilbo	-3726
▁kids	-3727
▁kurd	-3728
▁sher	-3729
friend	-3730
▁achie	-3731
▁confl	-3732
▁drugs	-3733
▁magaz	-3734
▁bridge	-3735
▁voting	-3736
▁shuttle	-3737
▁affected	-3738
▁sentence	-3739
▁remaining	-3740
▁suspended	-3741
ears	-3742
onym	-3743
▁lay	-3744
▁fast	-3745
▁mach	-3746
▁magn	-3747
▁shel	-3748
▁lines	-3749
▁princ	-3750
▁sought	-3751
▁suspic	-3752
▁wearing	-3753
▁militant	-3754
▁positive	-3755
▁hollywood	-3756
▁involving	-3757
ips	-3758
uff	-3759
▁33	-3760
▁ki	-3761
asts	-3762
mark	-3763
sein	-3764
▁box	-3765
▁cru	-3766
▁fbi	-3767
▁gul	-3768
▁sho	-3769
ounts	-3770
▁seed	-3771
ulated	-3772
▁insur	-3773
▁assault	-3774
▁powerful	-3775
▁protection	-3776
de	-3777
bre	-3778
dog	-3779
▁da	-3780
▁inn	-3781
▁pir	-3782
▁ven	-3783
▁cold	-3784
▁else	-3785
▁felt	-3786
▁flag	-3787
▁navy	-3788
▁voted	-3789
▁amount	-3790
▁joined	-3791
▁failure	-3792
▁ongoing	-3793
▁village	-3794
▁designed	-3795
▁document	-3796
▁territory	-3797
▁opportunity	-3798
▁performance	-3799
▁gh	-3800
road	-3801
▁600	-3802
▁hav	-3803
▁gang	-3804
▁yang	-3805
coming	-3806
utions	-3807
▁joins	-3808
▁truck	-3809
ression	-3810
▁appeal	-3811
▁collaps	-3812
▁conflict	-3813
▁gathered	-3814
▁headquar	-3815
▁meetings	-3816
▁overseas	-3817
▁activists	-3818
▁confidence	-3819
▁journalists	-3820
mas	-3821
ovo	-3822
itch	-3823
▁abe	-3824
▁yah	-3825
ander	-3826
ordin	-3827
▁prec	-3828
▁seek	-3829
▁surf	-3830
▁color	-3831
▁psych	-3832
▁raise	-3833
▁caught	-3834
▁malays	-3835
▁placed	-3836
▁seized	-3837
▁waters	-3838
▁dismiss	-3839
▁annivers	-3840
sc	-3841
dam	-3842
reg	-3843
ttp	-3844
vert	-3845
▁oce	-3846
agers	-3847
▁http	-3848
▁wing	-3849
▁beach	-3850
▁crude	-3851
▁memor	-3852
▁images	-3853
▁helping	-3854
▁opinion	-3855
▁cooperation	-3856
▁possibility	-3857
olic	-3858
omic	-3859
▁god	-3860
iling	-3861
▁wasn	-3862
▁apple	-3863
▁drive	-3864
▁enter	-3865
▁olmert	-3866
▁initial	-3867
▁straight	-3868
▁experience	-3869
▁anniversary	-3870
▁considering	-3871
▁headquarters	-3872
▁investigating	-3873
ps	-3874
▁38	-3875
▁42	-3876
▁75	-3877
▁ze	-3878
▁800	-3879
▁isn	-3880
▁van	-3881
▁ves	-3882
apore	-3883
arily	-3884
▁serb	-3885
▁below	-3886
▁peter	-3887
▁quake	-3888
▁trail	-3889
▁voice	-3890
▁pulled	-3891
▁critics	-3892
▁propert	-3893
▁customers	-3894
▁singapore	-3895
▁reportedly	-3896
lus	-3897
nes	-3898
▁ko	-3899
burg	-3900
igan	-3901
▁anc	-3902
▁alco	-3903
▁dozen	-3904
▁hurric	-3905
▁immigr	-3906
▁looked	-3907
▁winter	-3908
▁violent	-3909
▁sentenced	-3910
▁telephone	-3911
iro	-3912
ror	-3913
▁ok	-3914
ancy	-3915
ille	-3916
erate	-3917
light	-3918
orrow	-3919
▁clin	-3920
▁item	-3921
▁lone	-3922
▁qual	-3923
▁homel	-3924
▁laden	-3925
▁veter	-3926
▁entire	-3927
▁resume	-3928
▁pledged	-3929
▁regular	-3930
▁reuters	-3931
▁christop	-3932
▁throughout	-3933
vez	-3934
ales	-3935
ends	-3936
▁mug	-3937
▁goes	-3938
▁page	-3939
▁blair	-3940
▁block	-3941
▁chann	-3942
▁lands	-3943
▁yahoo	-3944
▁famous	-3945
▁madrid	-3946
▁appears	-3947
▁conclud	-3948
▁contest	-3949
▁involve	-3950
▁directly	-3951
▁christmas	-3952
▁establish	-3953
▁controversial	-3954
do	-3955
iki	-3956
▁ly	-3957
▁ut	-3958
▁jet	-3959
iment	-3960
ordon	-3961
rency	-3962
▁auto	-3963
▁bear	-3964
▁gone	-3965
▁happy	-3966
▁defeat	-3967
▁recomm	-3968
▁vessel	-3969
▁winner	-3970
▁freedom	-3971
▁largely	-3972
▁princip	-3973
▁willing	-3974
▁complain	-3975
▁declined	-3976
▁disaster	-3977
▁language	-3978
▁produced	-3979
▁developing	-3980
▁facilities	-3981
▁christopher	-3982
vin	-3983
abil	-3984
abul	-3985
▁alb	-3986
▁hair	-3987
▁pent	-3988
▁spir	-3989
▁tech	-3990
▁alone	-3991
▁choice	-3992
▁ticket	-3993
▁alcohol	-3994
▁package	-3995
▁fighters	-3996
▁kidnapped	-3997
ams	-3998
sen	-3999
▁48	-4000
apse	-4001
▁fra	-4002
▁rat	-4003
▁bott	-4004
▁prior	-4005
▁trust	-4006
▁twice	-4007
▁meters	-4008
▁selling	-4009
▁soldier	-4010
▁assistant	-4011
▁hurricane	-4012
▁surrounding	-4013
gn	-4014
ery	-4015
▁ic	-4016
code	-4017
▁gro	-4018
▁var	-4019
▁true	-4020
aching	-4021
▁aband	-4022
▁dream	-4023
▁model	-4024
▁patro	-4025
▁tells	-4026
▁casual	-4027
▁expand	-4028
▁headed	-4029
▁demands	-4030
▁distrib	-4031
▁overall	-4032
▁scandal	-4033
▁behavior	-4034
▁deadline	-4035
▁witnesses	-4036
aki	-4037
eing	-4038
▁ari	-4039
▁bat	-4040
▁gal	-4041
▁kos	-4042
ilipp	-4043
▁band	-4044
▁fine	-4045
▁grad	-4046
▁pick	-4047
▁burma	-4048
▁sudan	-4049
▁sunni	-4050
▁double	-4051
▁ending	-4052
▁mugabe	-4053
▁victim	-4054
▁philipp	-4055
▁premier	-4056
▁species	-4057
▁activity	-4058
▁magazine	-4059
▁missiles	-4060
uj	-4061
het	-4062
olas	-4063
▁mist	-4064
▁rang	-4065
▁downt	-4066
▁somal	-4067
▁canada	-4068
▁records	-4069
▁systems	-4070
▁talking	-4071
▁bombings	-4072
▁software	-4073
▁challenge	-4074
▁traditional	-4075
▁constitutional	-4076
ko	-4077
mon	-4078
▁52	-4079
reme	-4080
wang	-4081
▁bey	-4082
▁bil	-4083
▁gon	-4084
▁ign	-4085
▁nar	-4086
▁2009	-4087
▁dark	-4088
▁score	-4089
▁surge	-4090
▁tight	-4091
▁decade	-4092
▁doctor	-4093
▁actions	-4094
▁married	-4095
▁usually	-4096
▁prepared	-4097
▁demanding	-4098
▁northeast	-4099
ube	-4100
▁ba	-4101
fort	-4102
ront	-4103
▁bed	-4104
▁dial	-4105
▁door	-4106
▁mind	-4107
▁tank	-4108
▁ocean	-4109
ologist	-4110
▁anonym	-4111
▁houses	-4112
▁extreme	-4113
▁imposed	-4114
▁pentagon	-4115
▁politics	-4116
▁targeted	-4117
▁williams	-4118
▁christian	-4119
▁consumers	-4120
▁helicopter	-4121
bon	-4122
▁51	-4123
▁lic	-4124
▁beck	-4125
▁fled	-4126
▁purch	-4127
ictions	-4128
▁demonst	-4129
▁hussein	-4130
ano	-4131
▁44	-4132
aska	-4133
▁spl	-4134
ender	-4135
▁knew	-4136
▁frank	-4137
▁fraud	-4138
▁meant	-4139
▁rebel	-4140
▁atomic	-4141
▁gordon	-4142
▁losses	-4143
▁weight	-4144
▁airline	-4145
▁collapse	-4146
▁proposal	-4147
▁francisco	-4148
▁recession	-4149
▁foreigners	-4150
oded	-4151
ogue	-4152
tern	-4153
unch	-4154
▁194	-4155
▁sac	-4156
ashes	-4157
asons	-4158
▁male	-4159
▁plot	-4160
▁pope	-4161
▁coach	-4162
▁lived	-4163
▁owned	-4164
▁stars	-4165
▁steve	-4166
▁places	-4167
▁sports	-4168
▁spring	-4169
▁surviv	-4170
▁temper	-4171
▁consult	-4172
▁deliver	-4173
▁sending	-4174
▁waiting	-4175
▁agencies	-4176
▁required	-4177
▁computers	-4178
▁controlled	-4179
▁convention	-4180
▁prosecutor	-4181
▁resignation	-4182
▁particularly	-4183
▁ult	-4184
isher	-4185
itarian	-4186
▁beyond	-4187
▁losing	-4188
▁object	-4189
▁ronald	-4190
▁hostage	-4191
▁airlines	-4192
▁presence	-4193
▁determine	-4194
▁revolution	-4195
rer	-4196
▁din	-4197
▁eld	-4198
▁eye	-4199
ateral	-4200
▁cells	-4201
▁draft	-4202
▁heads	-4203
▁syria	-4204
▁crimes	-4205
▁declar	-4206
▁koreas	-4207
▁maliki	-4208
▁relief	-4209
heastern	-4210
▁condole	-4211
▁pictures	-4212
▁traveling	-4213
▁governments	-4214
▁republicans	-4215
une	-4216
ezza	-4217
like	-4218
▁abu	-4219
▁hil	-4220
▁mir	-4221
▁scr	-4222
▁sov	-4223
ately	-4224
wards	-4225
▁clot	-4226
▁thai	-4227
▁tony	-4228
▁walk	-4229
▁abuse	-4230
▁fully	-4231
▁occup	-4232
▁oppon	-4233
itation	-4234
▁deadly	-4235
▁resort	-4236
▁secure	-4237
▁served	-4238
▁settle	-4239
▁unless	-4240
▁content	-4241
▁receive	-4242
▁setting	-4243
▁festival	-4244
▁treasury	-4245
▁developed	-4246
▁condoleezza	-4247
apt	-4248
gas	-4249
▁34	-4250
abad	-4251
ique	-4252
▁eru	-4253
▁gay	-4254
▁nep	-4255
aming	-4256
astic	-4257
▁trib	-4258
▁unit	-4259
▁style	-4260
▁gather	-4261
▁palace	-4262
▁portug	-4263
▁punish	-4264
▁actress	-4265
▁resolve	-4266
▁serving	-4267
▁visited	-4268
▁supplies	-4269
▁crackdown	-4270
▁implement	-4271
▁competition	-4272
▁politicians	-4273
▁700	-4274
▁bom	-4275
▁fix	-4276
▁gra	-4277
▁rus	-4278
▁1999	-4279
▁acqu	-4280
▁cong	-4281
▁monit	-4282
▁kosovo	-4283
▁sharif	-4284
▁singer	-4285
▁soviet	-4286
▁wealth	-4287
▁adviser	-4288
▁finding	-4289
▁various	-4290
▁approval	-4291
▁forecast	-4292
▁suffering	-4293
nic	-4294
▁55	-4295
aked	-4296
illa	-4297
imum	-4298
▁kyi	-4299
▁rub	-4300
gered	-4301
▁bern	-4302
▁corn	-4303
▁inqu	-4304
▁text	-4305
ifying	-4306
▁consp	-4307
▁honor	-4308
▁obser	-4309
▁happen	-4310
▁select	-4311
▁charles	-4312
▁quality	-4313
▁removed	-4314
▁dialogue	-4315
▁continues	-4316
▁religious	-4317
▁sometimes	-4318
▁determined	-4319
▁demonstrators	-4320
▁ku	-4321
iced	-4322
lets	-4323
rawn	-4324
▁luc	-4325
▁teh	-4326
enger	-4327
▁boyc	-4328
▁purp	-4329
ension	-4330
▁exerc	-4331
▁teams	-4332
▁touch	-4333
▁whole	-4334
▁camera	-4335
▁finish	-4336
▁howard	-4337
▁widely	-4338
▁changed	-4339
▁tibetan	-4340
▁demanded	-4341
▁questioned	-4342
ye	-4343
ami	-4344
ein	-4345
enn	-4346
rog	-4347
▁der	-4348
▁hor	-4349
▁cath	-4350
▁cuts	-4351
▁spar	-4352
▁unve	-4353
▁exist	-4354
▁kabul	-4355
▁users	-4356
▁affect	-4357
▁depart	-4358
▁facing	-4359
▁pervez	-4360
▁academy	-4361
▁beckham	-4362
▁express	-4363
▁lawyers	-4364
▁property	-4365
▁apartment	-4366
▁influence	-4367
▁declaration	-4368
fur	-4369
▁43	-4370
ford	-4371
▁rum	-4372
▁ones	-4373
▁onto	-4374
▁prin	-4375
▁floor	-4376
▁image	-4377
▁taxes	-4378
▁argent	-4379
▁bomber	-4380
▁becoming	-4381
▁historic	-4382
▁original	-4383
dom	-4384
oph	-4385
win	-4386
▁46	-4387
acts	-4388
azir	-4389
▁lou	-4390
▁nad	-4391
▁pra	-4392
▁1980	-4393
▁1998	-4394
▁mine	-4395
▁pull	-4396
▁roll	-4397
▁save	-4398
▁stad	-4399
▁trop	-4400
▁virt	-4401
▁alert	-4402
▁delay	-4403
▁diana	-4404
▁rapid	-4405
▁route	-4406
▁smoke	-4407
▁torch	-4408
▁troop	-4409
▁picked	-4410
▁planet	-4411
▁retail	-4412
▁ukrain	-4413
ferences	-4414
▁located	-4415
▁produce	-4416
▁accepted	-4417
▁character	-4418
▁businesses	-4419
▁organizations	-4420
▁gm	-4421
▁250	-4422
▁enj	-4423
▁mix	-4424
▁suu	-4425
etnam	-4426
▁1997	-4427
▁chem	-4428
▁items	-4429
▁sense	-4430
▁pounds	-4431
▁tehran	-4432
▁causing	-4433
▁finally	-4434
▁kurdish	-4435
▁believes	-4436
▁michigan	-4437
▁collapsed	-4438
▁estimates	-4439
▁providing	-4440
▁struggling	-4441
▁increasingly	-4442
▁demonstrations	-4443
aksin	-4444
anium	-4445
▁1990	-4446
▁cruc	-4447
▁hang	-4448
▁mahm	-4449
▁ring	-4450
enders	-4451
ground	-4452
▁alive	-4453
▁firef	-4454
▁arabia	-4455
▁highly	-4456
▁kenned	-4457
▁modern	-4458
▁housing	-4459
▁thaksin	-4460
▁attempts	-4461
▁division	-4462
▁tensions	-4463
▁explosives	-4464
▁withdrawal	-4465
▁discussions	-4466
▁transportation	-4467
▁53	-4468
▁gov	-4469
▁nev	-4470
▁sev	-4471
ented	-4472
▁boat	-4473
▁troub	-4474
▁belong	-4475
▁saddam	-4476
▁slight	-4477
▁unlike	-4478
▁heavily	-4479
▁highway	-4480
▁keeping	-4481
▁require	-4482
▁telling	-4483
▁uranium	-4484
▁vietnam	-4485
▁approach	-4486
▁captured	-4487
▁standing	-4488
▁attempted	-4489
▁indicated	-4490
▁initially	-4491
▁neighboring	-4492
ob	-4493
iri	-4494
uth	-4495
▁62	-4496
▁od	-4497
oses	-4498
▁cha	-4499
▁orb	-4500
itzer	-4501
▁cler	-4502
▁diss	-4503
▁pret	-4504
▁thin	-4505
▁equip	-4506
▁joong	-4507
▁pregn	-4508
▁stone	-4509
▁stood	-4510
▁value	-4511
▁virus	-4512
▁asking	-4513
▁broken	-4514
▁device	-4515
▁fellow	-4516
▁channel	-4517
▁culture	-4518
▁kennedy	-4519
▁partner	-4520
▁penalty	-4521
▁tourism	-4522
▁entertain	-4523
▁southeast	-4524
▁assistance	-4525
nd	-4526
zai	-4527
▁fal	-4528
▁hab	-4529
▁ally	-4530
▁ariz	-4531
▁meth	-4532
ounced	-4533
▁climb	-4534
▁colon	-4535
▁faced	-4536
▁holds	-4537
▁junta	-4538
▁liver	-4539
▁seems	-4540
▁spons	-4541
▁accomp	-4542
▁banned	-4543
▁flying	-4544
▁photos	-4545
▁scored	-4546
▁contain	-4547
▁picture	-4548
▁exploded	-4549
▁possibly	-4550
▁refugees	-4551
▁solution	-4552
▁appearance	-4553
▁kidnapping	-4554
▁profession	-4555
▁championship	-4556
ki	-4557
ici	-4558
▁ib	-4559
hens	-4560
oral	-4561
▁rac	-4562
▁zoo	-4563
arant	-4564
verse	-4565
▁bure	-4566
▁mile	-4567
▁rape	-4568
isions	-4569
▁exact	-4570
▁probe	-4571
▁ships	-4572
▁tough	-4573
▁vegas	-4574
issions	-4575
western	-4576
▁injury	-4577
▁phones	-4578
▁thanks	-4579
▁arizona	-4580
▁clashes	-4581
▁comfort	-4582
▁conspir	-4583
▁reserve	-4584
▁stadium	-4585
▁warming	-4586
▁bringing	-4587
▁currency	-4588
▁islamabad	-4589
▁foundation	-4590
▁threatening	-4591
▁correspondent	-4592
pe	-4593
cel	-4594
iny	-4595
ipp	-4596
▁sar	-4597
inger	-4598
▁bond	-4599
▁cuba	-4600
▁gain	-4601
▁goog	-4602
▁sadr	-4603
▁symb	-4604
▁carri	-4605
▁kenya	-4606
▁table	-4607
▁handed	-4608
▁tribal	-4609
▁greater	-4610
▁offices	-4611
▁partners	-4612
▁visiting	-4613
▁completed	-4614
▁governing	-4615
▁personnel	-4616
▁disappoint	-4617
ova	-4618
owa	-4619
ugg	-4620
▁47	-4621
etts	-4622
▁arr	-4623
▁dna	-4624
▁obt	-4625
achus	-4626
adian	-4627
▁blow	-4628
▁chec	-4629
▁rall	-4630
▁sams	-4631
▁tons	-4632
▁unem	-4633
usalem	-4634
▁films	-4635
▁goals	-4636
▁goods	-4637
▁reven	-4638
▁scale	-4639
▁resour	-4640
▁entered	-4641
▁nicolas	-4642
▁opposed	-4643
achusetts	-4644
▁finished	-4645
▁projects	-4646
▁jerusalem	-4647
▁journalist	-4648
▁supporting	-4649
▁massachusetts	-4650
aro	-4651
aker	-4652
aren	-4653
idel	-4654
▁bow	-4655
▁log	-4656
oning	-4657
▁gamb	-4658
▁hoped	-4659
▁looks	-4660
▁vowed	-4661
▁budget	-4662
▁ethnic	-4663
▁spears	-4664
▁delayed	-4665
▁allowing	-4666
▁unemploy	-4667
▁executives	-4668
▁nationwide	-4669
▁speculation	-4670
▁representatives	-4671
ols	-4672
oney	-4673
▁bea	-4674
▁ceo	-4675
▁pel	-4676
ulate	-4677
▁fash	-4678
▁gets	-4679
▁kang	-4680
▁mand	-4681
▁rein	-4682
▁warr	-4683
▁wire	-4684
▁yell	-4685
idency	-4686
ighter	-4687
▁angry	-4688
▁examp	-4689
▁nepal	-4690
▁extrem	-4691
▁income	-4692
▁martin	-4693
▁ancient	-4694
▁enforce	-4695
▁equipment	-4696
▁connection	-4697
▁negotiator	-4698
▁commissioner	-4699
mo	-4700
ope	-4701
▁ji	-4702
▁gri	-4703
▁sat	-4704
anted	-4705
▁dogs	-4706
▁hung	-4707
▁fatah	-4708
▁innoc	-4709
▁driver	-4710
▁google	-4711
▁remote	-4712
▁crashed	-4713
▁crucial	-4714
▁footage	-4715
▁tonight	-4716
▁downtown	-4717
▁reaction	-4718
▁evacuated	-4719
▁eventually	-4720
▁involvement	-4721
wa	-4722
ena	-4723
▁54	-4724
rison	-4725
▁cart	-4726
▁heat	-4727
▁jury	-4728
▁lose	-4729
▁path	-4730
▁agric	-4731
▁books	-4732
▁defin	-4733
chester	-4734
▁abduct	-4735
▁buying	-4736
▁narrow	-4737
▁samsung	-4738
▁smaller	-4739
▁threats	-4740
▁treated	-4741
▁version	-4742
▁administ	-4743
▁intended	-4744
▁discovery	-4745
▁dismissed	-4746
▁strengthe	-4747
za	-4748
hem	-4749
enty	-4750
haps	-4751
icip	-4752
rees	-4753
rian	-4754
tery	-4755
time	-4756
▁cbs	-4757
ropri	-4758
▁pray	-4759
▁wake	-4760
mitted	-4761
▁categ	-4762
▁frequ	-4763
▁haven	-4764
▁oscar	-4765
▁carbon	-4766
▁closer	-4767
▁iraqis	-4768
▁karzai	-4769
▁fashion	-4770
▁guarant	-4771
▁mahmoud	-4772
▁reasons	-4773
▁strateg	-4774
▁studies	-4775
▁windows	-4776
▁facility	-4777
▁killings	-4778
▁lawmaker	-4779
▁relative	-4780
▁seriously	-4781
▁delegation	-4782
rect	-4783
▁tun	-4784
▁cauc	-4785
▁dong	-4786
▁sand	-4787
▁thom	-4788
▁wolf	-4789
▁cents	-4790
▁rough	-4791
▁active	-4792
▁estate	-4793
▁movies	-4794
▁nevada	-4795
▁outbre	-4796
▁seeing	-4797
▁stress	-4798
▁heading	-4799
▁jackson	-4800
▁perhaps	-4801
▁agricult	-4802
▁canceled	-4803
▁resident	-4804
▁stations	-4805
▁surprise	-4806
▁condemned	-4807
him	-4808
▁ash	-4809
▁cia	-4810
▁jim	-4811
▁rid	-4812
▁uns	-4813
aches	-4814
anged	-4815
▁dani	-4816
▁ford	-4817
▁iowa	-4818
▁isol	-4819
nament	-4820
▁dutch	-4821
▁nobel	-4822
▁noted	-4823
▁piece	-4824
▁subur	-4825
▁cruise	-4826
▁ensure	-4827
▁export	-4828
▁recall	-4829
▁tempor	-4830
▁unable	-4831
▁weapon	-4832
▁concert	-4833
▁perfect	-4834
▁walking	-4835
▁watched	-4836
▁audience	-4837
▁memorial	-4838
▁trillion	-4839
▁completely	-4840
▁tournament	-4841
▁humanitarian	-4842
ea	-4843
cle	-4844
lig	-4845
oth	-4846
udd	-4847
ura	-4848
▁nbc	-4849
ivity	-4850
lands	-4851
osing	-4852
▁chos	-4853
icient	-4854
incial	-4855
▁album	-4856
▁comed	-4857
▁forum	-4858
▁initi	-4859
▁maybe	-4860
▁milan	-4861
▁abroad	-4862
▁advant	-4863
▁patrol	-4864
▁status	-4865
▁treaty	-4866
▁bailout	-4867
▁sheriff	-4868
▁simpson	-4869
▁speaker	-4870
▁challeng	-4871
▁standard	-4872
▁corporate	-4873
▁diplomats	-4874
▁insurance	-4875
▁magnitude	-4876
▁relatives	-4877
▁travelers	-4878
▁provincial	-4879
ho	-4880
va	-4881
lad	-4882
▁41	-4883
▁64	-4884
oard	-4885
ucks	-4886
▁atm	-4887
▁max	-4888
anced	-4889
ategy	-4890
usted	-4891
▁mike	-4892
▁slam	-4893
▁torn	-4894
▁upon	-4895
▁dubai	-4896
▁throw	-4897
▁applic	-4898
▁babies	-4899
▁owners	-4900
▁walked	-4901
▁weekly	-4902
▁display	-4903
▁exports	-4904
▁liberal	-4905
▁putting	-4906
▁strategy	-4907
▁presidency	-4908
icks	-4909
olit	-4910
▁pit	-4911
▁toy	-4912
ously	-4913
▁wine	-4914
▁roads	-4915
▁aboard	-4916
▁alaska	-4917
▁berlin	-4918
▁decide	-4919
▁gunmen	-4920
▁perman	-4921
▁farmers	-4922
▁limited	-4923
▁proceed	-4924
▁turning	-4925
▁claiming	-4926
▁extended	-4927
▁reporter	-4928
▁specific	-4929
▁watching	-4930
▁photograp	-4931
▁casualties	-4932
▁manchester	-4933
▁officially	-4934
▁organizers	-4935
▁photograph	-4936
rys	-4937
wal	-4938
rich	-4939
sequ	-4940
uals	-4941
▁dod	-4942
▁syd	-4943
▁wen	-4944
▁yes	-4945
ersey	-4946
▁aide	-4947
▁lady	-4948
▁outr	-4949
▁stim	-4950
▁zeal	-4951
▁cited	-4952
▁stake	-4953
▁cheney	-4954
▁guards	-4955
▁sudden	-4956
▁covered	-4957
▁kingdom	-4958
▁ranking	-4959
▁champion	-4960
▁strongly	-4961
▁appointed	-4962
▁offensive	-4963
ny	-4964
aze	-4965
ita	-4966
▁ec	-4967
fire	-4968
ills	-4969
onom	-4970
pool	-4971
▁ker	-4972
▁lob	-4973
ivals	-4974
ports	-4975
▁flow	-4976
▁mont	-4977
▁skin	-4978
▁toys	-4979
▁brand	-4980
▁diego	-4981
▁louis	-4982
▁niger	-4983
▁spirit	-4984
▁sydney	-4985
▁auction	-4986
▁clearly	-4987
▁muslims	-4988
▁smoking	-4989
▁invasion	-4990
▁princess	-4991
▁recovery	-4992
▁anonymity	-4993
▁standards	-4994
▁survivors	-4995
▁venezuela	-4996
▁newspapers	-4997
▁unemployment	-4998
iano	-4999
▁eve	-5000
iring	-5001
▁dram	-5002
▁type	-5003
▁doubt	-5004
▁maker	-5005
▁nadal	-5006
▁pound	-5007
▁quite	-5008
▁sound	-5009
▁sport	-5010
▁worse	-5011
▁answer	-5012
▁bought	-5013
▁columb	-5014
▁experi	-5015
▁hilton	-5016
▁sister	-5017
▁wonder	-5018
▁founder	-5019
▁benefits	-5020
▁confront	-5021
▁mohammed	-5022
▁revealed	-5023
▁detention	-5024
▁commitment	-5025
▁entertainment	-5026
▁65	-5027
abor	-5028
inal	-5029
oked	-5030
▁bob	-5031
▁spr	-5032
pread	-5033
▁chel	-5034
▁easy	-5035
▁eyes	-5036
▁feed	-5037
▁harm	-5038
▁suit	-5039
▁tear	-5040
▁visa	-5041
▁agent	-5042
▁wides	-5043
▁advert	-5044
▁awards	-5045
▁buried	-5046
▁formal	-5047
▁humans	-5048
▁tested	-5049
▁example	-5050
▁johnson	-5051
▁raising	-5052
▁tomorrow	-5053
▁electoral	-5054
▁tradition	-5055
▁electronic	-5056
▁widespread	-5057
▁destruction	-5058
da	-5059
awa	-5060
ikh	-5061
isc	-5062
esty	-5063
iang	-5064
▁cow	-5065
▁sem	-5066
▁carl	-5067
▁hamp	-5068
▁swim	-5069
▁tape	-5070
▁wars	-5071
▁catch	-5072
▁deton	-5073
▁monks	-5074
▁relay	-5075
▁rooms	-5076
▁santa	-5077
▁spend	-5078
▁altern	-5079
▁atmosp	-5080
▁devast	-5081
▁except	-5082
▁judges	-5083
▁powers	-5084
▁profit	-5085
▁soccer	-5086
▁cutting	-5087
▁landing	-5088
▁seconds	-5089
▁insisted	-5090
▁internal	-5091
▁returning	-5092
gar	-5093
oke	-5094
onh	-5095
ume	-5096
war	-5097
zen	-5098
▁39	-5099
▁iv	-5100
▁mu	-5101
▁rh	-5102
book	-5103
unte	-5104
well	-5105
▁kat	-5106
▁lie	-5107
▁unp	-5108
inces	-5109
▁samp	-5110
▁wave	-5111
▁wins	-5112
atures	-5113
▁agend	-5114
▁delta	-5115
▁knows	-5116
▁ordin	-5117
▁pilot	-5118
▁recru	-5119
▁renew	-5120
essions	-5121
▁assess	-5122
▁landed	-5123
▁lowest	-5124
▁prompt	-5125
▁resist	-5126
▁trouble	-5127
▁volunte	-5128
▁catholic	-5129
▁favorite	-5130
▁physical	-5131
▁passenger	-5132
▁provinces	-5133
▁resources	-5134
▁continuing	-5135
▁transition	-5136
▁electricity	-5137
▁acknowledged	-5138
▁assassination	-5139
bac	-5140
bar	-5141
uce	-5142
unk	-5143
▁56	-5144
▁km	-5145
▁lt	-5146
▁dal	-5147
▁fan	-5148
▁suc	-5149
uster	-5150
works	-5151
▁guns	-5152
▁none	-5153
▁rome	-5154
rysler	-5155
▁begun	-5156
▁enjoy	-5157
▁equal	-5158
▁grave	-5159
▁leads	-5160
▁loans	-5161
▁towns	-5162
▁daniel	-5163
▁jersey	-5164
▁jumped	-5165
▁simply	-5166
▁urging	-5167
▁apology	-5168
▁reflect	-5169
▁trapped	-5170
▁ukraine	-5171
▁creating	-5172
▁drinking	-5173
▁malaysia	-5174
▁medicine	-5175
▁household	-5176
▁organized	-5177
▁triggered	-5178
▁communications	-5179
rey	-5180
sea	-5181
set	-5182
uers	-5183
▁195	-5184
elled	-5185
ollah	-5186
osure	-5187
ville	-5188
▁2010	-5189
▁appl	-5190
▁cool	-5191
▁copy	-5192
▁diam	-5193
▁runs	-5194
▁stal	-5195
▁task	-5196
▁tort	-5197
▁birds	-5198
▁overn	-5199
▁agenda	-5200
▁choose	-5201
▁marked	-5202
▁planes	-5203
▁achieve	-5204
▁chelsea	-5205
▁learned	-5206
▁promote	-5207
▁targets	-5208
▁unclear	-5209
▁attended	-5210
▁cultural	-5211
▁negative	-5212
▁upcoming	-5213
▁colombian	-5214
▁discussed	-5215
▁liverpool	-5216
▁overnight	-5217
▁percentage	-5218
▁investigate	-5219
▁restrictions	-5220
aug	-5221
▁ia	-5222
byon	-5223
fare	-5224
feld	-5225
▁ath	-5226
▁ble	-5227
▁era	-5228
▁jes	-5229
ental	-5230
ipped	-5231
▁budd	-5232
▁calm	-5233
▁outp	-5234
▁pref	-5235
▁unus	-5236
▁apart	-5237
▁basis	-5238
▁enemy	-5239
▁faith	-5240
▁overw	-5241
▁youth	-5242
▁assets	-5243
▁burned	-5244
▁examin	-5245
▁proced	-5246
▁aggress	-5247
▁atlanta	-5248
▁centers	-5249
▁decline	-5250
▁indiana	-5251
▁install	-5252
▁pushing	-5253
▁chemical	-5254
▁offering	-5255
▁yongbyon	-5256
▁advantage	-5257
▁certainly	-5258
▁extremely	-5259
▁interests	-5260
▁conspiracy	-5261
▁differences	-5262
ju	-5263
lor	-5264
uri	-5265
▁78	-5266
▁pc	-5267
otic	-5268
▁adj	-5269
▁ric	-5270
▁spy	-5271
▁tan	-5272
stein	-5273
▁coff	-5274
▁debt	-5275
▁dict	-5276
▁hero	-5277
▁pair	-5278
▁plus	-5279
action	-5280
ivered	-5281
▁corps	-5282
▁divor	-5283
▁exile	-5284
▁fewer	-5285
▁fires	-5286
▁gains	-5287
▁acting	-5288
▁allows	-5289
▁gained	-5290
▁hoping	-5291
▁nature	-5292
▁potter	-5293
▁thomas	-5294
▁valley	-5295
▁diamond	-5296
▁mention	-5297
▁sparked	-5298
▁tourist	-5299
▁breaking	-5300
▁deployed	-5301
▁rescuers	-5302
▁standoff	-5303
▁wounding	-5304
▁confident	-5305
▁preparing	-5306
▁referring	-5307
▁reporting	-5308
▁successful	-5309
▁legislation	-5310
▁regulations	-5311
gen	-5312
kok	-5313
mun	-5314
rig	-5315
sid	-5316
▁58	-5317
▁mr	-5318
erer	-5319
fall	-5320
rend	-5321
▁bon	-5322
▁tab	-5323
▁dump	-5324
▁khan	-5325
▁matt	-5326
▁prol	-5327
▁rebu	-5328
▁shan	-5329
▁sick	-5330
▁tall	-5331
▁aides	-5332
▁prost	-5333
▁rural	-5334
▁stret	-5335
▁disarm	-5336
▁driven	-5337
▁filled	-5338
▁lifted	-5339
▁rivals	-5340
▁struct	-5341
▁welcom	-5342
▁bangkok	-5343
▁chances	-5344
▁islands	-5345
▁lawsuit	-5346
▁reduced	-5347
▁strikes	-5348
▁succeed	-5349
▁maryland	-5350
▁roadside	-5351
▁substant	-5352
▁unveiled	-5353
▁concluded	-5354
▁hospitals	-5355
▁generation	-5356
▁questioning	-5357
zb	-5358
gage	-5359
ading	-5360
attle	-5361
▁ghaz	-5362
▁jeff	-5363
▁pump	-5364
▁vlad	-5365
iously	-5366
▁boats	-5367
▁gives	-5368
▁reloc	-5369
imately	-5370
▁bureau	-5371
▁expert	-5372
▁frozen	-5373
▁golden	-5374
▁effects	-5375
▁federer	-5376
▁follows	-5377
▁healthy	-5378
▁herself	-5379
▁abdullah	-5380
▁entering	-5381
▁reaching	-5382
▁slightly	-5383
▁teachers	-5384
▁delivered	-5385
▁permanent	-5386
▁producing	-5387
▁61	-5388
▁66	-5389
ctic	-5390
etic	-5391
▁bah	-5392
▁cry	-5393
▁hug	-5394
▁jul	-5395
▁lev	-5396
▁raf	-5397
▁via	-5398
limin	-5399
oline	-5400
▁ease	-5401
▁fier	-5402
▁gulf	-5403
▁hezb	-5404
▁hole	-5405
▁tsun	-5406
▁adopt	-5407
▁basic	-5408
▁bench	-5409
▁dress	-5410
▁fayed	-5411
▁optim	-5412
▁petro	-5413
▁editor	-5414
▁enrich	-5415
▁plants	-5416
▁presum	-5417
▁proper	-5418
▁ranked	-5419
▁simple	-5420
▁stores	-5421
▁ability	-5422
▁advance	-5423
▁closing	-5424
▁complic	-5425
▁connect	-5426
▁digital	-5427
▁edwards	-5428
▁falling	-5429
▁focused	-5430
▁invited	-5431
▁zealand	-5432
▁homeland	-5433
▁location	-5434
▁prelimin	-5435
▁suggests	-5436
▁bilateral	-5437
▁inflation	-5438
▁opponents	-5439
▁supported	-5440
▁inspectors	-5441
▁statements	-5442
▁controversy	-5443
fl	-5444
amm	-5445
cri	-5446
iat	-5447
ipe	-5448
kel	-5449
▁57	-5450
▁73	-5451
▁eh	-5452
▁ru	-5453
arta	-5454
iami	-5455
life	-5456
▁fab	-5457
▁wil	-5458
▁amaz	-5459
▁boss	-5460
▁edge	-5461
▁gonz	-5462
▁leng	-5463
▁mour	-5464
▁swed	-5465
▁hwang	-5466
▁inaug	-5467
▁miami	-5468
▁palin	-5469
▁proud	-5470
▁prove	-5471
▁solar	-5472
▁spect	-5473
▁darfur	-5474
▁detain	-5475
▁remove	-5476
▁banking	-5477
▁meaning	-5478
▁rockets	-5479
▁statist	-5480
▁tsunami	-5481
▁canadian	-5482
▁chrysler	-5483
▁practice	-5484
▁hezbollah	-5485
▁materials	-5486
▁presented	-5487
▁unification	-5488
▁conservation	-5489
pa	-5490
era	-5491
ram	-5492
▁49	-5493
▁59	-5494
iest	-5495
part	-5496
rell	-5497
▁guy	-5498
▁sam	-5499
▁wis	-5500
▁aids	-5501
▁bell	-5502
▁bost	-5503
▁boys	-5504
▁emot	-5505
▁flew	-5506
▁grab	-5507
▁manh	-5508
▁note	-5509
▁sail	-5510
▁sean	-5511
▁shir	-5512
▁sust	-5513
▁volc	-5514
▁exhib	-5515
▁fatal	-5516
▁learn	-5517
▁broadc	-5518
▁fisher	-5519
▁formed	-5520
▁fought	-5521
▁method	-5522
▁trains	-5523
▁yellow	-5524
▁journey	-5525
▁radical	-5526
▁overwhel	-5527
▁strength	-5528
▁southwest	-5529
▁administrat	-5530
▁preliminary	-5531
▁firefighters	-5532
▁hospitalized	-5533
uts	-5534
▁95	-5535
▁ak	-5536
▁du	-5537
agan	-5538
bery	-5539
rick	-5540
stri	-5541
▁jon	-5542
▁sor	-5543
▁wid	-5544
abeth	-5545
onhap	-5546
▁argu	-5547
▁lake	-5548
▁lind	-5549
▁quit	-5550
▁scot	-5551
▁tiny	-5552
▁yout	-5553
akarta	-5554
▁split	-5555
▁threw	-5556
▁truth	-5557
▁bottom	-5558
▁campus	-5559
▁couldn	-5560
▁fallen	-5561
▁intens	-5562
▁interp	-5563
▁pretty	-5564
▁pushed	-5565
▁yonhap	-5566
ropriate	-5567
▁arrival	-5568
▁benazir	-5569
▁convers	-5570
▁coordin	-5571
▁couples	-5572
▁dismant	-5573
▁options	-5574
▁reading	-5575
▁refugee	-5576
▁retired	-5577
▁staying	-5578
▁testing	-5579
▁welcome	-5580
▁colorado	-5581
▁exercise	-5582
▁findings	-5583
▁flooding	-5584
▁prompted	-5585
▁warnings	-5586
▁emissions	-5587
▁neighbors	-5588
awi	-5589
isf	-5590
thr	-5591
▁fo	-5592
▁pu	-5593
oria	-5594
▁aer	-5595
▁hat	-5596
▁mph	-5597
▁ped	-5598
▁holy	-5599
▁lama	-5600
▁mars	-5601
▁sony	-5602
▁breat	-5603
▁dalai	-5604
▁macau	-5605
▁older	-5606
▁gunman	-5607
▁inches	-5608
▁larger	-5609
▁offers	-5610
▁remark	-5611
▁shrine	-5612
entially	-5613
▁boycott	-5614
▁promise	-5615
▁recover	-5616
▁youtube	-5617
▁delivery	-5618
▁outbreak	-5619
▁resigned	-5620
▁shopping	-5621
▁disappear	-5622
▁predicted	-5623
▁requested	-5624
▁repeatedly	-5625
▁manufacture	-5626
bur	-5627
ded	-5628
eed	-5629
rec	-5630
▁ta	-5631
outs	-5632
pect	-5633
zing	-5634
▁hub	-5635
ailed	-5636
ledge	-5637
leine	-5638
ptive	-5639
undai	-5640
▁drew	-5641
▁fate	-5642
▁pace	-5643
▁plat	-5644
▁scen	-5645
▁tack	-5646
▁vari	-5647
▁absol	-5648
▁blame	-5649
▁drawn	-5650
▁ideas	-5651
▁lying	-5652
▁overt	-5653
▁upper	-5654
▁afford	-5655
▁sector	-5656
▁hyundai	-5657
▁neither	-5658
▁profile	-5659
▁surface	-5660
▁towards	-5661
▁gasoline	-5662
▁northwest	-5663
▁girlfriend	-5664
▁restaurant	-5665
▁immigration	-5666
▁temperatures	-5667
hab	-5668
▁az	-5669
▁ox	-5670
emic	-5671
hist	-5672
ouri	-5673
▁abc	-5674
▁gap	-5675
▁mut	-5676
▁tay	-5677
rated	-5678
water	-5679
▁1994	-5680
▁exit	-5681
▁iaea	-5682
atican	-5683
▁cease	-5684
▁glass	-5685
▁globe	-5686
▁steel	-5687
▁strip	-5688
istered	-5689
▁boston	-5690
▁cleric	-5691
▁detect	-5692
▁jailed	-5693
▁landsl	-5694
▁seemed	-5695
▁stimul	-5696
▁vladim	-5697
▁edition	-5698
▁engaged	-5699
▁erupted	-5700
▁escaped	-5701
▁expects	-5702
▁funding	-5703
▁reality	-5704
▁vatican	-5705
▁writing	-5706
▁accompan	-5707
▁changing	-5708
▁searching	-5709
▁stability	-5710
▁atmosphere	-5711
▁individuals	-5712
▁professional	-5713
▁congressional	-5714
rae	-5715
omes	-5716
▁bac	-5717
▁ess	-5718
▁gib	-5719
▁mun	-5720
illed	-5721
iters	-5722
▁cycl	-5723
▁drag	-5724
▁gard	-5725
▁liqu	-5726
▁neck	-5727
▁sets	-5728
▁drove	-5729
▁label	-5730
▁sarah	-5731
▁scott	-5732
▁shout	-5733
▁degree	-5734
▁disney	-5735
▁earned	-5736
▁length	-5737
▁orders	-5738
▁airstri	-5739
▁captain	-5740
▁compens	-5741
▁drivers	-5742
▁patient	-5743
▁regions	-5744
▁younger	-5745
▁absolute	-5746
▁messages	-5747
▁survived	-5748
▁argentina	-5749
▁knowledge	-5750
▁recovered	-5751
▁targeting	-5752
▁enforcement	-5753
▁uh	-5754
enth	-5755
▁eat	-5756
▁fox	-5757
▁nav	-5758
▁rig	-5759
▁rio	-5760
▁sin	-5761
acity	-5762
shire	-5763
▁chap	-5764
▁grew	-5765
▁norm	-5766
▁stro	-5767
▁tied	-5768
▁tree	-5769
▁vast	-5770
▁vent	-5771
▁wait	-5772
minent	-5773
▁bound	-5774
▁jesus	-5775
▁osama	-5776
▁adults	-5777
▁circum	-5778
▁desert	-5779
▁flames	-5780
▁lights	-5781
▁closely	-5782
▁failing	-5783
▁subject	-5784
▁telecom	-5785
▁atlantic	-5786
▁formally	-5787
▁friendly	-5788
▁identify	-5789
▁producer	-5790
▁publicly	-5791
▁scotland	-5792
▁struggle	-5793
▁madeleine	-5794
▁observers	-5795
▁responded	-5796
▁astronauts	-5797
▁restaurants	-5798
▁communication	-5799
kk	-5800
ato	-5801
ini	-5802
oma	-5803
see	-5804
▁68	-5805
▁120	-5806
▁191	-5807
▁kaz	-5808
ansas	-5809
erved	-5810
osite	-5811
▁1970	-5812
▁aren	-5813
▁ehud	-5814
▁exam	-5815
▁reun	-5816
▁thro	-5817
▁firms	-5818
▁manip	-5819
▁paint	-5820
▁sixth	-5821
mission	-5822
▁athlet	-5823
▁corner	-5824
▁master	-5825
▁option	-5826
▁papers	-5827
▁termin	-5828
▁coastal	-5829
▁managed	-5830
▁pirates	-5831
▁reforms	-5832
▁stepped	-5833
▁wedding	-5834
▁estimate	-5835
▁innocent	-5836
▁vladimir	-5837
▁helicopters	-5838
▁broadcasting	-5839
▁expectations	-5840
bod	-5841
jad	-5842
nis	-5843
▁77	-5844
anch	-5845
onic	-5846
ques	-5847
rete	-5848
▁cos	-5849
▁lux	-5850
acing	-5851
ordan	-5852
▁airb	-5853
▁brut	-5854
▁chun	-5855
▁eliz	-5856
▁emph	-5857
▁ends	-5858
▁merc	-5859
▁arsen	-5860
▁delhi	-5861
▁escal	-5862
▁limit	-5863
▁marks	-5864
▁newly	-5865
▁shock	-5866
▁uncon	-5867
▁views	-5868
▁waste	-5869
▁barcel	-5870
▁bigger	-5871
▁convoy	-5872
▁escape	-5873
▁multip	-5874
▁paying	-5875
▁runner	-5876
ologists	-5877
▁matches	-5878
▁teacher	-5879
▁accounts	-5880
▁diplomat	-5881
▁positions	-5882
▁reduction	-5883
▁attempting	-5884
▁indonesian	-5885
▁introduced	-5886
▁counterpart	-5887
▁disarmament	-5888
▁established	-5889
▁philippines	-5890
aka	-5891
ias	-5892
uct	-5893
▁63	-5894
cher	-5895
form	-5896
look	-5897
▁130	-5898
agues	-5899
deleg	-5900
erous	-5901
raeus	-5902
▁beef	-5903
▁duty	-5904
▁warm	-5905
atever	-5906
▁abdul	-5907
▁debut	-5908
▁habit	-5909
▁squad	-5910
▁unity	-5911
▁boeing	-5912
▁counts	-5913
▁jordan	-5914
▁memory	-5915
▁serbia	-5916
▁shared	-5917
▁string	-5918
▁blocked	-5919
▁divided	-5920
▁feeling	-5921
▁license	-5922
▁birthday	-5923
▁circumst	-5924
▁contests	-5925
▁islamist	-5926
▁petraeus	-5927
▁recorded	-5928
▁whatever	-5929
▁alexander	-5930
▁barcelona	-5931
▁deployment	-5932
▁superdeleg	-5933
▁surrounded	-5934
ek	-5935
▁76	-5936
▁cz	-5937
▁gi	-5938
▁ug	-5939
ghai	-5940
orse	-5941
▁gop	-5942
lling	-5943
▁barb	-5944
▁halt	-5945
▁lift	-5946
▁migr	-5947
▁ride	-5948
▁sort	-5949
▁verd	-5950
rating	-5951
▁accus	-5952
▁anger	-5953
▁anton	-5954
▁kevin	-5955
vereign	-5956
▁beaten	-5957
▁bright	-5958
▁firing	-5959
▁adopted	-5960
▁cleared	-5961
▁illness	-5962
▁stories	-5963
▁pregnant	-5964
▁shanghai	-5965
▁stronger	-5966
▁troubled	-5967
▁villages	-5968
▁welcomed	-5969
▁direction	-5970
▁elizabeth	-5971
▁gathering	-5972
▁illegally	-5973
▁peacekeep	-5974
▁sovereign	-5975
▁suspicion	-5976
▁challenges	-5977
dc	-5978
gl	-5979
gs	-5980
oen	-5981
rad	-5982
▁ay	-5983
akers	-5984
inals	-5985
night	-5986
▁summ	-5987
▁veto	-5988
inejad	-5989
▁civic	-5990
▁hawai	-5991
▁moves	-5992
▁plung	-5993
▁shift	-5994
▁sight	-5995
▁trees	-5996
▁ghazni	-5997
▁mainly	-5998
▁margin	-5999
▁metrop	-6000
▁superv	-6001
▁anticip	-6002
▁beating	-6003
▁deliber	-6004
▁rallies	-6005
▁infected	-6006
▁maintain	-6007
▁traveled	-6008
▁wildlife	-6009
▁hampshire	-6010
▁transform	-6011
▁federation	-6012
▁registered	-6013
▁venezuelan	-6014
▁ahmadinejad	-6015
▁participate	-6016
▁representative	-6017
ola	-6018
pan	-6019
rif	-6020
▁69	-6021
▁obv	-6022
▁pad	-6023
acked	-6024
attan	-6025
▁2012	-6026
▁acts	-6027
▁belg	-6028
▁chen	-6029
▁crop	-6030
▁farc	-6031
▁link	-6032
▁ramp	-6033
▁basra	-6034
▁kerry	-6035
▁urban	-6036
▁wheel	-6037
▁begins	-6038
▁bloody	-6039
▁causes	-6040
▁crowds	-6041
▁reagan	-6042
▁reject	-6043
▁unions	-6044
▁videos	-6045
▁burning	-6046
▁forcing	-6047
▁hopeful	-6048
▁jakarta	-6049
▁sharply	-6050
▁airports	-6051
▁watchdog	-6052
▁engineers	-6053
▁primaries	-6054
▁sensitive	-6055
▁colleagues	-6056
▁difference	-6057
▁enrichment	-6058
▁monitoring	-6059
▁punishment	-6060
daq	-6061
ean	-6062
kin	-6063
vey	-6064
▁74	-6065
chen	-6066
ilit	-6067
ovic	-6068
▁cra	-6069
▁gor	-6070
▁jam	-6071
▁kib	-6072
▁ages	-6073
▁gore	-6074
▁imag	-6075
▁knee	-6076
▁vacc	-6077
▁gradu	-6078
▁hills	-6079
▁lohan	-6080
▁metal	-6081
▁comedy	-6082
▁deeply	-6083
▁eating	-6084
▁elimin	-6085
▁floods	-6086
▁morgan	-6087
▁pledge	-6088
▁prepar	-6089
▁stance	-6090
▁arsenal	-6091
▁dealing	-6092
▁letters	-6093
▁patrick	-6094
▁routine	-6095
▁secular	-6096
▁stalled	-6097
▁abducted	-6098
▁capacity	-6099
▁compound	-6100
▁stressed	-6101
▁unlikely	-6102
▁vacation	-6103
▁economist	-6104
▁expensive	-6105
▁highlight	-6106
▁manhattan	-6107
▁regarding	-6108
▁scientist	-6109
▁televised	-6110
▁violation	-6111
▁disappointed	-6112
▁revolutionary	-6113
▁understanding	-6114
30	-6115
dy	-6116
aid	-6117
chi	-6118
jev	-6119
umi	-6120
▁dv	-6121
aret	-6122
icit	-6123
pass	-6124
wart	-6125
▁cig	-6126
▁pin	-6127
▁sli	-6128
▁slo	-6129
point	-6130
▁1996	-6131
▁dick	-6132
▁foss	-6133
▁hunt	-6134
▁lung	-6135
▁mate	-6136
▁nick	-6137
▁peru	-6138
▁wear	-6139
olitan	-6140
▁bened	-6141
▁blago	-6142
▁camps	-6143
▁chile	-6144
▁grown	-6145
▁liter	-6146
▁loved	-6147
▁swept	-6148
▁chosen	-6149
▁packed	-6150
▁stands	-6151
▁subsid	-6152
▁worker	-6153
▁bombers	-6154
▁capable	-6155
▁emerged	-6156
▁roughly	-6157
▁accusing	-6158
▁briefing	-6159
▁caucuses	-6160
▁features	-6161
▁numerous	-6162
▁portugal	-6163
▁thinking	-6164
▁effective	-6165
▁intention	-6166
▁nominated	-6167
▁apologized	-6168
▁individual	-6169
▁alternative	-6170
▁demonstration	-6171
▁manufacturing	-6172
zo	-6173
bow	-6174
ero	-6175
iop	-6176
ios	-6177
san	-6178
uls	-6179
▁ye	-6180
olis	-6181
▁moh	-6182
▁pkk	-6183
▁sha	-6184
▁unn	-6185
inson	-6186
itely	-6187
owitz	-6188
▁bull	-6189
ocking	-6190
▁extin	-6191
▁novel	-6192
▁roman	-6193
▁schol	-6194
illance	-6195
▁arrive	-6196
▁bitter	-6197
▁cooper	-6198
▁faster	-6199
▁hotels	-6200
▁jewish	-6201
▁leaves	-6202
▁michel	-6203
▁scores	-6204
▁conclus	-6205
▁earning	-6206
▁factory	-6207
▁funeral	-6208
▁imports	-6209
▁intense	-6210
▁mississ	-6211
▁plastic	-6212
▁restore	-6213
▁ronaldo	-6214
▁worried	-6215
▁buddhist	-6216
▁directed	-6217
▁midnight	-6218
▁mortgage	-6219
▁obtained	-6220
▁remember	-6221
▁tropical	-6222
▁brazilian	-6223
▁detonated	-6224
▁everybody	-6225
▁initiative	-6226
▁scientific	-6227
▁engineering	-6228
▁southeastern	-6229
▁surveillance	-6230
▁circumstances	-6231
asc	-6232
oms	-6233
pet	-6234
▁67	-6235
▁ka	-6236
aine	-6237
airo	-6238
bing	-6239
ippi	-6240
▁alt	-6241
▁hid	-6242
▁ire	-6243
▁jol	-6244
▁woo	-6245
board	-6246
icial	-6247
illas	-6248
oking	-6249
onium	-6250
▁brig	-6251
▁sole	-6252
▁toug	-6253
▁uses	-6254
asters	-6255
illing	-6256
▁barri	-6257
▁bills	-6258
▁entry	-6259
▁henry	-6260
▁mouth	-6261
through	-6262
▁archae	-6263
▁guests	-6264
▁hawaii	-6265
▁kibaki	-6266
▁talked	-6267
▁machine	-6268
▁maximum	-6269
▁militia	-6270
▁rescued	-6271
▁sitting	-6272
▁whaling	-6273
▁columbia	-6274
▁reconcil	-6275
▁supposed	-6276
▁decisions	-6277
▁dominated	-6278
▁successor	-6279
▁mississippi	-6280
▁southwestern	-6281
alf	-6282
aph	-6283
arr	-6284
dro	-6285
ori	-6286
▁72	-6287
▁si	-6288
anke	-6289
ipel	-6290
▁ank	-6291
▁dur	-6292
▁gmt	-6293
▁nik	-6294
usive	-6295
▁1995	-6296
▁aged	-6297
▁epic	-6298
▁harv	-6299
▁hasn	-6300
▁hide	-6301
▁impe	-6302
▁stun	-6303
▁unif	-6304
jevich	-6305
▁aware	-6306
▁elder	-6307
▁quiet	-6308
▁toxic	-6309
▁bullet	-6310
▁cambod	-6311
▁coffee	-6312
▁debris	-6313
▁inquir	-6314
▁mccann	-6315
▁promot	-6316
▁specif	-6317
▁backing	-6318
▁charity	-6319
▁cyclone	-6320
▁degrees	-6321
▁devices	-6322
▁founded	-6323
▁musical	-6324
▁rapidly	-6325
▁theater	-6326
▁virtual	-6327
▁bankrupt	-6328
▁commerce	-6329
▁greatest	-6330
▁identity	-6331
▁replaced	-6332
▁discussion	-6333
▁originally	-6334
▁blagojevich	-6335
▁breakthrough	-6336
▁investigations	-6337
▁superdelegates	-6338
▁85	-6339
▁ms	-6340
▁na	-6341
adel	-6342
▁fta	-6343
▁hiv	-6344
▁lew	-6345
▁pap	-6346
▁pav	-6347
antly	-6348
eared	-6349
ighth	-6350
iliar	-6351
imony	-6352
▁1950	-6353
▁chad	-6354
▁elev	-6355
▁guer	-6356
▁sons	-6357
▁tend	-6358
▁chong	-6359
▁disag	-6360
▁false	-6361
▁forec	-6362
▁greet	-6363
▁multi	-6364
▁oblig	-6365
▁persu	-6366
▁polar	-6367
▁shops	-6368
▁swiss	-6369
attered	-6370
▁castro	-6371
▁chiefs	-6372
▁conver	-6373
▁feared	-6374
▁fields	-6375
▁greece	-6376
▁nasdaq	-6377
▁wouldn	-6378
▁endorse	-6379
▁exactly	-6380
▁mohamed	-6381
▁section	-6382
▁striker	-6383
▁warrant	-6384
▁battling	-6385
▁benedict	-6386
▁brothers	-6387
▁egyptian	-6388
▁multiple	-6389
▁encourage	-6390
▁technical	-6391
▁presidents	-6392
▁agriculture	-6393
▁participants	-6394
vi	-6395
cts	-6396
esc	-6397
inn	-6398
isa	-6399
▁eb	-6400
anes	-6401
wise	-6402
▁lit	-6403
▁sri	-6404
▁yem	-6405
adesh	-6406
bacco	-6407
essed	-6408
known	-6409
maker	-6410
verty	-6411
▁beer	-6412
▁boom	-6413
▁crus	-6414
▁kick	-6415
▁lank	-6416
▁typh	-6417
▁yous	-6418
tering	-6419
▁adult	-6420
▁amend	-6421
▁apply	-6422
▁conce	-6423
▁drama	-6424
▁loyal	-6425
▁phoen	-6426
▁shore	-6427
▁shots	-6428
▁vital	-6429
▁dinner	-6430
▁excess	-6431
▁makers	-6432
▁native	-6433
▁steven	-6434
▁cameras	-6435
▁concent	-6436
▁consequ	-6437
▁explain	-6438
▁mexican	-6439
▁poverty	-6440
▁referen	-6441
▁survive	-6442
▁tobacco	-6443
▁unknown	-6444
▁concrete	-6445
▁mainland	-6446
▁moderate	-6447
▁normally	-6448
▁mountains	-6449
▁recommend	-6450
▁collection	-6451
▁complained	-6452
▁depression	-6453
▁campaigning	-6454
▁underground	-6455
▁metropolitan	-6456
ius	-6457
osi	-6458
▁71	-6459
▁dy	-6460
▁zo	-6461
irty	-6462
izes	-6463
▁awa	-6464
▁coc	-6465
▁seg	-6466
▁vit	-6467
▁wre	-6468
erves	-6469
▁1991	-6470
▁brad	-6471
▁glac	-6472
▁porn	-6473
▁stan	-6474
▁sung	-6475
ancing	-6476
ortion	-6477
ration	-6478
▁antar	-6479
▁bangl	-6480
▁drink	-6481
▁error	-6482
▁links	-6483
▁orche	-6484
▁photo	-6485
▁yemen	-6486
▁airbus	-6487
▁argued	-6488
▁assert	-6489
▁emphas	-6490
▁height	-6491
▁integr	-6492
▁joseph	-6493
▁prohib	-6494
▁somali	-6495
▁symbol	-6496
▁window	-6497
▁borders	-6498
▁citizen	-6499
▁correct	-6500
▁fortune	-6501
▁phoenix	-6502
▁sharing	-6503
▁unusual	-6504
▁category	-6505
▁schedule	-6506
▁stimulus	-6507
▁boyfriend	-6508
▁prompting	-6509
▁testimony	-6510
▁authorized	-6511
▁suggesting	-6512
▁communities	-6513
▁overwhelming	-6514
bl	-6515
po	-6516
roc	-6517
uma	-6518
uni	-6519
won	-6520
zed	-6521
▁kl	-6522
alys	-6523
▁fit	-6524
▁gye	-6525
▁mit	-6526
▁rif	-6527
▁ske	-6528
enses	-6529
orted	-6530
▁bags	-6531
▁cham	-6532
▁file	-6533
▁golf	-6534
▁palm	-6535
▁plut	-6536
▁pose	-6537
▁sche	-6538
ashing	-6539
encing	-6540
ichuan	-6541
▁alban	-6542
▁chest	-6543
▁czech	-6544
▁deals	-6545
▁gross	-6546
▁harsh	-6547
▁smugg	-6548
▁stern	-6549
▁sweep	-6550
achment	-6551
▁dubbed	-6552
▁easily	-6553
▁insist	-6554
▁runway	-6555
▁sheikh	-6556
▁staged	-6557
▁thirds	-6558
standing	-6559
ulations	-6560
▁austria	-6561
▁becomes	-6562
▁marines	-6563
▁rebuild	-6564
▁somalia	-6565
▁stephen	-6566
▁uniform	-6567
▁striking	-6568
▁unfortun	-6569
▁violated	-6570
▁attending	-6571
▁contained	-6572
▁increases	-6573
▁performed	-6574
▁plutonium	-6575
▁corporation	-6576
▁negotiators	-6577
▁reconciliation	-6578
agn	-6579
oli	-6580
oto	-6581
achi	-6582
aint	-6583
ardo	-6584
eces	-6585
ella	-6586
▁bes	-6587
▁bor	-6588
▁dad	-6589
▁dan	-6590
▁joe	-6591
▁joh	-6592
▁lah	-6593
▁ray	-6594
▁tel	-6595
ecess	-6596
inted	-6597
▁1960	-6598
▁busy	-6599
▁lapt	-6600
▁mete	-6601
▁murd	-6602
▁wors	-6603
dering	-6604
▁bases	-6605
▁chris	-6606
▁feels	-6607
▁plays	-6608
▁solid	-6609
▁turns	-6610
▁fierce	-6611
▁gallon	-6612
▁mccorm	-6613
▁parent	-6614
▁storms	-6615
▁strict	-6616
▁temple	-6617
▁tennes	-6618
▁underw	-6619
▁benefit	-6620
▁fishing	-6621
▁hitting	-6622
▁separat	-6623
▁trigger	-6624
▁worries	-6625
▁distance	-6626
▁familiar	-6627
▁payments	-6628
▁alongside	-6629
▁locations	-6630
▁otherwise	-6631
▁conducting	-6632
▁relatively	-6633
▁legislative	-6634
▁transferred	-6635
ua	-6636
bor	-6637
dum	-6638
efa	-6639
ema	-6640
met	-6641
rie	-6642
gers	-6643
iani	-6644
wait	-6645
▁gad	-6646
aters	-6647
echan	-6648
icked	-6649
▁1992	-6650
▁1993	-6651
▁aung	-6652
▁fern	-6653
▁kent	-6654
▁sang	-6655
▁sees	-6656
▁shif	-6657
▁spac	-6658
▁uefa	-6659
▁capit	-6660
▁cloud	-6661
▁doors	-6662
▁legit	-6663
▁sweet	-6664
▁write	-6665
ography	-6666
▁courts	-6667
▁defect	-6668
▁depend	-6669
▁factor	-6670
▁hosted	-6671
▁kuwait	-6672
▁observ	-6673
▁romney	-6674
▁tackle	-6675
▁briefly	-6676
▁comprom	-6677
▁divorce	-6678
▁inaugur	-6679
▁outrage	-6680
▁privacy	-6681
▁ranging	-6682
▁controls	-6683
▁defended	-6684
▁dramatic	-6685
▁networks	-6686
▁ordinary	-6687
▁platform	-6688
▁priority	-6689
▁celebrity	-6690
▁generally	-6691
▁tennessee	-6692
▁defendants	-6693
▁referendum	-6694
▁responding	-6695
▁electronics	-6696
▁institutions	-6697
di	-6698
hs	-6699
had	-6700
ito	-6701
aire	-6702
enna	-6703
hips	-6704
mand	-6705
ourt	-6706
reek	-6707
▁ski	-6708
▁tam	-6709
▁yen	-6710
dinga	-6711
dogan	-6712
umbai	-6713
uting	-6714
▁dust	-6715
▁khal	-6716
▁kiss	-6717
▁loan	-6718
▁ryan	-6719
ducing	-6720
▁cargo	-6721
▁flags	-6722
▁frust	-6723
▁larry	-6724
▁nancy	-6725
▁pilgr	-6726
▁raids	-6727
▁teens	-6728
▁tiger	-6729
▁worry	-6730
ception	-6731
▁artist	-6732
▁carter	-6733
▁endors	-6734
▁infant	-6735
▁meteor	-6736
▁motion	-6737
▁mumbai	-6738
▁myster	-6739
▁odinga	-6740
▁oldest	-6741
▁satisf	-6742
▁shield	-6743
▁stable	-6744
▁thinks	-6745
▁unrest	-6746
▁antonio	-6747
▁barrels	-6748
▁consist	-6749
▁erdogan	-6750
▁gambari	-6751
▁kidnapp	-6752
▁pointed	-6753
▁returns	-6754
▁suspend	-6755
▁writers	-6756
▁advanced	-6757
▁baseball	-6758
▁combined	-6759
▁handling	-6760
▁inspired	-6761
▁interrog	-6762
▁purchase	-6763
▁receiving	-6764
▁temporary	-6765
▁wolfowitz	-6766
▁absolutely	-6767
▁occupation	-6768
▁appointment	-6769
▁compensation	-6770
▁administrative	-6771
km	-6772
ala	-6773
law	-6774
▁81	-6775
▁87	-6776
kets	-6777
▁900	-6778
▁ded	-6779
▁emp	-6780
▁hee	-6781
▁hij	-6782
▁jac	-6783
▁jae	-6784
▁nam	-6785
▁sir	-6786
liest	-6787
mates	-6788
owing	-6789
usion	-6790
▁anth	-6791
▁cave	-6792
▁kate	-6793
▁pitt	-6794
ansion	-6795
makers	-6796
▁advoc	-6797
▁galax	-6798
▁libya	-6799
▁paulo	-6800
▁saved	-6801
▁walls	-6802
angered	-6803
▁advice	-6804
▁athens	-6805
▁listed	-6806
▁mechan	-6807
▁poland	-6808
▁unders	-6809
▁wounds	-6810
idelines	-6811
▁balance	-6812
▁capture	-6813
▁crossed	-6814
▁fernand	-6815
▁mistake	-6816
▁monitor	-6817
▁operate	-6818
▁prepare	-6819
▁profits	-6820
▁spotted	-6821
▁switzer	-6822
▁turnout	-6823
▁typhoon	-6824
▁veteran	-6825
▁athletes	-6826
▁imprison	-6827
▁improved	-6828
▁isolated	-6829
▁throwing	-6830
▁explosive	-6831
▁incidents	-6832
▁recognize	-6833
▁shootings	-6834
▁announcing	-6835
▁bangladesh	-6836
▁containing	-6837
▁endangered	-6838
▁advertising	-6839
▁switzerland	-6840
▁northeastern	-6841
dd	-6842
imp	-6843
sey	-6844
▁91	-6845
mont	-6846
▁amn	-6847
anded	-6848
under	-6849
▁anch	-6850
▁bath	-6851
▁bowl	-6852
▁excl	-6853
▁legs	-6854
▁soil	-6855
▁unex	-6856
▁aside	-6857
▁cable	-6858
▁crist	-6859
▁fleet	-6860
▁laure	-6861
▁mixed	-6862
▁nowak	-6863
▁orbit	-6864
▁slump	-6865
▁thank	-6866
oration	-6867
▁advent	-6868
▁agents	-6869
▁andrew	-6870
▁destin	-6871
▁donald	-6872
▁ethiop	-6873
▁extend	-6874
▁imposs	-6875
▁legend	-6876
▁liquid	-6877
▁ousted	-6878
▁pelosi	-6879
▁amnesty	-6880
▁amounts	-6881
▁arrests	-6882
▁awarded	-6883
▁carrier	-6884
▁clothes	-6885
▁joining	-6886
▁praised	-6887
▁purpose	-6888
▁trained	-6889
▁appealed	-6890
▁delegate	-6891
▁gonzales	-6892
▁indicate	-6893
▁provides	-6894
▁benchmark	-6895
▁fundament	-6896
▁mccormack	-6897
▁producers	-6898
▁promoting	-6899
▁shortages	-6900
▁structure	-6901
▁villagers	-6902
▁relocation	-6903
▁settlement	-6904
▁disappeared	-6905
▁sovereignty	-6906
gi	-6907
ka	-6908
▁yi	-6909
amas	-6910
ario	-6911
atra	-6912
irai	-6913
roit	-6914
ucky	-6915
uter	-6916
▁dry	-6917
▁jin	-6918
▁sav	-6919
▁tsv	-6920
ulner	-6921
▁acce	-6922
▁clar	-6923
▁eric	-6924
▁huck	-6925
▁marc	-6926
▁roof	-6927
▁shah	-6928
▁tent	-6929
▁wart	-6930
▁wish	-6931
▁breed	-6932
▁burst	-6933
▁charl	-6934
▁embry	-6935
▁guerr	-6936
▁hamid	-6937
▁meter	-6938
▁moore	-6939
▁solve	-6940
▁units	-6941
▁wreck	-6942
▁actors	-6943
▁attrib	-6944
▁beauty	-6945
▁darwin	-6946
▁easier	-6947
▁gyeong	-6948
▁miners	-6949
▁missed	-6950
▁motors	-6951
▁pursue	-6952
▁rivers	-6953
▁therap	-6954
▁transl	-6955
▁values	-6956
▁airways	-6957
▁capitol	-6958
▁dealers	-6959
▁detroit	-6960
▁hunting	-6961
▁ireland	-6962
▁seventh	-6963
▁shelter	-6964
▁volcano	-6965
▁welfare	-6966
▁winners	-6967
▁mohammad	-6968
▁prospect	-6969
▁referred	-6970
▁senators	-6971
▁thousand	-6972
▁attorneys	-6973
▁complaint	-6974
▁improving	-6975
▁pollution	-6976
▁submitted	-6977
▁surprised	-6978
▁extraordin	-6979
▁extremists	-6980
▁volunteers	-6981
▁appropriate	-6982
▁successfully	-6983
80	-6984
ads	-6985
bes	-6986
quo	-6987
rit	-6988
brid	-6989
gans	-6990
mond	-6991
oons	-6992
oren	-6993
phia	-6994
uese	-6995
▁keb	-6996
▁naz	-6997
▁soo	-6998
burgh	-6999
rahim	-7000
rimin	-7001
space	-7002
▁code	-7003
▁fulf	-7004
▁hugo	-7005
▁inch	-7006
▁leak	-7007
▁orle	-7008
▁outs	-7009
▁spur	-7010
▁latin	-7011
▁lobby	-7012
▁opens	-7013
▁phill	-7014
▁weigh	-7015
▁whale	-7016
angirai	-7017
▁copies	-7018
▁eighth	-7019
▁freeze	-7020
▁nether	-7021
▁orange	-7022
▁regret	-7023
▁runoff	-7024
▁stabil	-7025
▁stalin	-7026
▁starts	-7027
▁strain	-7028
▁visits	-7029
▁whales	-7030
adelphia	-7031
atically	-7032
▁caution	-7033
▁dressed	-7034
▁pleaded	-7035
▁samples	-7036
▁seattle	-7037
▁torture	-7038
▁variety	-7039
▁wartime	-7040
▁detected	-7041
▁employee	-7042
▁petition	-7043
▁quarterf	-7044
▁recalled	-7045
▁wireless	-7046
▁efficient	-7047
▁negotiate	-7048
▁approached	-7049
▁complaints	-7050
▁economists	-7051
▁impossible	-7052
▁portuguese	-7053
▁richardson	-7054
▁securities	-7055
▁tsvangirai	-7056
▁accusations	-7057
▁documentary	-7058
▁experienced	-7059
▁negotiating	-7060
▁netherlands	-7061
▁photographs	-7062
▁philadelphia	-7063
ez	-7064
akh	-7065
uez	-7066
▁88	-7067
apes	-7068
bour	-7069
▁160	-7070
▁hud	-7071
▁mog	-7072
▁vig	-7073
ining	-7074
oping	-7075
▁bars	-7076
▁emir	-7077
▁fred	-7078
▁giul	-7079
▁gren	-7080
▁laid	-7081
▁mall	-7082
▁obst	-7083
▁peak	-7084
▁touc	-7085
▁unac	-7086
▁chain	-7087
▁chaos	-7088
▁crews	-7089
▁explo	-7090
▁posts	-7091
▁semif	-7092
▁toile	-7093
actions	-7094
entions	-7095
▁conven	-7096
▁divers	-7097
▁finger	-7098
▁hybrid	-7099
▁syrian	-7100
▁yangon	-7101
▁abandon	-7102
▁arrange	-7103
▁declare	-7104
▁disable	-7105
▁minimum	-7106
▁orleans	-7107
▁polling	-7108
▁renewed	-7109
▁revenue	-7110
▁sailors	-7111
▁viewers	-7112
▁assassin	-7113
▁billions	-7114
▁dictator	-7115
▁executed	-7116
▁homeless	-7117
▁informed	-7118
▁learning	-7119
▁missions	-7120
▁missouri	-7121
▁requires	-7122
▁sexually	-7123
▁swimming	-7124
▁abandoned	-7125
▁contracts	-7126
▁elsewhere	-7127
▁guarantee	-7128
▁winehouse	-7129
▁bankruptcy	-7130
▁classified	-7131
▁interested	-7132
▁politician	-7133
▁popularity	-7134
ira	-7135
iya	-7136
▁99	-7137
▁gy	-7138
elly	-7139
more	-7140
ocol	-7141
onia	-7142
▁egg	-7143
▁fol	-7144
▁hin	-7145
▁map	-7146
▁que	-7147
▁tie	-7148
▁unh	-7149
▁yas	-7150
berto	-7151
ledon	-7152
rence	-7153
▁1989	-7154
▁chol	-7155
▁core	-7156
▁entr	-7157
▁flat	-7158
▁mamm	-7159
▁rand	-7160
▁rudd	-7161
▁stol	-7162
▁todd	-7163
▁whit	-7164
▁wimb	-7165
▁zero	-7166
ecraft	-7167
rupted	-7168
▁acres	-7169
▁annan	-7170
▁cards	-7171
▁davis	-7172
▁grass	-7173
▁lanka	-7174
▁motiv	-7175
▁posed	-7176
▁stuff	-7177
▁timet	-7178
holders	-7179
ructure	-7180
▁blasts	-7181
▁centre	-7182
▁merkel	-7183
▁rodrig	-7184
▁rushed	-7185
▁spoken	-7186
▁topped	-7187
▁twenty	-7188
▁volunt	-7189
▁warner	-7190
▁compete	-7191
▁feature	-7192
▁interim	-7193
▁legally	-7194
▁monthly	-7195
▁passing	-7196
▁quoting	-7197
▁tension	-7198
▁arriving	-7199
▁contrast	-7200
▁giuliani	-7201
▁interven	-7202
▁purposes	-7203
▁studying	-7204
▁suddenly	-7205
▁addressed	-7206
▁attacking	-7207
▁defending	-7208
▁sectarian	-7209
▁technolog	-7210
▁violating	-7211
▁wimbledon	-7212
▁assessment	-7213
▁greenhouse	-7214
▁historical	-7215
▁interviews	-7216
▁spacecraft	-7217
▁nominations	-7218
▁potentially	-7219
▁inauguration	-7220
lah	-7221
mor	-7222
uro	-7223
▁fi	-7224
▁pp	-7225
kins	-7226
otti	-7227
wers	-7228
▁dol	-7229
▁hou	-7230
▁ioc	-7231
▁jav	-7232
▁mud	-7233
▁sab	-7234
ching	-7235
sfeld	-7236
▁barg	-7237
▁blan	-7238
▁burn	-7239
▁chip	-7240
▁dawn	-7241
▁dean	-7242
▁diet	-7243
▁dign	-7244
▁hack	-7245
▁yoon	-7246
▁yuan	-7247
alysis	-7248
apolis	-7249
icting	-7250
▁discl	-7251
▁euros	-7252
▁heath	-7253
▁jerry	-7254
▁proof	-7255
▁rains	-7256
▁robot	-7257
▁rocks	-7258
▁shoes	-7259
▁trend	-7260
▁trick	-7261
▁unpre	-7262
▁upset	-7263
▁waves	-7264
▁brutal	-7265
▁impose	-7266
▁listen	-7267
▁murray	-7268
▁reiter	-7269
▁stolen	-7270
▁surren	-7271
▁vulner	-7272
▁aftersh	-7273
▁granted	-7274
▁matters	-7275
▁resumed	-7276
▁sichuan	-7277
▁slammed	-7278
▁unident	-7279
▁verdict	-7280
▁vessels	-7281
▁astronom	-7282
▁attitude	-7283
▁consecut	-7284
▁disputed	-7285
▁exposure	-7286
▁function	-7287
▁momentum	-7288
▁campaigns	-7289
▁denuclear	-7290
▁departure	-7291
▁louisiana	-7292
▁spreading	-7293
▁strategic	-7294
▁agreements	-7295
▁experiment	-7296
▁represents	-7297
▁strengthen	-7298
▁violations	-7299
▁broadcaster	-7300
▁conversation	-7301
▁representing	-7302
▁unidentified	-7303
▁extraordinary	-7304
rd	-7305
sl	-7306
ti	-7307
aud	-7308
hdi	-7309
iel	-7310
abee	-7311
aman	-7312
aste	-7313
cons	-7314
omen	-7315
onda	-7316
▁dim	-7317
▁len	-7318
▁les	-7319
▁lun	-7320
▁nin	-7321
▁nut	-7322
▁tra	-7323
▁urg	-7324
apova	-7325
igned	-7326
itage	-7327
▁calc	-7328
▁caps	-7329
▁empt	-7330
▁fert	-7331
▁gate	-7332
▁gray	-7333
▁jews	-7334
▁meat	-7335
▁nice	-7336
▁opec	-7337
▁riot	-7338
▁sequ	-7339
arched	-7340
▁acted	-7341
▁clash	-7342
▁cleve	-7343
▁fever	-7344
▁frame	-7345
▁laugh	-7346
▁mehdi	-7347
▁postp	-7348
▁raquo	-7349
▁repro	-7350
▁risks	-7351
▁swift	-7352
▁theme	-7353
▁usual	-7354
▁woods	-7355
▁apprec	-7356
▁arabic	-7357
▁behalf	-7358
▁client	-7359
▁mental	-7360
▁powell	-7361
▁rumors	-7362
▁trucks	-7363
▁classic	-7364
▁cloning	-7365
▁constit	-7366
▁element	-7367
▁enterpr	-7368
▁outcome	-7369
▁pending	-7370
▁pulling	-7371
▁tickets	-7372
▁colonial	-7373
▁huckabee	-7374
▁indicted	-7375
▁injuring	-7376
▁occasion	-7377
▁rumsfeld	-7378
▁selected	-7379
▁teenager	-7380
▁criminals	-7381
▁deadliest	-7382
▁detainees	-7383
▁followers	-7384
▁residence	-7385
▁sentiment	-7386
▁sharapova	-7387
▁spiritual	-7388
▁protecting	-7389
▁ultimately	-7390
▁consecutive	-7391
▁investigated	-7392
▁technologies	-7393
▁disappearance	-7394
▁significantly	-7395
wr	-7396
yc	-7397
zi	-7398
cho	-7399
ico	-7400
osa	-7401
▁86	-7402
▁sg	-7403
heim	-7404
ribe	-7405
▁jur	-7406
▁lag	-7407
▁rot	-7408
▁tum	-7409
▁yel	-7410
ensus	-7411
oster	-7412
place	-7413
▁abol	-7414
▁blew	-7415
▁earn	-7416
▁embr	-7417
▁gian	-7418
▁hits	-7419
▁iron	-7420
▁jane	-7421
▁jint	-7422
▁pand	-7423
▁pron	-7424
▁soph	-7425
▁unco	-7426
▁utah	-7427
keeper	-7428
▁cheap	-7429
▁eleph	-7430
▁grant	-7431
▁intel	-7432
▁preca	-7433
▁relax	-7434
▁roger	-7435
▁shape	-7436
▁wales	-7437
▁affili	-7438
▁handle	-7439
▁kansas	-7440
▁models	-7441
▁notice	-7442
▁pilots	-7443
▁retire	-7444
▁slaves	-7445
▁suburb	-7446
▁switch	-7447
▁tracks	-7448
▁traged	-7449
▁barbara	-7450
▁classes	-7451
▁drawing	-7452
▁exposed	-7453
▁houston	-7454
▁inquiry	-7455
▁signals	-7456
▁collabor	-7457
▁detailed	-7458
▁deterior	-7459
▁earnings	-7460
▁withdrew	-7461
▁accidents	-7462
▁celebrate	-7463
▁denounced	-7464
▁happening	-7465
▁marketing	-7466
▁testified	-7467
▁employment	-7468
▁inspection	-7469
▁investigator	-7470
▁confrontation	-7471
fk	-7472
ls	-7473
uz	-7474
ela	-7475
ila	-7476
odo	-7477
▁79	-7478
▁wy	-7479
ache	-7480
bell	-7481
ette	-7482
icts	-7483
irac	-7484
moil	-7485
ores	-7486
rast	-7487
▁140	-7488
▁180	-7489
▁ads	-7490
▁ark	-7491
▁ast	-7492
▁cul	-7493
▁gig	-7494
▁kun	-7495
▁nov	-7496
▁ppp	-7497
▁rav	-7498
▁sao	-7499
antic	-7500
icken	-7501
▁eval	-7502
▁nurs	-7503
▁omar	-7504
▁shed	-7505
▁stir	-7506
▁ward	-7507
atched	-7508
iliate	-7509
▁blaze	-7510
▁bones	-7511
▁buses	-7512
▁chose	-7513
▁clock	-7514
▁crops	-7515
▁decre	-7516
▁greek	-7517
▁pipel	-7518
▁ahmadi	-7519
▁arctic	-7520
▁belief	-7521
▁delays	-7522
▁denies	-7523
▁hudson	-7524
▁indeed	-7525
▁jintao	-7526
▁lahore	-7527
▁massac	-7528
▁pieces	-7529
▁prefer	-7530
▁proved	-7531
▁raided	-7532
▁safely	-7533
▁submit	-7534
▁wright	-7535
▁ceremon	-7536
▁counsel	-7537
▁factors	-7538
▁karachi	-7539
▁masters	-7540
▁objects	-7541
▁parking	-7542
▁plunged	-7543
▁robbery	-7544
▁tornado	-7545
▁transpl	-7546
▁turmoil	-7547
▁underst	-7548
▁clothing	-7549
▁israelis	-7550
▁landmark	-7551
▁resolved	-7552
▁stepping	-7553
▁malaysian	-7554
▁nationals	-7555
▁projected	-7556
▁releasing	-7557
▁sentences	-7558
▁stationed	-7559
▁timetable	-7560
▁uncertain	-7561
▁undermine	-7562
▁virtually	-7563
▁conclusion	-7564
▁designated	-7565
▁maintained	-7566
▁devastating	-7567
▁substantial	-7568
▁trafficking	-7569
▁specifically	-7570
▁conservatives	-7571
bul	-7572
gue	-7573
iox	-7574
por	-7575
▁ni	-7576
ahar	-7577
fast	-7578
ouch	-7579
rate	-7580
▁bae	-7581
▁dvd	-7582
▁ecu	-7583
▁fuj	-7584
▁lav	-7585
▁mbc	-7586
▁sci	-7587
▁upd	-7588
ooter	-7589
▁adds	-7590
▁barr	-7591
▁fant	-7592
▁rank	-7593
▁sett	-7594
▁tomb	-7595
intend	-7596
▁consc	-7597
▁crown	-7598
▁flown	-7599
▁imper	-7600
▁jihad	-7601
▁lewis	-7602
▁monet	-7603
▁mosul	-7604
▁oklah	-7605
▁phase	-7606
▁retal	-7607
▁abuses	-7608
▁bodygu	-7609
▁carlos	-7610
▁engage	-7611
▁instru	-7612
▁kenyan	-7613
▁luxury	-7614
▁peters	-7615
▁physic	-7616
▁shaped	-7617
▁slated	-7618
▁steady	-7619
▁taylor	-7620
▁theory	-7621
▁titles	-7622
▁tunnel	-7623
▁vienna	-7624
▁viewed	-7625
▁warren	-7626
cedented	-7627
▁approve	-7628
▁condemn	-7629
▁ibrahim	-7630
▁inquest	-7631
▁marched	-7632
▁moments	-7633
▁pleased	-7634
▁reconst	-7635
▁tragedy	-7636
▁crossing	-7637
▁diseases	-7638
▁existing	-7639
▁instruct	-7640
▁midfield	-7641
▁prisoner	-7642
▁reducing	-7643
▁apologize	-7644
▁centuries	-7645
▁cleveland	-7646
▁construct	-7647
▁execution	-7648
▁expansion	-7649
▁expecting	-7650
▁protected	-7651
▁sustained	-7652
▁characters	-7653
▁indicating	-7654
▁industries	-7655
▁laboratory	-7656
▁personally	-7657
▁prevention	-7658
▁protesting	-7659
▁celebrities	-7660
▁effectively	-7661
▁presumptive	-7662
▁proceedings	-7663
▁recommended	-7664
▁respondents	-7665
▁unprecedented	-7666
hy	-7667
jo	-7668
sa	-7669
ui	-7670
▁84	-7671
iful	-7672
lock	-7673
oric	-7674
tsin	-7675
▁hye	-7676
▁tar	-7677
▁zaw	-7678
▁brus	-7679
▁dall	-7680
▁evil	-7681
▁nuri	-7682
▁publ	-7683
▁tact	-7684
▁tale	-7685
▁urge	-7686
consin	-7687
icated	-7688
lusive	-7689
pected	-7690
▁beaut	-7691
▁craig	-7692
▁disab	-7693
▁maria	-7694
▁medal	-7695
▁naked	-7696
▁seung	-7697
▁songs	-7698
▁timor	-7699
▁trips	-7700
▁amazon	-7701
▁chirac	-7702
▁desper	-7703
▁disord	-7704
▁distur	-7705
▁interf	-7706
▁reluct	-7707
▁rounds	-7708
▁salmon	-7709
▁studio	-7710
▁sweden	-7711
▁telesc	-7712
▁unfair	-7713
▁vision	-7714
▁beneath	-7715
▁carries	-7716
▁cocaine	-7717
▁ecuador	-7718
▁knocked	-7719
▁marking	-7720
▁soaring	-7721
▁tougher	-7722
▁unnamed	-7723
▁yeltsin	-7724
▁deciding	-7725
▁dropping	-7726
▁endorsed	-7727
▁oklahoma	-7728
▁passport	-7729
▁ballistic	-7730
▁extensive	-7731
▁featuring	-7732
▁rodriguez	-7733
▁socialist	-7734
▁surrender	-7735
▁teenagers	-7736
▁wisconsin	-7737
▁explosions	-7738
▁indication	-7739
▁suspicious	-7740
▁anticipated	-7741
▁impeachment	-7742
ca	-7743
je	-7744
pi	-7745
xi	-7746
amo	-7747
don	-7748
rah	-7749
tan	-7750
udh	-7751
▁pm	-7752
acle	-7753
gger	-7754
hand	-7755
irut	-7756
loid	-7757
rist	-7758
uous	-7759
uten	-7760
▁350	-7761
▁dor	-7762
▁raj	-7763
▁sgt	-7764
itors	-7765
izumi	-7766
ounce	-7767
▁cafe	-7768
▁cosm	-7769
▁deny	-7770
▁kath	-7771
▁kitt	-7772
▁plum	-7773
▁scar	-7774
▁celeb	-7775
▁cuban	-7776
▁empty	-7777
▁genoc	-7778
▁keeps	-7779
▁parks	-7780
▁risen	-7781
▁seeks	-7782
▁shell	-7783
▁thick	-7784
iveness	-7785
▁beirut	-7786
▁consol	-7787
▁embezz	-7788
▁extrad	-7789
▁hunger	-7790
▁implic	-7791
▁nicole	-7792
▁nobody	-7793
▁scheme	-7794
▁shinzo	-7795
▁signal	-7796
▁stroke	-7797
▁writer	-7798
▁autonom	-7799
▁broader	-7800
▁chapter	-7801
▁clashed	-7802
▁congrat	-7803
▁genetic	-7804
▁koizumi	-7805
▁outlook	-7806
▁overtur	-7807
▁rowling	-7808
▁slipped	-7809
▁tabloid	-7810
▁touched	-7811
▁aviation	-7812
▁centered	-7813
▁contains	-7814
▁covering	-7815
▁discover	-7816
▁kentucky	-7817
▁mounting	-7818
▁resulted	-7819
▁stranded	-7820
▁wreckage	-7821
▁ambitions	-7822
▁consensus	-7823
▁displaced	-7824
▁economies	-7825
▁evolution	-7826
▁indicates	-7827
▁launching	-7828
▁predecess	-7829
▁prominent	-7830
▁promising	-7831
▁recording	-7832
▁aggressive	-7833
▁commanders	-7834
▁importance	-7835
▁membership	-7836
▁permission	-7837
▁unexpected	-7838
▁concessions	-7839
▁fundamental	-7840
▁universities	-7841
eav	-7842
gun	-7843
oys	-7844
pay	-7845
pro	-7846
rav	-7847
▁02	-7848
anic	-7849
cape	-7850
dick	-7851
held	-7852
iser	-7853
keys	-7854
shot	-7855
▁125	-7856
▁dak	-7857
▁gil	-7858
▁rah	-7859
▁unw	-7860
ingly	-7861
lects	-7862
state	-7863
▁cats	-7864
▁flex	-7865
▁gest	-7866
▁idol	-7867
▁jets	-7868
▁lies	-7869
▁pard	-7870
▁puts	-7871
▁tiss	-7872
▁tool	-7873
▁wore	-7874
▁yard	-7875
arrass	-7876
attled	-7877
rehens	-7878
weight	-7879
▁aired	-7880
▁airpl	-7881
▁ambul	-7882
▁badly	-7883
▁branc	-7884
▁patri	-7885
▁pitch	-7886
▁spani	-7887
▁steep	-7888
▁stops	-7889
▁zawah	-7890
ulating	-7891
▁downlo	-7892
▁endeav	-7893
▁funded	-7894
▁galaxy	-7895
▁hearts	-7896
▁rafael	-7897
▁repair	-7898
▁stayed	-7899
▁acceler	-7900
▁advised	-7901
▁elderly	-7902
▁explore	-7903
▁flooded	-7904
▁happens	-7905
▁impover	-7906
▁jobless	-7907
▁longest	-7908
▁nigeria	-7909
▁passion	-7910
▁pressed	-7911
▁signing	-7912
▁teenage	-7913
▁attached	-7914
▁frontier	-7915
▁heritage	-7916
▁longtime	-7917
▁michelle	-7918
▁overcome	-7919
▁searched	-7920
▁shoulder	-7921
▁slowdown	-7922
▁cooperate	-7923
▁embarrass	-7924
▁mandatory	-7925
▁penalties	-7926
▁principle	-7927
▁discussing	-7928
▁frequently	-7929
▁geological	-7930
▁insurgency	-7931
▁philippine	-7932
▁principles	-7933
▁recognized	-7934
▁resistance	-7935
▁politically	-7936
▁consequences	-7937
▁impoverished	-7938
▁shareholders	-7939
20	-7940
dp	-7941
ji	-7942
ati	-7943
ima	-7944
iot	-7945
ums	-7946
▁98	-7947
▁ax	-7948
▁dj	-7949
▁om	-7950
cker	-7951
ials	-7952
indi	-7953
mail	-7954
math	-7955
ooth	-7956
roll	-7957
stra	-7958
▁193	-7959
▁ing	-7960
▁kyu	-7961
▁mrs	-7962
▁pye	-7963
▁sed	-7964
▁sym	-7965
▁tae	-7966
▁yoo	-7967
ables	-7968
emies	-7969
olved	-7970
rical	-7971
teria	-7972
vedev	-7973
▁1987	-7974
▁curb	-7975
▁katr	-7976
▁lord	-7977
▁mans	-7978
▁marg	-7979
▁mide	-7980
▁rans	-7981
▁bears	-7982
▁daugh	-7983
▁diagn	-7984
▁flame	-7985
▁flash	-7986
▁forth	-7987
▁graph	-7988
▁jolie	-7989
▁lists	-7990
▁marit	-7991
▁naval	-7992
▁prest	-7993
▁puert	-7994
▁scrap	-7995
▁skull	-7996
▁spill	-7997
▁accuse	-7998
▁charts	-7999
▁checks	-8000
▁commem	-8001
▁conced	-8002
▁elabor	-8003
▁forget	-8004
▁incred	-8005
▁judici	-8006
▁myself	-8007
▁revive	-8008
▁rubble	-8009
▁stages	-8010
▁videot	-8011
▁battles	-8012
▁customs	-8013
▁deficit	-8014
▁disrupt	-8015
▁enemies	-8016
▁fighter	-8017
▁harvard	-8018
▁imagine	-8019
▁infrast	-8020
▁insists	-8021
▁mideast	-8022
▁prosper	-8023
▁railway	-8024
▁roddick	-8025
▁shocked	-8026
▁totally	-8027
▁veterin	-8028
▁wrapped	-8029
▁chancell	-8030
▁describe	-8031
▁genocide	-8032
▁medvedev	-8033
▁pilgrims	-8034
▁pursuing	-8035
▁shutdown	-8036
▁supports	-8037
▁aftermath	-8038
▁attracted	-8039
▁daughters	-8040
▁diplomacy	-8041
▁promotion	-8042
▁reference	-8043
▁resulting	-8044
▁universal	-8045
▁christians	-8046
▁everywhere	-8047
▁goalkeeper	-8048
▁procedures	-8049
▁reiterated	-8050
▁accompanied	-8051
▁outstanding	-8052
▁personality	-8053
▁temporarily	-8054
▁peacekeeping	-8055
▁manufacturers	-8056
asa	-8057
hou	-8058
iti	-8059
net	-8060
phy	-8061
▁83	-8062
▁ja	-8063
anim	-8064
cont	-8065
itis	-8066
uman	-8067
ylum	-8068
▁agg	-8069
▁ori	-8070
▁pig	-8071
▁reh	-8072
▁tut	-8073
eller	-8074
igers	-8075
rible	-8076
right	-8077
▁alab	-8078
▁chan	-8079
▁chat	-8080
▁diox	-8081
▁forg	-8082
▁horm	-8083
▁kand	-8084
▁pool	-8085
▁rush	-8086
▁topp	-8087
elling	-8088
inding	-8089
▁canal	-8090
▁diver	-8091
▁mobil	-8092
▁raped	-8093
▁riots	-8094
▁shirt	-8095
▁shook	-8096
▁truce	-8097
▁wider	-8098
▁asylum	-8099
▁compon	-8100
▁dating	-8101
▁garden	-8102
▁limits	-8103
▁marath	-8104
▁riding	-8105
▁saving	-8106
▁taxpay	-8107
▁colored	-8108
▁dioxide	-8109
▁excited	-8110
▁futures	-8111
▁katrina	-8112
▁lifting	-8113
▁monarch	-8114
▁realize	-8115
▁singing	-8116
▁vermont	-8117
▁vitamin	-8118
▁abortion	-8119
▁anderson	-8120
▁disagree	-8121
▁disputes	-8122
▁focusing	-8123
▁incoming	-8124
▁judicial	-8125
▁kandahar	-8126
▁maritime	-8127
▁militias	-8128
▁minority	-8129
▁persuade	-8130
▁register	-8131
▁unaccept	-8132
▁abduction	-8133
▁affiliate	-8134
▁automaker	-8135
▁emotional	-8136
▁judiciary	-8137
▁obviously	-8138
▁offenders	-8139
▁retailers	-8140
▁therefore	-8141
▁typically	-8142
▁addressing	-8143
▁attributed	-8144
▁celebrated	-8145
▁legitimate	-8146
▁remarkable	-8147
▁suspension	-8148
▁vulnerable	-8149
▁confirmation	-8150
eva	-8151
few	-8152
ien	-8153
▁pf	-8154
▁ww	-8155
▁zh	-8156
agic	-8157
atri	-8158
away	-8159
droe	-8160
efin	-8161
lers	-8162
offs	-8163
oner	-8164
raid	-8165
▁chi	-8166
▁enh	-8167
▁fda	-8168
▁gus	-8169
▁jay	-8170
▁roy	-8171
▁sul	-8172
▁syn	-8173
chers	-8174
eland	-8175
▁alan	-8176
▁bare	-8177
▁clay	-8178
▁dorm	-8179
▁fake	-8180
▁musc	-8181
▁reop	-8182
▁span	-8183
bourne	-8184
itious	-8185
▁ahmed	-8186
▁bloom	-8187
▁chase	-8188
▁exped	-8189
▁guang	-8190
▁henin	-8191
▁kyoto	-8192
▁minds	-8193
▁pharm	-8194
▁pitts	-8195
▁shark	-8196
▁skept	-8197
▁stamp	-8198
▁types	-8199
▁cheong	-8200
▁curfew	-8201
▁equity	-8202
▁giants	-8203
▁hailed	-8204
▁noting	-8205
▁output	-8206
▁scenes	-8207
▁serves	-8208
▁toyota	-8209
▁unique	-8210
▁alabama	-8211
▁applied	-8212
▁bottles	-8213
▁closest	-8214
▁crowded	-8215
▁exchang	-8216
▁habitat	-8217
▁myspace	-8218
▁sectors	-8219
▁analysis	-8220
▁contamin	-8221
▁emirates	-8222
▁featured	-8223
▁managers	-8224
▁mistakes	-8225
▁monetary	-8226
▁operated	-8227
▁properly	-8228
▁religion	-8229
▁sponsors	-8230
▁victoria	-8231
▁interpret	-8232
▁landslide	-8233
▁procedure	-8234
▁regularly	-8235
▁uncovered	-8236
▁chancellor	-8237
▁conviction	-8238
▁kidnappers	-8239
▁laundering	-8240
▁liberation	-8241
▁statistics	-8242
▁consumption	-8243
▁institution	-8244
▁interviewed	-8245
▁northwestern	-8246
▁championships	-8247
▁unfortunately	-8248
▁correspondents	-8249
▁infrastructure	-8250
esh	-8251
tic	-8252
umn	-8253
▁92	-8254
▁96	-8255
▁ip	-8256
aken	-8257
aved	-8258
born	-8259
elro	-8260
ican	-8261
inos	-8262
mans	-8263
oles	-8264
rets	-8265
sell	-8266
uits	-8267
vili	-8268
▁alf	-8269
▁dun	-8270
▁ell	-8271
▁lyn	-8272
▁oxy	-8273
▁uni	-8274
anamo	-8275
erald	-8276
inced	-8277
oured	-8278
peace	-8279
▁1986	-8280
▁buzz	-8281
▁cert	-8282
▁flee	-8283
▁geun	-8284
▁glas	-8285
▁kaes	-8286
▁lean	-8287
▁leon	-8288
▁loud	-8289
▁roma	-8290
▁salv	-8291
▁thus	-8292
iments	-8293
umbled	-8294
▁antib	-8295
▁assum	-8296
▁clubs	-8297
▁enorm	-8298
▁falls	-8299
▁fault	-8300
▁fined	-8301
▁guant	-8302
▁guild	-8303
▁kelly	-8304
▁kyodo	-8305
▁kyung	-8306
▁lunch	-8307
▁ramos	-8308
▁relie	-8309
▁singh	-8310
▁sorry	-8311
▁stead	-8312
▁tower	-8313
▁veget	-8314
▁venue	-8315
▁vigil	-8316
▁volat	-8317
▁wound	-8318
umbling	-8319
▁afraid	-8320
▁branch	-8321
▁compar	-8322
▁doping	-8323
▁geneva	-8324
▁graham	-8325
▁hiding	-8326
▁killer	-8327
▁lasted	-8328
▁prolif	-8329
▁skills	-8330
▁unanim	-8331
▁wilson	-8332
▁battery	-8333
▁concept	-8334
▁courage	-8335
▁everest	-8336
▁grounds	-8337
▁indefin	-8338
▁methods	-8339
▁prestig	-8340
▁prolong	-8341
▁studios	-8342
▁traders	-8343
▁tribute	-8344
▁vaccine	-8345
▁anywhere	-8346
▁convince	-8347
▁coverage	-8348
▁elements	-8349
▁frequent	-8350
▁interpol	-8351
▁shipping	-8352
▁surveyed	-8353
▁convinced	-8354
▁declaring	-8355
▁extension	-8356
▁movements	-8357
▁reclusive	-8358
▁struggled	-8359
▁wonderful	-8360
▁compromise	-8361
▁guantanamo	-8362
▁pittsburgh	-8363
▁legislature	-8364
▁respectively	-8365
▁transactions	-8366
▁opportunities	-8367
ci	-8368
no	-8369
oe	-8370
iev	-8371
uda	-8372
uja	-8373
▁ry	-8374
inho	-8375
lose	-8376
osex	-8377
vant	-8378
zene	-8379
▁amy	-8380
▁cel	-8381
▁fee	-8382
▁haz	-8383
▁kir	-8384
▁nap	-8385
▁tas	-8386
aimed	-8387
enter	-8388
etown	-8389
iller	-8390
liner	-8391
regon	-8392
rooms	-8393
ulous	-8394
▁bone	-8395
▁dece	-8396
▁eggs	-8397
▁exha	-8398
▁frag	-8399
▁grav	-8400
▁kash	-8401
▁pill	-8402
▁plea	-8403
▁pole	-8404
▁reid	-8405
▁rely	-8406
▁seas	-8407
▁zard	-8408
airobi	-8409
icking	-8410
person	-8411
stream	-8412
▁audio	-8413
▁brook	-8414
▁casey	-8415
▁congo	-8416
▁dolph	-8417
▁elite	-8418
▁feder	-8419
▁forms	-8420
▁guide	-8421
▁lined	-8422
▁moral	-8423
▁notes	-8424
▁simon	-8425
▁swine	-8426
▁theft	-8427
ressive	-8428
unction	-8429
▁banner	-8430
▁boycot	-8431
▁clinic	-8432
▁comply	-8433
▁dallas	-8434
▁exceed	-8435
▁finals	-8436
▁harder	-8437
▁interv	-8438
▁locked	-8439
▁openly	-8440
▁oregon	-8441
▁oxygen	-8442
▁panama	-8443
▁plenty	-8444
▁poison	-8445
▁provoc	-8446
▁reward	-8447
▁thirty	-8448
▁uganda	-8449
▁voiced	-8450
▁absence	-8451
▁artists	-8452
▁belgium	-8453
▁blasted	-8454
▁intends	-8455
▁kaesong	-8456
▁leftist	-8457
▁lending	-8458
▁nairobi	-8459
▁noticed	-8460
▁portion	-8461
▁pursued	-8462
▁refusal	-8463
▁silence	-8464
▁visible	-8465
▁zardari	-8466
ibilities	-8467
▁campbell	-8468
▁constant	-8469
▁creation	-8470
▁emerging	-8471
▁engineer	-8472
▁entrance	-8473
▁operator	-8474
▁opponent	-8475
▁psychiat	-8476
▁veterans	-8477
▁admission	-8478
▁airstrike	-8479
▁composite	-8480
▁counterfe	-8481
▁infection	-8482
▁insurgent	-8483
▁intercept	-8484
▁paintings	-8485
▁populated	-8486
▁separated	-8487
▁strongest	-8488
▁threatens	-8489
▁background	-8490
▁executions	-8491
▁guerrillas	-8492
▁optimistic	-8493
▁possession	-8494
▁regardless	-8495
▁surprising	-8496
▁complicated	-8497
▁distributed	-8498
▁encouraging	-8499
▁residential	-8500
▁distribution	-8501
▁unacceptable	-8502
onn	-8503
ses	-8504
▁89	-8505
▁93	-8506
▁ga	-8507
▁kc	-8508
▁wo	-8509
abet	-8510
acks	-8511
adei	-8512
iner	-8513
izer	-8514
mese	-8515
onto	-8516
tada	-8517
yala	-8518
▁110	-8519
▁cdc	-8520
▁hyd	-8521
▁ibm	-8522
▁nba	-8523
▁suk	-8524
aniya	-8525
child	-8526
eless	-8527
etime	-8528
gment	-8529
sters	-8530
▁acid	-8531
▁aims	-8532
▁aven	-8533
▁benj	-8534
▁caut	-8535
▁croc	-8536
▁epid	-8537
▁fame	-8538
▁ferg	-8539
▁gear	-8540
▁guys	-8541
▁holl	-8542
▁jenn	-8543
▁krem	-8544
▁lots	-8545
▁mere	-8546
▁mood	-8547
▁neut	-8548
▁noon	-8549
▁pich	-8550
▁poly	-8551
▁rays	-8552
▁seal	-8553
▁slim	-8554
▁symp	-8555
▁thor	-8556
▁twel	-8557
▁twin	-8558
active	-8559
igroup	-8560
nesota	-8561
▁alger	-8562
▁andre	-8563
▁brian	-8564
▁carac	-8565
▁chart	-8566
▁coinc	-8567
▁craft	-8568
▁cyber	-8569
▁dying	-8570
▁helps	-8571
▁marty	-8572
▁meets	-8573
▁pleas	-8574
▁radar	-8575
▁reput	-8576
▁teeth	-8577
▁toler	-8578
▁tours	-8579
▁unpop	-8580
▁wrest	-8581
▁yield	-8582
areness	-8583
▁actual	-8584
▁allied	-8585
▁anchor	-8586
▁archit	-8587
▁ballot	-8588
▁blacks	-8589
▁burden	-8590
▁button	-8591
▁buyers	-8592
▁denver	-8593
▁desire	-8594
▁encoun	-8595
▁gender	-8596
▁hitler	-8597
▁incumb	-8598
▁infect	-8599
▁kazakh	-8600
▁laptop	-8601
▁libyan	-8602
▁miller	-8603
▁philip	-8604
▁waited	-8605
cription	-8606
▁appeals	-8607
▁bahamas	-8608
▁burmese	-8609
▁damages	-8610
▁enjoyed	-8611
▁greeted	-8612
▁hanging	-8613
▁kremlin	-8614
▁lieuten	-8615
▁prostit	-8616
▁serbian	-8617
▁shouldn	-8618
▁spectac	-8619
▁surveys	-8620
▁testify	-8621
▁achieved	-8622
▁activist	-8623
▁bernanke	-8624
▁graduate	-8625
▁instance	-8626
▁marathon	-8627
▁massacre	-8628
▁promises	-8629
▁reflects	-8630
▁removing	-8631
▁requests	-8632
▁reserved	-8633
▁universe	-8634
▁zawahiri	-8635
▁awareness	-8636
▁beautiful	-8637
▁citigroup	-8638
▁competing	-8639
▁contacted	-8640
▁directors	-8641
▁minnesota	-8642
▁policeman	-8643
▁postponed	-8644
▁probation	-8645
▁telescope	-8646
▁contenders	-8647
▁definitely	-8648
▁landslides	-8649
▁separately	-8650
▁separatist	-8651
▁specialist	-8652
▁investments	-8653
▁represented	-8654
▁agricultural	-8655
▁proliferation	-8656
tv	-8657
rez	-8658
run	-8659
ampa	-8660
awaz	-8661
beat	-8662
iffe	-8663
iffs	-8664
ishu	-8665
mate	-8666
orta	-8667
prom	-8668
sels	-8669
wind	-8670
▁avo	-8671
▁bio	-8672
▁hut	-8673
▁lod	-8674
▁meg	-8675
▁mum	-8676
▁pod	-8677
▁usa	-8678
anche	-8679
isive	-8680
lined	-8681
prime	-8682
print	-8683
stone	-8684
▁audi	-8685
▁drow	-8686
▁elig	-8687
▁epis	-8688
▁fees	-8689
▁flaw	-8690
▁mats	-8691
▁mice	-8692
▁milk	-8693
▁nich	-8694
▁phen	-8695
▁rhet	-8696
▁scan	-8697
ecture	-8698
essing	-8699
▁dates	-8700
▁foods	-8701
▁intim	-8702
▁outdo	-8703
▁rocky	-8704
▁tears	-8705
▁terry	-8706
▁ankara	-8707
▁approx	-8708
▁blocks	-8709
▁castle	-8710
▁contem	-8711
▁crocod	-8712
▁danish	-8713
▁exclud	-8714
▁jungle	-8715
▁kidney	-8716
▁partly	-8717
▁rooney	-8718
▁rulers	-8719
▁schwar	-8720
▁tanker	-8721
▁thrown	-8722
▁tigers	-8723
▁volume	-8724
▁chamber	-8725
▁fossett	-8726
▁honored	-8727
▁instant	-8728
▁passage	-8729
▁rallied	-8730
▁ratings	-8731
▁revised	-8732
▁scoring	-8733
▁stretch	-8734
▁thanked	-8735
▁wealthy	-8736
rehensive	-8737
▁argument	-8738
▁arranged	-8739
▁barriers	-8740
▁benjamin	-8741
▁cambodia	-8742
▁consolid	-8743
▁generals	-8744
▁machines	-8745
▁opposite	-8746
▁pressing	-8747
▁realized	-8748
▁scandals	-8749
▁shortage	-8750
▁subprime	-8751
▁terminal	-8752
▁warrants	-8753
▁yourself	-8754
▁amendment	-8755
▁continent	-8756
▁excessive	-8757
▁generated	-8758
▁incumbent	-8759
▁prevented	-8760
▁primarily	-8761
▁publicist	-8762
▁resolving	-8763
▁reviewing	-8764
▁unpopular	-8765
▁accounting	-8766
▁checkpoint	-8767
▁contribute	-8768
▁critically	-8769
▁guidelines	-8770
▁immigrants	-8771
▁midfielder	-8772
▁peacefully	-8773
▁pronounced	-8774
▁recovering	-8775
▁undergoing	-8776
▁appearances	-8777
▁combination	-8778
▁competitive	-8779
▁mountainous	-8780
▁operational	-8781
▁publication	-8782
▁replacement	-8783
▁preparations	-8784
▁prostitution	-8785
▁photographers	-8786
ahn	-8787
bil	-8788
can	-8789
fit	-8790
ils	-8791
una	-8792
yah	-8793
▁05	-8794
▁hs	-8795
bons	-8796
fish	-8797
icut	-8798
ifer	-8799
illy	-8800
itar	-8801
odes	-8802
onna	-8803
rome	-8804
teen	-8805
▁aig	-8806
▁fah	-8807
▁hos	-8808
▁inh	-8809
▁nah	-8810
▁rug	-8811
▁tru	-8812
▁wol	-8813
allah	-8814
angel	-8815
irmed	-8816
▁1988	-8817
▁2011	-8818
▁auth	-8819
▁bans	-8820
▁cape	-8821
▁cher	-8822
▁clim	-8823
▁curt	-8824
▁ivan	-8825
▁ling	-8826
▁luis	-8827
▁owns	-8828
▁synd	-8829
▁taxi	-8830
▁ware	-8831
▁wool	-8832
adishu	-8833
closed	-8834
father	-8835
manuel	-8836
mother	-8837
ompson	-8838
▁aster	-8839
▁blind	-8840
▁bruni	-8841
▁finds	-8842
▁hindu	-8843
▁hosts	-8844
▁jewel	-8845
▁nawaz	-8846
▁pages	-8847
▁print	-8848
▁remem	-8849
▁rings	-8850
▁roles	-8851
▁samar	-8852
▁serge	-8853
▁tanks	-8854
▁tries	-8855
station	-8856
▁adjust	-8857
▁angela	-8858
▁borrow	-8859
▁dakota	-8860
▁diyala	-8861
▁exiled	-8862
▁locals	-8863
▁madoff	-8864
▁oppose	-8865
▁piracy	-8866
▁ransom	-8867
▁rarely	-8868
▁reveal	-8869
▁scramb	-8870
▁sealed	-8871
▁silver	-8872
▁stones	-8873
▁toilet	-8874
▁traded	-8875
ographic	-8876
zenegger	-8877
▁abusing	-8878
▁checked	-8879
▁doubled	-8880
▁fleeing	-8881
▁gazprom	-8882
▁hostile	-8883
▁ignored	-8884
▁mercury	-8885
▁motorcy	-8886
▁powered	-8887
▁prophet	-8888
▁reverse	-8889
▁smashed	-8890
▁toronto	-8891
▁animated	-8892
▁asteroid	-8893
▁exciting	-8894
▁freezing	-8895
▁heathrow	-8896
▁nominees	-8897
▁rhetoric	-8898
▁severely	-8899
▁suburban	-8900
▁superior	-8901
▁teaching	-8902
▁thompson	-8903
▁appearing	-8904
▁confessed	-8905
▁connected	-8906
▁discrimin	-8907
▁expanding	-8908
▁factories	-8909
▁installed	-8910
▁mogadishu	-8911
▁orchestra	-8912
▁selection	-8913
▁somewhere	-8914
▁underwent	-8915
▁challenged	-8916
▁greenpeace	-8917
▁performing	-8918
▁satellites	-8919
▁astronomers	-8920
▁comfortable	-8921
▁connecticut	-8922
▁dismantling	-8923
▁maintaining	-8924
▁statistical	-8925
▁temperature	-8926
▁manipulation	-8927
▁registration	-8928
▁comprehensive	-8929
▁reconstruction	-8930
▁schwarzenegger	-8931
ja	-8932
adi	-8933
equ	-8934
hus	-8935
kir	-8936
▁lg	-8937
▁mi	-8938
adic	-8939
argo	-8940
bean	-8941
ione	-8942
rics	-8943
uson	-8944
▁170	-8945
▁750	-8946
▁bra	-8947
▁bry	-8948
▁kum	-8949
▁mol	-8950
▁rit	-8951
▁sod	-8952
▁tip	-8953
▁vin	-8954
▁zap	-8955
aping	-8956
aware	-8957
cript	-8958
qtada	-8959
ricts	-8960
vinen	-8961
▁blaz	-8962
▁buff	-8963
▁chur	-8964
▁cole	-8965
▁dies	-8966
▁duck	-8967
▁fare	-8968
▁maur	-8969
▁medi	-8970
▁mong	-8971
▁nazi	-8972
▁odds	-8973
▁orth	-8974
▁pear	-8975
▁pure	-8976
▁seok	-8977
▁shep	-8978
▁trav	-8979
▁unre	-8980
▁user	-8981
estone	-8982
hedral	-8983
heimer	-8984
ichiro	-8985
▁allen	-8986
▁argue	-8987
▁bever	-8988
▁bonds	-8989
▁boxes	-8990
▁bruce	-8991
▁gases	-8992
▁holes	-8993
▁magic	-8994
▁marry	-8995
▁mcdon	-8996
▁overs	-8997
▁param	-8998
▁quant	-8999
▁rawal	-9000
▁reass	-9001
▁recyc	-9002
▁remin	-9003
▁spray	-9004
▁stall	-9005
▁sworn	-9006
▁sympt	-9007
iciency	-9008
▁aiming	-9009
▁barred	-9010
▁basket	-9011
▁bolton	-9012
▁bottle	-9013
▁burial	-9014
▁hidden	-9015
▁hijack	-9016
▁incent	-9017
▁insult	-9018
▁islets	-9019
▁murphy	-9020
▁preced	-9021
▁revers	-9022
▁strang	-9023
▁twelve	-9024
▁urgent	-9025
▁useful	-9026
▁alberto	-9027
▁arguing	-9028
▁assured	-9029
▁ballots	-9030
▁climbed	-9031
▁crocker	-9032
▁denmark	-9033
▁equival	-9034
▁fastest	-9035
▁gesture	-9036
▁hosting	-9037
▁intimid	-9038
▁lengthy	-9039
▁paulson	-9040
▁picking	-9041
▁prayers	-9042
▁predict	-9043
▁purport	-9044
▁rehabil	-9045
▁secured	-9046
▁sevilla	-9047
▁shouted	-9048
▁wrongdo	-9049
▁adoption	-9050
▁atlantis	-9051
▁commemor	-9052
▁customer	-9053
▁disorder	-9054
▁employed	-9055
▁enormous	-9056
▁entirely	-9057
▁expanded	-9058
▁expelled	-9059
▁ferguson	-9060
▁johndroe	-9061
▁managing	-9062
▁pointing	-9063
▁romantic	-9064
▁sciences	-9065
▁sudanese	-9066
▁survival	-9067
▁sweeping	-9068
▁theaters	-9069
▁adventure	-9070
▁antarctic	-9071
▁cathedral	-9072
▁considers	-9073
▁introduce	-9074
▁maintains	-9075
▁principal	-9076
▁taiwanese	-9077
▁withdrawn	-9078
▁automakers	-9079
▁ceremonies	-9080
▁dispatched	-9081
▁evacuation	-9082
▁professors	-9083
▁qualifying	-9084
▁strategist	-9085
▁billionaire	-9086
▁spectacular	-9087
▁willingness	-9088
▁applications	-9089
▁photographer	-9090
▁participating	-9091
eg	-9092
asy	-9093
iko	-9094
kei	-9095
▁08	-9096
▁oz	-9097
▁wu	-9098
care	-9099
frey	-9100
inks	-9101
isan	-9102
lete	-9103
mble	-9104
onte	-9105
pers	-9106
▁afp	-9107
▁gut	-9108
▁nel	-9109
▁nix	-9110
▁nur	-9111
▁sid	-9112
▁ted	-9113
▁uss	-9114
armed	-9115
atoes	-9116
grade	-9117
iders	-9118
munic	-9119
pindi	-9120
ramid	-9121
▁cord	-9122
▁desk	-9123
▁dodi	-9124
▁gwan	-9125
▁hell	-9126
▁jama	-9127
▁lisa	-9128
▁pist	-9129
▁rash	-9130
▁raul	-9131
▁scul	-9132
▁shim	-9133
▁sued	-9134
▁ther	-9135
▁trem	-9136
arotti	-9137
awatra	-9138
giving	-9139
tanbul	-9140
▁carib	-9141
▁depos	-9142
▁eager	-9143
▁fixed	-9144
▁guest	-9145
▁hired	-9146
▁horta	-9147
▁incor	-9148
▁ivory	-9149
▁lucky	-9150
▁moroc	-9151
▁ninth	-9152
▁ranch	-9153
▁revel	-9154
▁spraw	-9155
▁tired	-9156
▁uribe	-9157
▁villa	-9158
▁weren	-9159
▁yards	-9160
osexual	-9161
working	-9162
▁carpet	-9163
▁covers	-9164
▁duties	-9165
▁enthus	-9166
▁franco	-9167
▁honest	-9168
▁incurs	-9169
▁iphone	-9170
▁kicked	-9171
▁knight	-9172
▁mining	-9173
▁mortar	-9174
▁mutual	-9175
▁overha	-9176
▁parker	-9177
▁please	-9178
▁propag	-9179
▁random	-9180
▁retrie	-9181
▁spaces	-9182
▁subway	-9183
▁suffer	-9184
▁tissue	-9185
ilateral	-9186
▁anybody	-9187
▁captors	-9188
▁caracas	-9189
▁closure	-9190
▁counted	-9191
▁engines	-9192
▁exhibit	-9193
▁filming	-9194
▁handful	-9195
▁indians	-9196
▁inmates	-9197
▁madonna	-9198
▁posting	-9199
▁pyramid	-9200
▁revenge	-9201
▁subsequ	-9202
▁tripoli	-9203
▁typical	-9204
▁winfrey	-9205
▁bacteria	-9206
▁branches	-9207
▁broadway	-9208
▁brussels	-9209
▁disclose	-9210
▁formerly	-9211
▁generate	-9212
▁hometown	-9213
▁istanbul	-9214
▁jennifer	-9215
▁mourning	-9216
▁occupied	-9217
▁phenomen	-9218
▁refusing	-9219
▁regarded	-9220
▁volatile	-9221
▁ambitious	-9222
▁associate	-9223
▁candidacy	-9224
▁carefully	-9225
▁collected	-9226
▁crocodile	-9227
▁donations	-9228
▁elaborate	-9229
▁epicenter	-9230
▁essential	-9231
▁explained	-9232
▁financing	-9233
▁landscape	-9234
▁pavarotti	-9235
▁pregnancy	-9236
▁proposals	-9237
▁sponsored	-9238
▁supporter	-9239
▁technique	-9240
▁elementary	-9241
▁extinction	-9242
▁households	-9243
▁rawalpindi	-9244
▁reputation	-9245
▁restricted	-9246
▁shinawatra	-9247
▁application	-9248
▁businessman	-9249
▁celebrating	-9250
▁contributed	-9251
▁criticizing	-9252
▁educational	-9253
▁influential	-9254
▁obligations	-9255
▁participation	-9256
dr	-9257
la	-9258
380	-9259
amy	-9260
lan	-9261
vis	-9262
weg	-9263
zer	-9264
zes	-9265
▁01	-9266
▁09	-9267
▁97	-9268
anol	-9269
hart	-9270
icef	-9271
ilia	-9272
nold	-9273
umin	-9274
umph	-9275
▁450	-9276
▁duc	-9277
▁joy	-9278
▁kit	-9279
▁liv	-9280
▁mdc	-9281
▁rud	-9282
▁suv	-9283
▁voc	-9284
▁yan	-9285
▁zar	-9286
agger	-9287
charg	-9288
gging	-9289
isons	-9290
kirts	-9291
opard	-9292
udhry	-9293
world	-9294
▁adam	-9295
▁amin	-9296
▁blog	-9297
▁bold	-9298
▁brib	-9299
▁echo	-9300
▁fisc	-9301
▁gram	-9302
▁hate	-9303
▁hind	-9304
▁juan	-9305
▁lion	-9306
▁rent	-9307
▁rove	-9308
▁shoe	-9309
▁sway	-9310
▁tang	-9311
▁unsu	-9312
▁webs	-9313
ouring	-9314
rising	-9315
teries	-9316
ushkin	-9317
▁accur	-9318
▁adapt	-9319
▁clark	-9320
▁clues	-9321
▁depth	-9322
▁disgr	-9323
▁drunk	-9324
▁gonna	-9325
▁guess	-9326
▁haiti	-9327
▁merch	-9328
▁mines	-9329
▁nixon	-9330
▁oprah	-9331
▁plate	-9332
▁pusan	-9333
▁ranks	-9334
▁rifle	-9335
▁shame	-9336
▁smart	-9337
▁spots	-9338
▁squee	-9339
▁stick	-9340
▁tampa	-9341
ancourt	-9342
itorial	-9343
respons	-9344
uations	-9345
▁anthem	-9346
▁autops	-9347
▁destro	-9348
▁diabet	-9349
▁dumped	-9350
▁empire	-9351
▁explan	-9352
▁fabric	-9353
▁greens	-9354
▁guided	-9355
▁indict	-9356
▁infilt	-9357
▁intent	-9358
▁invent	-9359
▁manila	-9360
▁medics	-9361
▁nikkei	-9362
▁norway	-9363
▁paraly	-9364
▁pepper	-9365
▁premie	-9366
▁resemb	-9367
▁sacrif	-9368
▁smooth	-9369
▁suppli	-9370
▁surged	-9371
▁titled	-9372
▁transp	-9373
▁travol	-9374
▁tribun	-9375
▁unicef	-9376
▁wooden	-9377
▁automob	-9378
▁bedroom	-9379
▁dispers	-9380
▁dragged	-9381
▁forests	-9382
▁forming	-9383
▁helmand	-9384
▁knowing	-9385
▁mammoth	-9386
▁montana	-9387
▁murders	-9388
▁neutral	-9389
▁offense	-9390
▁petrole	-9391
▁portray	-9392
▁publish	-9393
▁restart	-9394
▁surpass	-9395
▁triumph	-9396
▁attacker	-9397
▁chaudhry	-9398
▁discount	-9399
▁elevator	-9400
▁facebook	-9401
▁glaciers	-9402
▁hearings	-9403
▁johnston	-9404
▁monitors	-9405
▁outgoing	-9406
▁quarters	-9407
▁releases	-9408
▁restored	-9409
▁revision	-9410
▁shouting	-9411
▁somebody	-9412
▁symptoms	-9413
▁textbook	-9414
▁argentine	-9415
▁arguments	-9416
▁attackers	-9417
▁bloomberg	-9418
▁breathing	-9419
▁caribbean	-9420
▁cautioned	-9421
▁kilometer	-9422
▁musicians	-9423
▁outskirts	-9424
▁slaughter	-9425
▁smuggling	-9426
▁unsuccess	-9427
▁airstrikes	-9428
▁betancourt	-9429
▁engagement	-9430
▁equivalent	-9431
▁guarantees	-9432
▁pichushkin	-9433
▁stronghold	-9434
▁transplant	-9435
▁forecasters	-9436
▁predecessor	-9437
▁prestigious	-9438
▁territorial	-9439
▁demonstrated	-9440
▁intervention	-9441
▁thanksgiving	-9442
▁interrogation	-9443
cr	-9444
ii	-9445
agu	-9446
erb	-9447
how	-9448
oca	-9449
yad	-9450
ader	-9451
ails	-9452
cars	-9453
iary	-9454
isen	-9455
lein	-9456
name	-9457
phan	-9458
zhou	-9459
▁alz	-9460
▁bos	-9461
▁cin	-9462
▁clo	-9463
▁dir	-9464
▁hay	-9465
▁hip	-9466
▁hog	-9467
▁jab	-9468
▁kuz	-9469
▁mao	-9470
▁nab	-9471
▁nan	-9472
▁ups	-9473
▁zah	-9474
akash	-9475
arity	-9476
chell	-9477
front	-9478
lando	-9479
ouses	-9480
terns	-9481
wered	-9482
▁arts	-9483
▁bish	-9484
▁blat	-9485
▁brid	-9486
▁caff	-9487
▁ebay	-9488
▁fifa	-9489
▁gift	-9490
▁icon	-9491
▁nose	-9492
▁pier	-9493
▁qari	-9494
▁slip	-9495
▁tips	-9496
▁tong	-9497
▁usfk	-9498
▁aging	-9499
▁aquar	-9500
▁burns	-9501
▁farms	-9502
▁files	-9503
▁grace	-9504
▁jeong	-9505
▁lynch	-9506
▁maine	-9507
▁pants	-9508
▁ports	-9509
▁pride	-9510
▁seren	-9511
▁sized	-9512
▁tools	-9513
▁wayne	-9514
regular	-9515
▁breach	-9516
▁breaks	-9517
▁cannes	-9518
▁crunch	-9519
▁drinks	-9520
▁halted	-9521
▁muscle	-9522
▁norweg	-9523
▁passes	-9524
▁routes	-9525
▁sounds	-9526
▁stated	-9527
▁tennis	-9528
▁tragic	-9529
▁trails	-9530
children	-9531
▁automot	-9532
▁brigade	-9533
▁extinct	-9534
▁gunshot	-9535
▁orlando	-9536
▁outpost	-9537
▁persons	-9538
▁planets	-9539
▁recruit	-9540
▁shepher	-9541
▁shooter	-9542
▁stewart	-9543
▁venture	-9544
▁advisers	-9545
▁aquarium	-9546
▁belonged	-9547
▁captives	-9548
▁counties	-9549
▁defeated	-9550
▁diabetes	-9551
▁evacuate	-9552
▁factions	-9553
▁imminent	-9554
▁involves	-9555
▁optimism	-9556
▁restruct	-9557
▁shutting	-9558
▁stopping	-9559
▁summoned	-9560
▁thorough	-9561
▁afterward	-9562
▁alzheimer	-9563
▁breakfast	-9564
▁defectors	-9565
▁desperate	-9566
▁economics	-9567
▁endeavour	-9568
▁ethiopian	-9569
▁existence	-9570
▁extending	-9571
▁fortified	-9572
▁framework	-9573
▁policemen	-9574
▁protested	-9575
▁provision	-9576
▁publisher	-9577
▁reinforce	-9578
▁solutions	-9579
▁substance	-9580
▁tentative	-9581
▁affiliated	-9582
▁biological	-9583
▁describing	-9584
▁electrical	-9585
▁emphasized	-9586
▁overturned	-9587
▁preventing	-9588
▁researcher	-9589
▁acknowledge	-9590
▁contractors	-9591
▁endorsement	-9592
▁examination	-9593
▁inspections	-9594
▁legislators	-9595
▁retaliation	-9596
▁traditionally	-9597
uo	-9598
uy	-9599
dem	-9600
eta	-9601
ofi	-9602
oty	-9603
▁bm	-9604
abao	-9605
anny	-9606
arre	-9607
case	-9608
heon	-9609
iors	-9610
mann	-9611
play	-9612
▁192	-9613
▁imf	-9614
▁jos	-9615
▁kan	-9616
▁kas	-9617
▁nag	-9618
▁nod	-9619
▁sib	-9620
▁tag	-9621
▁vic	-9622
▁wip	-9623
aired	-9624
cedes	-9625
itled	-9626
orous	-9627
▁1981	-9628
▁bart	-9629
▁chim	-9630
▁craw	-9631
▁dana	-9632
▁estr	-9633
▁grim	-9634
▁hike	-9635
▁indo	-9636
▁joon	-9637
▁mitt	-9638
▁okin	-9639
▁pact	-9640
▁peer	-9641
▁root	-9642
▁shia	-9643
▁soul	-9644
▁stab	-9645
▁ster	-9646
▁tayy	-9647
▁warn	-9648
ishing	-9649
mental	-9650
rition	-9651
▁asset	-9652
▁atroc	-9653
▁dealt	-9654
▁dynam	-9655
▁enact	-9656
▁fujim	-9657
▁inner	-9658
▁irbil	-9659
▁kinds	-9660
▁minim	-9661
▁opera	-9662
▁poore	-9663
▁scrut	-9664
▁surpl	-9665
▁swall	-9666
▁swing	-9667
▁truly	-9668
▁uncom	-9669
▁undis	-9670
esterol	-9671
▁affair	-9672
▁crater	-9673
▁discip	-9674
▁fairly	-9675
▁jiabao	-9676
▁kimchi	-9677
▁manner	-9678
▁mirror	-9679
▁overth	-9680
▁parade	-9681
▁rating	-9682
▁refuse	-9683
▁remind	-9684
▁slowly	-9685
▁soared	-9686
▁amazing	-9687
▁artific	-9688
▁authors	-9689
▁beatles	-9690
▁bernard	-9691
▁clients	-9692
▁gibbons	-9693
▁infring	-9694
▁mothers	-9695
▁rolling	-9696
▁samarra	-9697
▁substit	-9698
▁undersc	-9699
▁utility	-9700
▁actively	-9701
▁airplane	-9702
▁damaging	-9703
▁dispatch	-9704
▁holidays	-9705
▁humanity	-9706
▁imperial	-9707
▁investor	-9708
▁lifetime	-9709
▁lighting	-9710
▁margaret	-9711
▁mercedes	-9712
▁mitchell	-9713
▁pipeline	-9714
▁predomin	-9715
▁sessions	-9716
▁supervis	-9717
▁takeover	-9718
▁threaten	-9719
▁tribunal	-9720
▁youngest	-9721
▁colleague	-9722
▁dedicated	-9723
▁describes	-9724
▁exchanges	-9725
▁favorable	-9726
▁fishermen	-9727
▁irrespons	-9728
▁kurdistan	-9729
▁mentioned	-9730
▁privately	-9731
▁prolonged	-9732
▁purported	-9733
▁shattered	-9734
▁sophistic	-9735
▁sprawling	-9736
▁challenger	-9737
▁devastated	-9738
▁precaution	-9739
▁psychology	-9740
▁regulators	-9741
▁cholesterol	-9742
▁citizenship	-9743
▁coordinated	-9744
▁pornography	-9745
▁recognition	-9746
▁technically	-9747
▁assassinated	-9748
▁difficulties	-9749
▁approximately	-9750
▁restructuring	-9751
bid	-9752
but	-9753
chs	-9754
hew	-9755
iac	-9756
lev	-9757
mao	-9758
▁hi	-9759
adow	-9760
araz	-9761
athy	-9762
ello	-9763
heit	-9764
rors	-9765
stan	-9766
▁abn	-9767
▁dok	-9768
▁dot	-9769
▁fet	-9770
▁hui	-9771
▁hyp	-9772
▁nfl	-9773
▁rou	-9774
ierra	-9775
rific	-9776
▁1982	-9777
▁abor	-9778
▁bash	-9779
▁flic	-9780
▁hans	-9781
▁kcna	-9782
▁kofi	-9783
▁lobb	-9784
▁lock	-9785
▁melt	-9786
▁nerv	-9787
▁qass	-9788
▁rend	-9789
▁scri	-9790
▁unch	-9791
▁vest	-9792
▁wage	-9793
▁wang	-9794
▁wrap	-9795
iotics	-9796
lessly	-9797
ortium	-9798
▁ammun	-9799
▁arena	-9800
▁banco	-9801
▁bulls	-9802
▁corre	-9803
▁croat	-9804
▁cryst	-9805
▁dated	-9806
▁donor	-9807
▁famed	-9808
▁ferry	-9809
▁folks	-9810
▁incon	-9811
▁midst	-9812
▁races	-9813
▁remov	-9814
▁rider	-9815
▁roots	-9816
▁stuck	-9817
▁voter	-9818
▁wazir	-9819
▁wheat	-9820
▁wings	-9821
▁ambush	-9822
▁divide	-9823
▁doubts	-9824
▁edward	-9825
▁gotten	-9826
▁hubble	-9827
▁hunter	-9828
▁legacy	-9829
▁monkey	-9830
▁nelson	-9831
▁organs	-9832
▁oscars	-9833
▁perino	-9834
▁praise	-9835
▁puerto	-9836
▁racial	-9837
▁sensit	-9838
▁slowed	-9839
▁stream	-9840
▁visual	-9841
▁waving	-9842
▁youths	-9843
▁autopsy	-9844
▁battled	-9845
▁britney	-9846
▁chicken	-9847
▁clooney	-9848
▁conglom	-9849
▁conting	-9850
▁dancing	-9851
▁dignity	-9852
▁embrace	-9853
▁evangel	-9854
▁gaining	-9855
▁gunfire	-9856
▁okinawa	-9857
▁painful	-9858
▁pursuit	-9859
▁rampage	-9860
▁saakash	-9861
▁setback	-9862
▁shipman	-9863
▁swedish	-9864
▁undergo	-9865
▁bathroom	-9866
▁cautious	-9867
▁deadlock	-9868
▁designer	-9869
▁distress	-9870
▁eligible	-9871
▁equipped	-9872
▁imported	-9873
▁overhaul	-9874
▁patterns	-9875
▁scholars	-9876
▁shelters	-9877
▁sleeping	-9878
▁sporting	-9879
▁stunning	-9880
▁survivor	-9881
▁thoughts	-9882
▁conscious	-9883
▁declining	-9884
▁depending	-9885
▁disrupted	-9886
▁finishing	-9887
▁incursion	-9888
▁irregular	-9889
▁petroleum	-9890
▁practices	-9891
▁purchased	-9892
▁screening	-9893
▁witnessed	-9894
▁ammunition	-9895
▁automotive	-9896
▁capability	-9897
▁chairwoman	-9898
▁consortium	-9899
▁dissidents	-9900
▁encouraged	-9901
▁enterprise	-9902
▁invitation	-9903
▁retirement	-9904
▁antibiotics	-9905
▁commitments	-9906
▁grandfather	-9907
▁grandmother	-9908
▁intensified	-9909
▁interesting	-9910
▁partnership	-9911
▁saakashvili	-9912
▁territories	-9913
▁peacekeepers	-9914
▁performances	-9915
▁telecommunic	-9916
▁determination	-9917
▁neighborhoods	-9918
▁relationships	-9919
▁counterfeiting	-9920
▁implementation	-9921
bec	-9922
din	-9923
hev	-9924
icy	-9925
iza	-9926
mes	-9927
mir	-9928
olo	-9929
put	-9930
rov	-9931
rup	-9932
say	-9933
urn	-9934
▁jr	-9935
▁mw	-9936
▁yu	-9937
alay	-9938
arge	-9939
asty	-9940
hasa	-9941
heng	-9942
iane	-9943
iley	-9944
opez	-9945
oult	-9946
quba	-9947
roph	-9948
rows	-9949
spec	-9950
unes	-9951
▁101	-9952
▁135	-9953
▁ana	-9954
▁bee	-9955
▁bok	-9956
▁bun	-9957
▁cri	-9958
▁mam	-9959
▁mes	-9960
▁oak	-9961
▁poc	-9962
▁rab	-9963
▁raw	-9964
▁raz	-9965
▁tea	-9966
▁yog	-9967
bered	-9968
earns	-9969
eling	-9970
fires	-9971
icing	-9972
ighed	-9973
jiang	-9974
lings	-9975
ushed	-9976
▁1945	-9977
▁andy	-9978
▁apec	-9979
▁aziz	-9980
▁bali	-9981
▁crem	-9982
▁fitz	-9983
▁gill	-9984
▁gran	-9985
▁hadn	-9986
▁hwan	-9987
▁intr	-9988
▁jank	-9989
▁keen	-9990
▁lect	-9991
▁luck	-9992
▁nebr	-9993
▁pale	-9994
▁panc	-9995
▁sank	-9996
antile	-9997
illery	-9998
istics	-9999
terror	-10000
▁alarm	-10001
▁brave	-10002
▁brick	-10003
▁claus	-10004
▁deuts	-10005
▁dougl	-10006
▁genes	-10007
▁homic	-10008
▁horse	-10009
▁irish	-10010
▁jiang	-10011
▁lakes	-10012
▁lance	-10013
▁laser	-10014
▁linda	-10015
▁lopez	-10016
▁marsh	-10017
▁meals	-10018
▁pione	-10019
▁reaff	-10020
▁searc	-10021
▁shake	-10022
▁suits	-10023
▁susan	-10024
▁valid	-10025
ignment	-10026
ouncing	-10027
renheit	-10028
▁aggrav	-10029
▁baquba	-10030
▁blockb	-10031
▁brothe	-10032
▁caucus	-10033
▁chairs	-10034
▁chosun	-10035
▁clinch	-10036
▁commod	-10037
▁condol	-10038
▁donors	-10039
▁easter	-10040
▁foster	-10041
▁fueled	-10042
▁gusmao	-10043
▁heated	-10044
▁kidnap	-10045
▁manage	-10046
▁manuel	-10047
▁merger	-10048
▁modest	-10049
▁outlaw	-10050
▁perpet	-10051
▁polish	-10052
▁racing	-10053
▁reserv	-10054
▁respir	-10055
▁shirts	-10056
▁sierra	-10057
▁statue	-10058
▁throne	-10059
▁venues	-10060
▁angered	-10061
▁bargain	-10062
▁barrier	-10063
▁beverly	-10064
▁blanket	-10065
▁cheaper	-10066
▁choices	-10067
▁formula	-10068
▁handing	-10069
▁handled	-10070
▁hardest	-10071
▁hawking	-10072
▁jointly	-10073
▁mandate	-10074
▁municip	-10075
▁mystery	-10076
▁obvious	-10077
▁paparaz	-10078
▁payment	-10079
▁plummet	-10080
▁reacted	-10081
▁removal	-10082
▁retreat	-10083
▁runners	-10084
▁transit	-10085
▁annually	-10086
▁checking	-10087
▁clinical	-10088
▁defender	-10089
▁gyeonggi	-10090
▁judgment	-10091
▁justices	-10092
▁nebraska	-10093
▁orbiting	-10094
▁protocol	-10095
▁reserves	-10096
▁reviewed	-10097
▁russians	-10098
▁tracking	-10099
▁troubles	-10100
▁anonymous	-10101
▁artillery	-10102
▁captivity	-10103
▁collision	-10104
▁copyright	-10105
▁exclusive	-10106
▁greenland	-10107
▁happiness	-10108
▁inspector	-10109
▁languages	-10110
▁mastermin	-10111
▁melbourne	-10112
▁norwegian	-10113
▁operators	-10114
▁ownership	-10115
▁stabilize	-10116
▁voluntary	-10117
▁volunteer	-10118
▁wildfires	-10119
▁artificial	-10120
▁fatalities	-10121
▁friendship	-10122
▁lieutenant	-10123
▁mercantile	-10124
▁phenomenon	-10125
▁propaganda	-10126
▁reasonable	-10127
▁salmonella	-10128
▁waziristan	-10129
▁destination	-10130
▁transparent	-10131
▁celebrations	-10132
▁contribution	-10133
▁governmental	-10134
▁implications	-10135
▁spokesperson	-10136
▁sophisticated	-10137
▁archaeologists	-10138
▁rehabilitation	-10139
cro	-10140
erg	-10141
gow	-10142
jan	-10143
opp	-10144
ros	-10145
tes	-10146
tse	-10147
▁04	-10148
▁94	-10149
▁cd	-10150
▁uf	-10151
club	-10152
enos	-10153
oung	-10154
sson	-10155
thur	-10156
ules	-10157
yans	-10158
▁240	-10159
▁bru	-10160
▁cyc	-10161
▁dug	-10162
▁jir	-10163
▁ras	-10164
abani	-10165
annes	-10166
anson	-10167
arded	-10168
ctica	-10169
eanor	-10170
iated	-10171
ishes	-10172
licts	-10173
mouth	-10174
piece	-10175
▁1984	-10176
▁anne	-10177
▁bosn	-10178
▁bout	-10179
▁bris	-10180
▁bron	-10181
▁ftse	-10182
▁ghan	-10183
▁kerv	-10184
▁lamp	-10185
▁lenn	-10186
▁limb	-10187
▁mini	-10188
▁oath	-10189
▁pink	-10190
▁reck	-10191
▁rick	-10192
▁ross	-10193
▁slum	-10194
▁snap	-10195
▁stor	-10196
▁tire	-10197
▁tops	-10198
▁toss	-10199
ainted	-10200
atemal	-10201
forced	-10202
lights	-10203
ultane	-10204
utical	-10205
▁arson	-10206
▁chess	-10207
▁cripp	-10208
▁decor	-10209
▁dense	-10210
▁elbar	-10211
▁exter	-10212
▁frost	-10213
▁gangs	-10214
▁genet	-10215
▁griff	-10216
▁humor	-10217
▁ideal	-10218
▁kwang	-10219
▁loose	-10220
▁minus	-10221
▁panda	-10222
▁rosen	-10223
▁slush	-10224
▁starb	-10225
▁trump	-10226
▁widow	-10227
▁yanke	-10228
▁aerial	-10229
▁ancest	-10230
▁arnold	-10231
▁behead	-10232
▁circle	-10233
▁convey	-10234
▁dement	-10235
▁distin	-10236
▁ethics	-10237
▁fiscal	-10238
▁franch	-10239
▁fright	-10240
▁fundra	-10241
▁guitar	-10242
▁hariri	-10243
▁harvey	-10244
▁hassan	-10245
▁loaded	-10246
▁motive	-10247
▁naming	-10248
▁pardon	-10249
▁parked	-10250
▁ripped	-10251
▁sharks	-10252
▁tayyip	-10253
▁thwart	-10254
▁tradem	-10255
▁tribes	-10256
ductions	-10257
▁affects	-10258
▁beaches	-10259
▁belgian	-10260
▁cancell	-10261
▁careful	-10262
▁cartoon	-10263
▁chanted	-10264
▁consent	-10265
▁contrad	-10266
▁credits	-10267
▁dolphin	-10268
▁douglas	-10269
▁examine	-10270
▁glasgow	-10271
▁goldman	-10272
▁holland	-10273
▁jacques	-10274
▁janeiro	-10275
▁kerviel	-10276
▁layoffs	-10277
▁liberty	-10278
▁lowered	-10279
▁persist	-10280
▁proport	-10281
▁russell	-10282
▁secrets	-10283
▁settled	-10284
▁shelves	-10285
▁sponsor	-10286
▁stanley	-10287
▁stearns	-10288
▁stormed	-10289
▁strange	-10290
▁studied	-10291
▁tactics	-10292
▁answered	-10293
▁assigned	-10294
▁austrian	-10295
▁climbing	-10296
▁comeback	-10297
▁concerts	-10298
▁consumed	-10299
▁creative	-10300
▁creature	-10301
▁fernando	-10302
▁fujimori	-10303
▁guatemal	-10304
▁johannes	-10305
▁measured	-10306
▁murdered	-10307
▁preserve	-10308
▁railroad	-10309
▁securing	-10310
▁shepherd	-10311
▁symbolic	-10312
▁talabani	-10313
▁travolta	-10314
▁weakness	-10315
▁cristiano	-10316
▁elbaradei	-10317
▁fernandez	-10318
▁intensive	-10319
▁pressures	-10320
▁propelled	-10321
▁replacing	-10322
▁secretive	-10323
▁semifinal	-10324
▁shipments	-10325
▁simultane	-10326
▁victories	-10327
▁warehouse	-10328
▁accordance	-10329
▁antarctica	-10330
▁applicants	-10331
▁committees	-10332
▁destroying	-10333
▁expedition	-10334
▁indictment	-10335
▁medication	-10336
▁networking	-10337
▁sentencing	-10338
▁wrongdoing	-10339
▁challenging	-10340
▁complaining	-10341
▁experiments	-10342
▁ministerial	-10343
▁populations	-10344
▁preparation	-10345
▁unanimously	-10346
▁embezzlement	-10347
▁consideration	-10348
▁counterterror	-10349
▁predominantly	-10350
▁quarterfinals	-10351
▁strengthening	-10352
▁overwhelmingly	-10353
eb	-10354
oh	-10355
oi	-10356
bie	-10357
kat	-10358
oni	-10359
uum	-10360
▁bb	-10361
afat	-10362
alez	-10363
alle	-10364
appy	-10365
asse	-10366
aval	-10367
bach	-10368
bala	-10369
enza	-10370
furt	-10371
hbow	-10372
ista	-10373
kers	-10374
lord	-10375
odox	-10376
ospi	-10377
otte	-10378
rant	-10379
shad	-10380
ttes	-10381
umes	-10382
▁103	-10383
▁280	-10384
▁alg	-10385
▁bog	-10386
▁dat	-10387
▁fuk	-10388
▁gym	-10389
▁kia	-10390
▁lug	-10391
▁odd	-10392
▁umb	-10393
▁xvi	-10394
eches	-10395
ensed	-10396
heads	-10397
netso	-10398
ommod	-10399
shine	-10400
storm	-10401
▁1953	-10402
▁1979	-10403
▁asks	-10404
▁bees	-10405
▁bust	-10406
▁cook	-10407
▁cous	-10408
▁dent	-10409
▁hors	-10410
▁inac	-10411
▁lane	-10412
▁lima	-10413
▁pean	-10414
▁sars	-10415
▁scor	-10416
▁sket	-10417
▁succ	-10418
▁swap	-10419
▁trin	-10420
▁whis	-10421
▁yush	-10422
itable	-10423
ithner	-10424
ocaust	-10425
▁adequ	-10426
▁aires	-10427
▁ankle	-10428
▁bread	-10429
▁bride	-10430
▁brill	-10431
▁busan	-10432
▁cairo	-10433
▁chips	-10434
▁dance	-10435
▁dokdo	-10436
▁enric	-10437
▁facts	-10438
▁fifty	-10439
▁fines	-10440
▁grade	-10441
▁honey	-10442
▁indec	-10443
▁jirga	-10444
▁knife	-10445
▁kospi	-10446
▁libby	-10447
▁marie	-10448
▁pengu	-10449
▁quell	-10450
▁rhode	-10451
▁spell	-10452
▁taste	-10453
▁trash	-10454
▁vocal	-10455
arettes	-10456
parency	-10457
▁abused	-10458
▁acquis	-10459
▁arafat	-10460
▁bribes	-10461
▁buenos	-10462
▁butter	-10463
▁catast	-10464
▁cattle	-10465
▁deeper	-10466
▁deport	-10467
▁extent	-10468
▁filing	-10469
▁garage	-10470
▁globes	-10471
▁harbor	-10472
▁hinted	-10473
▁humili	-10474
▁ignore	-10475
▁monica	-10476
▁seeded	-10477
▁sheets	-10478
▁silent	-10479
▁vacuum	-10480
▁verify	-10481
▁victor	-10482
▁afghans	-10483
▁binding	-10484
▁charism	-10485
▁charter	-10486
▁creates	-10487
▁diverse	-10488
▁drowned	-10489
▁ethanol	-10490
▁exhaust	-10491
▁extract	-10492
▁facilit	-10493
▁fearing	-10494
▁feeding	-10495
▁fulfill	-10496
▁grabbed	-10497
▁gravity	-10498
▁harmful	-10499
▁incheon	-10500
▁issuing	-10501
▁nervous	-10502
▁pageant	-10503
▁pension	-10504
▁premium	-10505
▁prisons	-10506
▁spitzer	-10507
▁weighed	-10508
▁accommod	-10509
▁arkansas	-10510
▁assisted	-10511
▁cartoons	-10512
▁choosing	-10513
▁conclude	-10514
▁contents	-10515
▁diamonds	-10516
▁downturn	-10517
▁entitled	-10518
▁epidemic	-10519
▁feelings	-10520
▁flexible	-10521
▁geithner	-10522
▁grenades	-10523
▁imposing	-10524
▁jankovic	-10525
▁kuznetso	-10526
▁mcdonald	-10527
▁meantime	-10528
▁memories	-10529
▁nigerian	-10530
▁opposing	-10531
▁patience	-10532
▁scenario	-10533
▁shoppers	-10534
▁speeches	-10535
▁terrible	-10536
▁treating	-10537
▁ultimate	-10538
▁uprising	-10539
▁vershbow	-10540
▁weakened	-10541
▁basically	-10542
▁batteries	-10543
▁biologist	-10544
▁brilliant	-10545
▁creatures	-10546
▁districts	-10547
▁examining	-10548
▁formation	-10549
▁holocaust	-10550
▁intervene	-10551
▁isolation	-10552
▁medicines	-10553
▁motivated	-10554
▁nightclub	-10555
▁ourselves	-10556
▁starbucks	-10557
▁accomplish	-10558
▁aggression	-10559
▁cigarettes	-10560
▁consistent	-10561
▁developers	-10562
▁difficulty	-10563
▁exhibition	-10564
▁fahrenheit	-10565
▁impressive	-10566
▁imprisoned	-10567
▁incentives	-10568
▁kazakhstan	-10569
▁motorcycle	-10570
▁petersburg	-10571
▁processing	-10572
▁resumption	-10573
▁suspicions	-10574
▁aftershocks	-10575
▁condolences	-10576
▁earthquakes	-10577
▁implemented	-10578
▁negotiation	-10579
▁prostitutes	-10580
▁respiratory	-10581
▁sensitivity	-10582
▁undisclosed	-10583
▁withdrawing	-10584
▁manufacturer	-10585
▁quarterfinal	-10586
▁transparency	-10587
▁recommendations	-10588
bu	-10589
mi	-10590
tr	-10591
anu	-10592
emi	-10593
fol	-10594
iba	-10595
ifi	-10596
mus	-10597
oft	-10598
oir	-10599
▁kt	-10600
▁nh	-10601
agen	-10602
cade	-10603
eman	-10604
inqu	-10605
olla	-10606
raib	-10607
rams	-10608
rill	-10609
star	-10610
toff	-10611
ught	-10612
uine	-10613
▁190	-10614
▁225	-10615
▁787	-10616
▁ace	-10617
▁anx	-10618
▁biz	-10619
▁cad	-10620
▁caf	-10621
▁das	-10622
▁enl	-10623
▁gif	-10624
▁jok	-10625
▁kam	-10626
▁kay	-10627
▁leh	-10628
▁lia	-10629
▁rog	-10630
▁spa	-10631
▁wet	-10632
incol	-10633
loved	-10634
ongch	-10635
ourse	-10636
ratic	-10637
rella	-10638
▁1973	-10639
▁1975	-10640
▁2014	-10641
▁acre	-10642
▁cant	-10643
▁chae	-10644
▁choi	-10645
▁cinc	-10646
▁drum	-10647
▁hart	-10648
▁ingr	-10649
▁java	-10650
▁knut	-10651
▁kwon	-10652
▁leap	-10653
▁mant	-10654
▁mild	-10655
▁monu	-10656
▁nest	-10657
▁pets	-10658
▁reli	-10659
▁rita	-10660
▁sadd	-10661
▁stom	-10662
▁swat	-10663
▁tatt	-10664
▁tren	-10665
▁yeah	-10666
artney	-10667
innati	-10668
ionage	-10669
itated	-10670
▁anbar	-10671
▁barry	-10672
▁blues	-10673
▁fitzg	-10674
▁gerry	-10675
▁inapp	-10676
▁inhab	-10677
▁kilog	-10678
▁kitty	-10679
▁likes	-10680
▁lungs	-10681
▁mails	-10682
▁notor	-10683
▁offsh	-10684
▁overd	-10685
▁panic	-10686
▁poses	-10687
▁quart	-10688
▁reign	-10689
▁safer	-10690
▁slain	-10691
▁slide	-10692
▁spice	-10693
▁wages	-10694
▁zones	-10695
claimed	-10696
▁absent	-10697
▁ashore	-10698
▁austin	-10699
▁bombed	-10700
▁broker	-10701
▁browne	-10702
▁casino	-10703
▁column	-10704
▁copper	-10705
▁dreams	-10706
▁easing	-10707
▁envoys	-10708
▁format	-10709
▁ghraib	-10710
▁holder	-10711
▁intend	-10712
▁junior	-10713
▁lincol	-10714
▁pastor	-10715
▁prayer	-10716
▁prizes	-10717
▁queens	-10718
▁repeat	-10719
▁rolled	-10720
▁scared	-10721
▁taught	-10722
▁trials	-10723
▁undert	-10724
▁versus	-10725
▁weaken	-10726
▁yousuf	-10727
▁anthony	-10728
▁circuit	-10729
▁curious	-10730
▁episode	-10731
▁flowers	-10732
▁lenders	-10733
▁outdoor	-10734
▁outlets	-10735
▁romance	-10736
▁savings	-10737
▁shaking	-10738
▁stunned	-10739
▁surplus	-10740
▁sustain	-10741
▁thunder	-10742
▁tremend	-10743
▁viruses	-10744
▁website	-10745
▁battered	-10746
▁channels	-10747
▁decrease	-10748
▁engaging	-10749
▁enriched	-10750
▁eruption	-10751
▁escorted	-10752
▁floating	-10753
▁founding	-10754
▁gonzalez	-10755
▁orthodox	-10756
▁portland	-10757
▁produces	-10758
▁spaniard	-10759
▁starring	-10760
▁sunshine	-10761
▁underway	-10762
▁accepting	-10763
▁acquitted	-10764
▁ambulance	-10765
▁conflicts	-10766
▁confusion	-10767
▁courtroom	-10768
▁diagnosed	-10769
▁directing	-10770
▁disclosed	-10771
▁dismantle	-10772
▁editorial	-10773
▁eliminate	-10774
▁embryonic	-10775
▁employers	-10776
▁encounter	-10777
▁espionage	-10778
▁frankfurt	-10779
▁intellect	-10780
▁intensity	-10781
▁legendary	-10782
▁listening	-10783
▁mccartney	-10784
▁municipal	-10785
▁paparazzi	-10786
▁premature	-10787
▁qualified	-10788
▁radiation	-10789
▁reluctant	-10790
▁sacrifice	-10791
▁scattered	-10792
▁surviving	-10793
▁unusually	-10794
▁worsening	-10795
▁apartments	-10796
▁atrocities	-10797
▁basketball	-10798
▁cincinnati	-10799
▁concerning	-10800
▁contracted	-10801
▁disruption	-10802
▁homosexual	-10803
▁impression	-10804
▁negotiated	-10805
▁prosperity	-10806
▁rebuilding	-10807
▁reductions	-10808
▁semifinals	-10809
▁sufficient	-10810
▁suggestion	-10811
▁communicate	-10812
▁extradition	-10813
▁highlighted	-10814
▁developments	-10815
▁dramatically	-10816
▁imprisonment	-10817
▁indefinitely	-10818
▁johannesburg	-10819
▁characterized	-10820
▁inappropriate	-10821
▁irresponsible	-10822
▁irregularities	-10823
fa	-10824
ih	-10825
aho	-10826
aul	-10827
bit	-10828
enh	-10829
izz	-10830
omy	-10831
ora	-10832
uds	-10833
utt	-10834
acom	-10835
asha	-10836
bage	-10837
dale	-10838
dles	-10839
ikes	-10840
long	-10841
rane	-10842
uate	-10843
udes	-10844
will	-10845
▁360	-10846
▁asc	-10847
▁bmw	-10848
▁cac	-10849
▁cec	-10850
▁kph	-10851
▁lau	-10852
▁lig	-10853
▁por	-10854
▁soy	-10855
▁une	-10856
acute	-10857
adona	-10858
ascus	-10859
berts	-10860
eding	-10861
harto	-10862
imore	-10863
iques	-10864
mandu	-10865
parts	-10866
round	-10867
unken	-10868
▁anna	-10869
▁aver	-10870
▁balt	-10871
▁bloc	-10872
▁bros	-10873
▁bund	-10874
▁dell	-10875
▁dili	-10876
▁flav	-10877
▁furn	-10878
▁gary	-10879
▁hend	-10880
▁horn	-10881
▁inex	-10882
▁ment	-10883
▁mikh	-10884
▁mwai	-10885
▁olds	-10886
▁perm	-10887
▁sacr	-10888
▁seiz	-10889
▁snip	-10890
▁spin	-10891
▁thri	-10892
istice	-10893
neider	-10894
riests	-10895
strong	-10896
urance	-10897
▁boliv	-10898
▁boris	-10899
▁chant	-10900
▁delic	-10901
▁digit	-10902
▁downs	-10903
▁grabs	-10904
▁honda	-10905
▁lunar	-10906
▁osaka	-10907
▁outsp	-10908
▁rogge	-10909
▁rouge	-10910
▁santi	-10911
▁shall	-10912
▁sheep	-10913
▁silva	-10914
▁spate	-10915
▁tally	-10916
▁tumor	-10917
▁ultra	-10918
▁venus	-10919
▁wells	-10920
▁whist	-10921
▁zhang	-10922
▁arthur	-10923
▁booked	-10924
▁breath	-10925
▁brings	-10926
▁cancel	-10927
▁compos	-10928
▁crying	-10929
▁dispos	-10930
▁farmer	-10931
▁forbid	-10932
▁harper	-10933
▁hatred	-10934
▁havana	-10935
▁hawass	-10936
▁horses	-10937
▁ismail	-10938
▁leaked	-10939
▁mattel	-10940
▁merely	-10941
▁misdem	-10942
▁multim	-10943
▁permit	-10944
▁poised	-10945
▁priest	-10946
▁rugged	-10947
▁sculpt	-10948
▁speaks	-10949
▁sprint	-10950
▁strait	-10951
▁tenure	-10952
▁throat	-10953
▁trophy	-10954
▁walker	-10955
▁alerted	-10956
▁aspects	-10957
▁belongs	-10958
▁beloved	-10959
▁bizarre	-10960
▁bolster	-10961
▁bonuses	-10962
▁boosted	-10963
▁bridges	-10964
▁bullets	-10965
▁compass	-10966
▁debates	-10967
▁distant	-10968
▁enthusi	-10969
▁equally	-10970
▁ethical	-10971
▁expense	-10972
▁fallout	-10973
▁falluja	-10974
▁farming	-10975
▁filling	-10976
▁forever	-10977
▁genuine	-10978
▁glacier	-10979
▁guarded	-10980
▁holders	-10981
▁hunters	-10982
▁iceland	-10983
▁jeffrey	-10984
▁laurean	-10985
▁lincoln	-10986
▁midwest	-10987
▁migrant	-10988
▁mikhail	-10989
▁monkeys	-10990
▁pattern	-10991
▁precise	-10992
▁relaxed	-10993
▁sincere	-10994
▁smiling	-10995
▁somehow	-10996
▁sounded	-10997
▁springs	-10998
▁unconsc	-10999
▁woolmer	-11000
abilities	-11001
intendent	-11002
▁academic	-11003
▁awaiting	-11004
▁basement	-11005
▁brothels	-11006
▁certific	-11007
▁cheering	-11008
▁christie	-11009
▁collided	-11010
▁damascus	-11011
▁destruct	-11012
▁disabled	-11013
▁earliest	-11014
▁farewell	-11015
▁fortress	-11016
▁highways	-11017
▁incorpor	-11018
▁infantry	-11019
▁interfax	-11020
▁iranians	-11021
▁laureate	-11022
▁maradona	-11023
▁opinions	-11024
▁ordering	-11025
▁phillies	-11026
▁phillips	-11027
▁plotting	-11028
▁portable	-11029
▁profound	-11030
▁relevant	-11031
▁reunited	-11032
▁sections	-11033
▁shifting	-11034
▁shocking	-11035
▁treasure	-11036
▁undermin	-11037
▁watchers	-11038
▁wildfire	-11039
▁armistice	-11040
▁cambodian	-11041
▁chemicals	-11042
▁converted	-11043
▁displayed	-11044
▁elephants	-11045
▁embassies	-11046
▁embattled	-11047
▁forecasts	-11048
▁governors	-11049
▁headlines	-11050
▁inaugural	-11051
▁milestone	-11052
▁schneider	-11053
▁videotape	-11054
▁weakening	-11055
▁aftershock	-11056
▁allegation	-11057
▁bodyguards	-11058
▁incredibly	-11059
▁mechanical	-11060
▁nationally	-11061
▁pakistanis	-11062
▁prefecture	-11063
▁subsidiary	-11064
▁controlling	-11065
▁countryside	-11066
▁essentially	-11067
▁explanation	-11068
▁improvement	-11069
▁progressive	-11070
▁projections	-11071
▁confidential	-11072
▁considerable	-11073
▁counterparts	-11074
▁establishing	-11075
▁independents	-11076
▁participated	-11077
▁prescription	-11078
▁presentation	-11079
▁unsuccessful	-11080
▁independently	-11081
▁meteorological	-11082
▁superintendent	-11083
▁internationally	-11084
gb	-11085
bro	-11086
die	-11087
gro	-11088
kov	-11089
ook	-11090
oum	-11091
reb	-11092
soo	-11093
uki	-11094
ulf	-11095
▁cm	-11096
▁hd	-11097
▁iw	-11098
▁lp	-11099
▁nk	-11100
aver	-11101
bish	-11102
eled	-11103
gang	-11104
gets	-11105
inch	-11106
nett	-11107
opes	-11108
osis	-11109
rard	-11110
real	-11111
royo	-11112
thal	-11113
what	-11114
▁210	-11115
▁230	-11116
▁bub	-11117
▁eta	-11118
▁gps	-11119
▁lam	-11120
▁sie	-11121
▁sne	-11122
court	-11123
croft	-11124
ested	-11125
iband	-11126
irect	-11127
iture	-11128
rates	-11129
▁belt	-11130
▁bulg	-11131
▁carn	-11132
▁cens	-11133
▁cock	-11134
▁deem	-11135
▁dual	-11136
▁gust	-11137
▁hail	-11138
▁imus	-11139
▁ipod	-11140
▁lets	-11141
▁mend	-11142
▁nasr	-11143
▁neil	-11144
▁nude	-11145
▁pond	-11146
▁seaf	-11147
▁skid	-11148
▁stev	-11149
▁tail	-11150
▁tone	-11151
▁undp	-11152
amento	-11153
arette	-11154
arming	-11155
asions	-11156
cheong	-11157
cliffe	-11158
ellick	-11159
holder	-11160
itched	-11161
runner	-11162
ulsion	-11163
▁admit	-11164
▁aston	-11165
▁audit	-11166
▁barak	-11167
▁buyer	-11168
▁caret	-11169
▁coord	-11170
▁dimin	-11171
▁dirty	-11172
▁dwind	-11173
▁eased	-11174
▁fidel	-11175
▁gifts	-11176
▁henri	-11177
▁idaho	-11178
▁innov	-11179
▁insoo	-11180
▁jamie	-11181
▁karen	-11182
▁khmer	-11183
▁laura	-11184
▁minne	-11185
▁mouse	-11186
▁mummy	-11187
▁neuro	-11188
▁pills	-11189
▁prosp	-11190
▁recep	-11191
▁sends	-11192
▁smell	-11193
▁squid	-11194
▁sting	-11195
▁tamil	-11196
▁tapes	-11197
▁tense	-11198
▁twins	-11199
▁undec	-11200
▁wives	-11201
▁anyway	-11202
▁arroyo	-11203
▁assume	-11204
▁authen	-11205
▁chocol	-11206
▁cloned	-11207
▁fossil	-11208
▁hadley	-11209
▁harass	-11210
▁honors	-11211
▁inflam	-11212
▁ingred	-11213
▁newest	-11214
▁nonpro	-11215
▁pandas	-11216
▁qassam	-11217
▁qualif	-11218
▁raises	-11219
▁rocked	-11220
▁sharia	-11221
▁sooner	-11222
▁stockp	-11223
▁viacom	-11224
▁walter	-11225
▁acquire	-11226
▁answers	-11227
▁armored	-11228
▁avoided	-11229
▁bearing	-11230
▁cameron	-11231
▁cooking	-11232
▁cricket	-11233
▁crystal	-11234
▁deposed	-11235
▁drunken	-11236
▁enhance	-11237
▁estonia	-11238
▁fatally	-11239
▁hormone	-11240
▁jeopard	-11241
▁karbala	-11242
▁kenyans	-11243
▁muqtada	-11244
▁priests	-11245
▁richest	-11246
▁sailing	-11247
▁screens	-11248
▁seasons	-11249
▁slogans	-11250
▁staging	-11251
▁stomach	-11252
▁thermal	-11253
▁toddler	-11254
▁toppled	-11255
▁travels	-11256
▁yankees	-11257
▁advisory	-11258
▁autonomy	-11259
▁breeding	-11260
▁churches	-11261
▁compiled	-11262
▁contacts	-11263
▁contrary	-11264
▁credited	-11265
▁crushing	-11266
▁decisive	-11267
▁declines	-11268
▁divorced	-11269
▁elephant	-11270
▁eventual	-11271
▁harrison	-11272
▁migrants	-11273
▁offshore	-11274
▁santiago	-11275
▁sometime	-11276
▁stripped	-11277
▁tomatoes	-11278
▁tortured	-11279
▁zoellick	-11280
▁affecting	-11281
▁baltimore	-11282
▁belonging	-11283
▁bulgarian	-11284
▁cigarette	-11285
▁detective	-11286
▁dictators	-11287
▁extremism	-11288
▁innocence	-11289
▁insisting	-11290
▁lightning	-11291
▁literally	-11292
▁marriages	-11293
▁objective	-11294
▁permitted	-11295
▁radcliffe	-11296
▁restraint	-11297
▁satisfied	-11298
▁subsidies	-11299
▁taxpayers	-11300
▁unchanged	-11301
▁condemning	-11302
▁consulting	-11303
▁contingent	-11304
▁explaining	-11305
▁healthcare	-11306
▁heightened	-11307
▁highlights	-11308
▁nominating	-11309
▁organizing	-11310
▁sacramento	-11311
▁celebration	-11312
▁contentious	-11313
▁demonstrate	-11314
▁identifying	-11315
▁minneapolis	-11316
▁nationalist	-11317
▁specialists	-11318
▁voluntarily	-11319
▁concentrated	-11320
▁coordination	-11321
▁deliberately	-11322
▁intellectual	-11323
▁administrator	-11324
▁conversations	-11325
▁reunification	-11326
▁identification	-11327
▁representation	-11328
fp	-11329
afe	-11330
boy	-11331
eon	-11332
iju	-11333
ika	-11334
lyn	-11335
oro	-11336
ouf	-11337
rep	-11338
xon	-11339
▁bp	-11340
cell	-11341
flow	-11342
hill	-11343
ipei	-11344
irst	-11345
loyd	-11346
omon	-11347
onga	-11348
oped	-11349
rary	-11350
walk	-11351
witt	-11352
yard	-11353
▁bai	-11354
▁bbk	-11355
▁bip	-11356
▁ced	-11357
▁dup	-11358
▁fog	-11359
▁hae	-11360
▁kor	-11361
▁kye	-11362
▁liu	-11363
▁nis	-11364
▁pcs	-11365
▁qat	-11366
▁sla	-11367
▁sup	-11368
▁tat	-11369
▁tok	-11370
▁wan	-11371
▁www	-11372
acles	-11373
asser	-11374
athan	-11375
eline	-11376
eston	-11377
ilton	-11378
lying	-11379
olics	-11380
oulos	-11381
oying	-11382
raham	-11383
uther	-11384
▁abst	-11385
▁clip	-11386
▁duke	-11387
▁ears	-11388
▁encl	-11389
▁hawk	-11390
▁lawn	-11391
▁lpga	-11392
▁lump	-11393
▁mccl	-11394
▁menu	-11395
▁nash	-11396
▁pave	-11397
▁penn	-11398
▁pipe	-11399
▁pont	-11400
▁quad	-11401
▁quot	-11402
▁rats	-11403
▁refr	-11404
▁rico	-11405
▁rift	-11406
▁sits	-11407
▁stap	-11408
▁sult	-11409
▁tian	-11410
▁ugly	-11411
▁vanc	-11412
▁yale	-11413
bridge	-11414
estyle	-11415
▁absor	-11416
▁alien	-11417
▁backs	-11418
▁bible	-11419
▁billy	-11420
▁bobby	-11421
▁couch	-11422
▁datab	-11423
▁depri	-11424
▁erect	-11425
▁fence	-11426
▁forty	-11427
▁holed	-11428
▁irrit	-11429
▁jason	-11430
▁knock	-11431
▁lhasa	-11432
▁marin	-11433
▁masri	-11434
▁pearl	-11435
▁prodi	-11436
▁raila	-11437
▁rehab	-11438
▁sachs	-11439
▁scrat	-11440
▁snake	-11441
▁sugar	-11442
▁theat	-11443
▁topic	-11444
▁unite	-11445
▁vault	-11446
▁waved	-11447
▁wield	-11448
▁youss	-11449
instein	-11450
intendo	-11451
naments	-11452
roponte	-11453
▁abrupt	-11454
▁ailing	-11455
▁alfred	-11456
▁avenue	-11457
▁barely	-11458
▁brands	-11459
▁cheers	-11460
▁colony	-11461
▁elders	-11462
▁emerge	-11463
▁gloria	-11464
▁hazard	-11465
▁immune	-11466
▁inland	-11467
▁labour	-11468
▁ledger	-11469
▁lennon	-11470
▁midday	-11471
▁minist	-11472
▁multin	-11473
▁neglig	-11474
▁nurses	-11475
▁obtain	-11476
▁parole	-11477
▁plains	-11478
▁portra	-11479
▁priced	-11480
▁rashid	-11481
▁richie	-11482
▁riders	-11483
▁sharon	-11484
▁streak	-11485
▁superb	-11486
▁taipei	-11487
▁timing	-11488
▁venice	-11489
▁washed	-11490
▁wholes	-11491
function	-11492
▁abolish	-11493
▁accuses	-11494
▁besides	-11495
▁bidding	-11496
▁blaming	-11497
▁blatter	-11498
▁ceiling	-11499
▁collins	-11500
▁colonel	-11501
▁coroner	-11502
▁defined	-11503
▁delight	-11504
▁denying	-11505
▁graphic	-11506
▁hamburg	-11507
▁handgun	-11508
▁illicit	-11509
▁jewelry	-11510
▁kitchen	-11511
▁labeled	-11512
▁laptops	-11513
▁magistr	-11514
▁millenn	-11515
▁monster	-11516
▁muscles	-11517
▁protein	-11518
▁quartet	-11519
▁ravaged	-11520
▁roberts	-11521
▁romania	-11522
▁slavery	-11523
▁suharto	-11524
aceutical	-11525
▁advances	-11526
▁alleging	-11527
▁ambushed	-11528
▁casualty	-11529
▁clearing	-11530
▁conceded	-11531
▁counting	-11532
▁destabil	-11533
▁educated	-11534
▁examined	-11535
▁explorer	-11536
▁gambling	-11537
▁gorillas	-11538
▁guardian	-11539
▁hardware	-11540
▁hopefuls	-11541
▁informal	-11542
▁levinson	-11543
▁lowering	-11544
▁nintendo	-11545
▁polaroid	-11546
▁promoted	-11547
▁relieved	-11548
▁restrict	-11549
▁showdown	-11550
▁steadily	-11551
▁strained	-11552
▁uniforms	-11553
▁weighing	-11554
▁addiction	-11555
▁addresses	-11556
▁annapolis	-11557
▁automatic	-11558
▁bodyguard	-11559
▁caretaker	-11560
▁chocolate	-11561
▁component	-11562
▁container	-11563
▁designers	-11564
▁favorites	-11565
▁federline	-11566
▁franchise	-11567
▁gradually	-11568
▁greenspan	-11569
▁guatemala	-11570
▁junichiro	-11571
▁oversight	-11572
▁prospects	-11573
▁rejection	-11574
▁stalinist	-11575
▁undecided	-11576
▁attractive	-11577
▁commanding	-11578
▁definition	-11579
▁fitzgerald	-11580
▁identities	-11581
▁negroponte	-11582
▁overweight	-11583
▁patrolling	-11584
▁priorities	-11585
▁properties	-11586
▁regulation	-11587
▁substitute	-11588
▁successive	-11589
▁tremendous	-11590
▁australians	-11591
▁campaigners	-11592
▁experiences	-11593
▁exploration	-11594
▁generations	-11595
▁supervision	-11596
▁uncertainty	-11597
▁unconscious	-11598
▁understands	-11599
▁accompanying	-11600
▁arrangements	-11601
▁condemnation	-11602
▁contaminated	-11603
▁economically	-11604
▁introduction	-11605
▁strengthened	-11606
▁transmission	-11607
▁installations	-11608
▁multinational	-11609
▁psychological	-11610
▁discrimination	-11611
▁pharmaceutical	-11612
bn	-11613
eo	-11614
eu	-11615
abs	-11616
auc	-11617
aut	-11618
aya	-11619
bee	-11620
eme	-11621
lie	-11622
rek	-11623
rin	-11624
▁rw	-11625
▁um	-11626
▁yo	-11627
aria	-11628
avia	-11629
erts	-11630
ffen	-11631
hift	-11632
holm	-11633
oken	-11634
ollo	-11635
ouds	-11636
qawi	-11637
vent	-11638
week	-11639
▁115	-11640
▁117	-11641
▁550	-11642
▁fay	-11643
▁gam	-11644
▁goh	-11645
▁hag	-11646
▁hak	-11647
▁ian	-11648
▁kin	-11649
▁muk	-11650
▁pas	-11651
▁rib	-11652
▁sox	-11653
▁sta	-11654
▁wii	-11655
aires	-11656
amine	-11657
arcia	-11658
arest	-11659
atisf	-11660
aults	-11661
bound	-11662
elrod	-11663
keley	-11664
naiss	-11665
power	-11666
worth	-11667
▁1910	-11668
▁1949	-11669
▁1978	-11670
▁bump	-11671
▁cove	-11672
▁dave	-11673
▁exem	-11674
▁fold	-11675
▁godd	-11676
▁graz	-11677
▁hank	-11678
▁hein	-11679
▁hire	-11680
▁jaze	-11681
▁lith	-11682
▁logo	-11683
▁lugg	-11684
▁musa	-11685
▁obsc	-11686
▁plun	-11687
▁sund	-11688
▁till	-11689
▁tosh	-11690
▁tyco	-11691
▁unst	-11692
▁zanu	-11693
arized	-11694
charge	-11695
chenko	-11696
contin	-11697
erable	-11698
infeld	-11699
itudes	-11700
oultry	-11701
points	-11702
ranean	-11703
ucking	-11704
vering	-11705
▁adams	-11706
▁artif	-11707
▁atlet	-11708
▁baker	-11709
▁biden	-11710
▁blown	-11711
▁blunt	-11712
▁bould	-11713
▁brink	-11714
▁brush	-11715
▁chuck	-11716
▁clips	-11717
▁debts	-11718
▁excav	-11719
▁excer	-11720
▁fails	-11721
▁fract	-11722
▁fried	-11723
▁fruit	-11724
▁hicks	-11725
▁keith	-11726
▁leone	-11727
▁lucas	-11728
▁males	-11729
▁melan	-11730
▁misle	-11731
▁noise	-11732
▁piano	-11733
▁rated	-11734
▁risky	-11735
▁saint	-11736
▁scuff	-11737
▁semin	-11738
▁smile	-11739
▁spare	-11740
▁stole	-11741
▁tires	-11742
▁tooth	-11743
▁torre	-11744
▁trace	-11745
▁tribe	-11746
▁uncle	-11747
charged	-11748
ionally	-11749
▁agrees	-11750
▁apollo	-11751
▁battal	-11752
▁brains	-11753
▁breast	-11754
▁cables	-11755
▁claren	-11756
▁clouds	-11757
▁colors	-11758
▁cousin	-11759
▁decree	-11760
▁denial	-11761
▁errors	-11762
▁fixing	-11763
▁garcia	-11764
▁grammy	-11765
▁graves	-11766
▁habits	-11767
▁hispan	-11768
▁itunes	-11769
▁lineup	-11770
▁makeup	-11771
▁novels	-11772
▁oxford	-11773
▁pediat	-11774
▁philos	-11775
▁poured	-11776
▁rifles	-11777
▁rubber	-11778
▁sacked	-11779
▁serena	-11780
▁shadow	-11781
▁surrog	-11782
▁trader	-11783
▁unspec	-11784
▁upheld	-11785
▁wheels	-11786
rendered	-11787
▁axelrod	-11788
▁backers	-11789
▁balloon	-11790
▁chasing	-11791
▁chilean	-11792
▁croatia	-11793
▁devoted	-11794
▁drought	-11795
▁emanuel	-11796
▁embryos	-11797
▁fiction	-11798
▁fitness	-11799
▁gallery	-11800
▁greatly	-11801
▁griffin	-11802
▁harmony	-11803
▁helpful	-11804
▁himalay	-11805
▁jazeera	-11806
▁kashmir	-11807
▁lindsay	-11808
▁luggage	-11809
▁opposes	-11810
▁organic	-11811
▁painted	-11812
▁pledges	-11813
▁poultry	-11814
▁qualify	-11815
▁quarant	-11816
▁readers	-11817
▁rioters	-11818
▁rioting	-11819
▁seafood	-11820
▁slowing	-11821
▁slumped	-11822
▁smokers	-11823
▁tainted	-11824
▁terrain	-11825
▁tumbled	-11826
▁unaware	-11827
▁youssif	-11828
▁zarqawi	-11829
naissance	-11830
▁accurate	-11831
▁articles	-11832
▁berkeley	-11833
▁boosting	-11834
▁carriers	-11835
▁comedian	-11836
▁commands	-11837
▁commonwe	-11838
▁darkness	-11839
▁ethiopia	-11840
▁examiner	-11841
▁faithful	-11842
▁finances	-11843
▁ignoring	-11844
▁lobbying	-11845
▁miliband	-11846
▁packages	-11847
▁premiere	-11848
▁presumed	-11849
▁reactors	-11850
▁reckless	-11851
▁respects	-11852
▁sanction	-11853
▁scottish	-11854
▁scrutiny	-11855
▁sparking	-11856
▁strapped	-11857
▁suicides	-11858
▁sympathy	-11859
▁trailing	-11860
▁volcanic	-11861
istrations	-11862
▁accounted	-11863
▁advertise	-11864
▁apologies	-11865
▁armstrong	-11866
▁assertion	-11867
▁broadband	-11868
▁catholics	-11869
▁commuters	-11870
▁contempor	-11871
▁cosmonaut	-11872
▁exchanged	-11873
▁exporters	-11874
▁fantastic	-11875
▁fertility	-11876
▁filmmaker	-11877
▁immigrant	-11878
▁kathmandu	-11879
▁makeshift	-11880
▁outbreaks	-11881
▁overthrow	-11882
▁paralyzed	-11883
▁passports	-11884
▁publicity	-11885
▁reception	-11886
▁recycling	-11887
▁shoulders	-11888
▁textbooks	-11889
▁underwear	-11890
▁affordable	-11891
▁associates	-11892
▁autonomous	-11893
▁collecting	-11894
▁committing	-11895
▁escalating	-11896
▁evaluation	-11897
▁interstate	-11898
▁millennium	-11899
▁ministries	-11900
▁procession	-11901
▁remembered	-11902
▁substances	-11903
▁triggering	-11904
▁vietnamese	-11905
▁acquisition	-11906
▁congressman	-11907
▁frontrunner	-11908
▁misdemeanor	-11909
▁observation	-11910
▁observatory	-11911
▁playstation	-11912
▁programming	-11913
▁provocative	-11914
▁separatists	-11915
▁surrendered	-11916
▁unspecified	-11917
▁accidentally	-11918
▁commissioned	-11919
▁manufactured	-11920
▁photographed	-11921
▁requirements	-11922
▁investigative	-11923
▁disappointment	-11924
jj	-11925
vy	-11926
afa	-11927
arn	-11928
aza	-11929
ecd	-11930
ete	-11931
iah	-11932
irm	-11933
jas	-11934
lee	-11935
map	-11936
mat	-11937
och	-11938
oka	-11939
osh	-11940
tha	-11941
tun	-11942
ulu	-11943
vic	-11944
wed	-11945
yar	-11946
▁kw	-11947
▁ng	-11948
anna	-11949
anns	-11950
arer	-11951
arms	-11952
cies	-11953
dong	-11954
fuel	-11955
hire	-11956
iega	-11957
ivan	-11958
lied	-11959
note	-11960
omed	-11961
ongs	-11962
sons	-11963
ture	-11964
utor	-11965
wing	-11966
▁107	-11967
▁165	-11968
▁850	-11969
▁aar	-11970
▁ail	-11971
▁idf	-11972
▁ine	-11973
▁jal	-11974
▁koo	-11975
▁lak	-11976
▁lap	-11977
▁org	-11978
▁oss	-11979
▁rhy	-11980
▁shy	-11981
▁sou	-11982
▁tap	-11983
▁tik	-11984
▁von	-11985
▁wai	-11986
▁xia	-11987
▁zeb	-11988
acher	-11989
andro	-11990
berra	-11991
ether	-11992
ifies	-11993
onian	-11994
ossip	-11995
rogen	-11996
▁1965	-11997
▁1983	-11998
▁1985	-11999
▁2050	-12000
▁bald	-12001
▁bicy	-12002
▁bore	-12003
▁chop	-12004
▁clad	-12005
▁deck	-12006
▁fasc	-12007
▁ferr	-12008
▁gent	-12009
▁glob	-12010
▁greg	-12011
▁grip	-12012
▁haul	-12013
▁hect	-12014
▁irre	-12015
▁jean	-12016
▁kiev	-12017
▁lesb	-12018
▁lure	-12019
▁mast	-12020
▁narc	-12021
▁neal	-12022
▁oust	-12023
▁pigs	-12024
▁pile	-12025
▁proc	-12026
▁refe	-12027
▁sook	-12028
▁unin	-12029
atross	-12030
bright	-12031
castle	-12032
graded	-12033
iginal	-12034
inchum	-12035
onduct	-12036
orsese	-12037
osaurs	-12038
phones	-12039
prints	-12040
ptions	-12041
rative	-12042
thouse	-12043
vation	-12044
▁alter	-12045
▁bands	-12046
▁blake	-12047
▁cafes	-12048
▁cheer	-12049
▁cruel	-12050
▁demol	-12051
▁devil	-12052
▁diane	-12053
▁discs	-12054
▁disgu	-12055
▁edged	-12056
▁exxon	-12057
▁fiery	-12058
▁flour	-12059
▁hards	-12060
▁jimmy	-12061
▁juven	-12062
▁klein	-12063
▁lover	-12064
▁muham	-12065
▁perce	-12066
▁portr	-12067
▁scope	-12068
▁serbs	-12069
▁siege	-12070
▁stunt	-12071
▁subsc	-12072
▁swear	-12073
▁teleg	-12074
▁turks	-12075
▁ashley	-12076
▁barric	-12077
▁blames	-12078
▁butler	-12079
▁bypass	-12080
▁calend	-12081
▁chased	-12082
▁clarke	-12083
▁confed	-12084
▁dealer	-12085
▁domain	-12086
▁drives	-12087
▁echoed	-12088
▁enable	-12089
▁engulf	-12090
▁facial	-12091
▁filmed	-12092
▁gossip	-12093
▁hammer	-12094
▁hardly	-12095
▁incomp	-12096
▁inject	-12097
▁inning	-12098
▁inspir	-12099
▁intact	-12100
▁jurors	-12101
▁laying	-12102
▁lender	-12103
▁lethal	-12104
▁mailed	-12105
▁parach	-12106
▁plunge	-12107
▁pocket	-12108
▁polled	-12109
▁proven	-12110
▁rahman	-12111
▁retain	-12112
▁snakes	-12113
▁stalem	-12114
▁strife	-12115
▁talent	-12116
▁tipped	-12117
▁toured	-12118
▁towers	-12119
▁turner	-12120
▁tycoon	-12121
▁valent	-12122
▁valued	-12123
uterbach	-12124
▁algeria	-12125
▁applaud	-12126
▁awaited	-12127
▁biofuel	-12128
▁briefed	-12129
▁captive	-12130
▁categor	-12131
▁cecilia	-12132
▁confisc	-12133
▁cracked	-12134
▁creator	-12135
▁dangers	-12136
▁demilit	-12137
▁dumping	-12138
▁expires	-12139
▁gallons	-12140
▁germans	-12141
▁gerrard	-12142
▁linking	-12143
▁mccanns	-12144
▁mediter	-12145
▁noriega	-12146
▁partial	-12147
▁persian	-12148
▁poorest	-12149
▁pounded	-12150
▁propose	-12151
▁prototy	-12152
▁rangers	-12153
▁recount	-12154
▁refrain	-12155
▁reminis	-12156
▁replied	-12157
▁reviews	-12158
▁rounded	-12159
▁shiites	-12160
▁shipped	-12161
▁singles	-12162
▁sinking	-12163
▁sisters	-12164
▁studded	-12165
▁surging	-12166
▁tighter	-12167
▁torrent	-12168
▁wheelch	-12169
▁wyoming	-12170
astically	-12171
▁angelina	-12172
▁applause	-12173
▁atletico	-12174
▁balanced	-12175
▁blankets	-12176
▁blocking	-12177
▁canberra	-12178
▁chanting	-12179
▁clarence	-12180
▁commuter	-12181
▁database	-12182
▁daylight	-12183
▁dementia	-12184
▁departed	-12185
▁disposal	-12186
▁dominant	-12187
▁flinchum	-12188
▁inconven	-12189
▁misunder	-12190
▁observed	-12191
▁painting	-12192
▁presents	-12193
▁rankings	-12194
▁revenues	-12195
▁scorsese	-12196
▁shipment	-12197
▁speeding	-12198
▁staffers	-12199
▁stealing	-12200
▁stemming	-12201
▁whenever	-12202
▁albanians	-12203
▁albatross	-12204
▁appealing	-12205
▁childhood	-12206
▁classroom	-12207
▁contender	-12208
▁criticize	-12209
▁dinosaurs	-12210
▁dominican	-12211
▁exercises	-12212
▁informant	-12213
▁investing	-12214
▁measuring	-12215
▁naturally	-12216
▁newcastle	-12217
▁nonprofit	-12218
▁partially	-12219
▁physician	-12220
▁practical	-12221
▁preserved	-12222
▁providers	-12223
▁quarterly	-12224
▁screaming	-12225
▁sidelines	-12226
▁stretched	-12227
▁workforce	-12228
▁abandoning	-12229
▁aboriginal	-12230
▁accidental	-12231
▁attendance	-12232
▁campaigned	-12233
▁categories	-12234
▁collapsing	-12235
▁completing	-12236
▁discharged	-12237
▁efficiency	-12238
▁expressing	-12239
▁frustrated	-12240
▁infections	-12241
▁persistent	-12242
▁prohibited	-12243
▁regulatory	-12244
▁solidarity	-12245
▁structures	-12246
▁techniques	-12247
▁understood	-12248
▁zimbabwean	-12249
▁attractions	-12250
▁chungcheong	-12251
▁departments	-12252
▁discoveries	-12253
▁enterprises	-12254
▁indications	-12255
▁intelligent	-12256
▁necessarily	-12257
▁transaction	-12258
▁unfortunate	-12259
▁commonwealth	-12260
▁conglomerate	-12261
▁psychologist	-12262
▁significance	-12263
▁verification	-12264
▁establishment	-12265
▁mediterranean	-12266
cs	-12267
fr	-12268
mz	-12269
tz	-12270
aby	-12271
ali	-12272
gie	-12273
ido	-12274
iov	-12275
lex	-12276
new	-12277
oos	-12278
rio	-12279
▁jp	-12280
▁ny	-12281
amer	-12282
eine	-12283
erie	-12284
eter	-12285
idal	-12286
iora	-12287
mund	-12288
omet	-12289
ompl	-12290
pace	-12291
quet	-12292
town	-12293
uket	-12294
vals	-12295
▁112	-12296
▁145	-12297
▁155	-12298
▁186	-12299
▁ces	-12300
▁cob	-12301
▁eag	-12302
▁gem	-12303
▁kad	-12304
▁ltd	-12305
▁mcl	-12306
▁mul	-12307
▁piz	-12308
▁pon	-12309
▁rak	-12310
▁ros	-12311
▁sue	-12312
▁suz	-12313
▁yun	-12314
acent	-12315
agged	-12316
andra	-12317
dling	-12318
ecret	-12319
ggers	-12320
henko	-12321
incts	-12322
inery	-12323
itous	-12324
olene	-12325
olese	-12326
tingu	-12327
uable	-12328
ukuni	-12329
uties	-12330
ystem	-12331
▁1930	-12332
▁1964	-12333
▁atop	-12334
▁bent	-12335
▁buck	-12336
▁cage	-12337
▁cope	-12338
▁davy	-12339
▁dirt	-12340
▁djok	-12341
▁enab	-12342
▁fing	-12343
▁folk	-12344
▁glad	-12345
▁hood	-12346
▁hsbc	-12347
▁hump	-12348
▁jang	-12349
▁joel	-12350
▁leaf	-12351
▁math	-12352
▁plug	-12353
▁rear	-12354
▁rudy	-12355
▁samb	-12356
▁saud	-12357
▁scam	-12358
▁shen	-12359
▁shwe	-12360
▁tran	-12361
▁trek	-12362
▁unse	-12363
▁usgs	-12364
▁vick	-12365
▁wend	-12366
author	-12367
bachev	-12368
estine	-12369
incing	-12370
inness	-12371
irable	-12372
onnell	-12373
ospace	-12374
pering	-12375
planes	-12376
preter	-12377
▁accum	-12378
▁acute	-12379
▁alloc	-12380
▁ayman	-12381
▁backl	-12382
▁basin	-12383
▁boast	-12384
▁bulld	-12385
▁bunch	-12386
▁coins	-12387
▁draws	-12388
▁emper	-12389
▁gibbs	-12390
▁hutch	-12391
▁julia	-12392
▁kicks	-12393
▁kumar	-12394
▁leung	-12395
▁liked	-12396
▁limbs	-12397
▁maneu	-12398
▁mates	-12399
▁redep	-12400
▁reset	-12401
▁ridic	-12402
▁rogue	-12403
▁roofs	-12404
▁scare	-12405
▁steam	-12406
▁unlaw	-12407
▁unoff	-12408
▁vista	-12409
▁waged	-12410
▁wiped	-12411
▁zheng	-12412
sterdam	-12413
▁antiqu	-12414
▁argues	-12415
▁basque	-12416
▁bipart	-12417
▁bogota	-12418
▁bronze	-12419
▁chapel	-12420
▁eacute	-12421
▁eleven	-12422
▁enters	-12423
▁flower	-12424
▁forens	-12425
▁forgot	-12426
▁haniya	-12427
▁harmed	-12428
▁hugely	-12429
▁ingrid	-12430
▁lander	-12431
▁libert	-12432
▁lyrics	-12433
▁marred	-12434
▁maurit	-12435
▁medium	-12436
▁mullah	-12437
▁munich	-12438
▁phuket	-12439
▁pistol	-12440
▁plates	-12441
▁robust	-12442
▁torres	-12443
▁unbeat	-12444
▁uncond	-12445
▁weaker	-12446
▁winger	-12447
▁abraham	-12448
▁advisor	-12449
▁arabian	-12450
▁bicycle	-12451
▁blitzer	-12452
▁booming	-12453
▁branson	-12454
▁bribery	-12455
▁britons	-12456
▁cholera	-12457
▁clinics	-12458
▁colombo	-12459
▁cycling	-12460
▁delinqu	-12461
▁embargo	-12462
▁extingu	-12463
▁favored	-12464
▁fragile	-12465
▁hurting	-12466
▁jamaica	-12467
▁jumping	-12468
▁keating	-12469
▁keynote	-12470
▁leaking	-12471
▁lessons	-12472
▁library	-12473
▁lottery	-12474
▁madison	-12475
▁mammals	-12476
▁massage	-12477
▁methane	-12478
▁mounted	-12479
▁nursing	-12480
▁paralle	-12481
▁physics	-12482
▁privile	-12483
▁rampant	-12484
▁rattled	-12485
▁recalls	-12486
▁shields	-12487
▁snapped	-12488
▁solving	-12489
▁starred	-12490
▁steroid	-12491
▁storage	-12492
▁sumatra	-12493
▁symbols	-12494
▁technic	-12495
▁vincent	-12496
▁airliner	-12497
▁archives	-12498
▁arrivals	-12499
▁balloons	-12500
▁bloggers	-12501
▁caffeine	-12502
▁calendar	-12503
▁cameroon	-12504
▁catching	-12505
▁constitu	-12506
▁deported	-12507
▁deputies	-12508
▁disperse	-12509
▁distinct	-12510
▁diverted	-12511
▁djokovic	-12512
▁emotions	-12513
▁enduring	-12514
▁everyday	-12515
▁famously	-12516
▁freedoms	-12517
▁goodwill	-12518
▁hijacked	-12519
▁homicide	-12520
▁licensed	-12521
▁licenses	-12522
▁monaster	-12523
▁narrowly	-12524
▁notified	-12525
▁operates	-12526
▁orchestr	-12527
▁oriented	-12528
▁outlined	-12529
▁pancreat	-12530
▁perspect	-12531
▁peterson	-12532
▁promptly	-12533
▁regained	-12534
▁retained	-12535
▁retiring	-12536
▁retrieve	-12537
▁seasonal	-12538
▁secretly	-12539
▁segolene	-12540
▁signaled	-12541
▁supermar	-12542
▁surfaced	-12543
▁thriller	-12544
▁township	-12545
▁umbrella	-12546
▁unauthor	-12547
▁widening	-12548
▁yasukuni	-12549
▁achieving	-12550
▁advocates	-12551
▁aerospace	-12552
▁amsterdam	-12553
▁animation	-12554
▁authentic	-12555
▁congolese	-12556
▁contested	-12557
▁dependent	-12558
▁diversity	-12559
▁exploited	-12560
▁extremist	-12561
▁fireworks	-12562
▁furniture	-12563
▁gorbachev	-12564
▁justified	-12565
▁recruited	-12566
▁requiring	-12567
▁responses	-12568
▁routinely	-12569
▁supplying	-12570
▁trademark	-12571
▁warplanes	-12572
▁acceptance	-12573
▁blackwater	-12574
▁components	-12575
▁confirming	-12576
▁deliberate	-12577
▁eliminated	-12578
▁expression	-12579
▁filmmakers	-12580
▁instructed	-12581
▁intervened	-12582
▁lauterbach	-12583
▁mainstream	-12584
▁mysterious	-12585
▁profitable	-12586
▁purchasing	-12587
▁recommends	-12588
▁scrambling	-12589
▁situations	-12590
▁blockbuster	-12591
▁contracting	-12592
▁disablement	-12593
▁evangelical	-12594
▁interpreter	-12595
▁medications	-12596
▁restoration	-12597
▁shareholder	-12598
▁suggestions	-12599
▁tournaments	-12600
▁transported	-12601
▁capabilities	-12602
▁contributing	-12603
▁improvements	-12604
▁multilateral	-12605
▁authorization	-12606
▁demilitarized	-12607
fi	-12608
kh	-12609
abi	-12610
aha	-12611
anz	-12612
box	-12613
col	-12614
hea	-12615
hof	-12616
ibu	-12617
jud	-12618
lem	-12619
log	-12620
nny	-12621
orf	-12622
pat	-12623
rot	-12624
sef	-12625
tar	-12626
yer	-12627
zel	-12628
▁03	-12629
▁06	-12630
▁07	-12631
▁gw	-12632
anni	-12633
ardi	-12634
comm	-12635
crib	-12636
echn	-12637
esco	-12638
grad	-12639
imon	-12640
jeon	-12641
keli	-12642
kind	-12643
lett	-12644
mers	-12645
nity	-12646
orne	-12647
othe	-12648
othy	-12649
phis	-12650
uala	-12651
urry	-12652
▁104	-12653
▁106	-12654
▁270	-12655
▁aus	-12656
▁boo	-12657
▁cyn	-12658
▁gau	-12659
▁hoi	-12660
▁kom	-12661
▁mps	-12662
▁nts	-12663
▁oun	-12664
▁ree	-12665
▁rey	-12666
▁rim	-12667
▁rup	-12668
▁sic	-12669
▁taj	-12670
▁tir	-12671
▁uci	-12672
▁yam	-12673
asses	-12674
ateur	-12675
cheon	-12676
cover	-12677
encia	-12678
glary	-12679
icism	-12680
ieves	-12681
licit	-12682
organ	-12683
parov	-12684
xiety	-12685
▁1968	-12686
▁2030	-12687
▁adri	-12688
▁bulk	-12689
▁cels	-12690
▁coat	-12691
▁coer	-12692
▁cort	-12693
▁cruz	-12694
▁dish	-12695
▁dvds	-12696
▁frog	-12697
▁glam	-12698
▁grat	-12699
▁helm	-12700
▁hoon	-12701
▁kamp	-12702
▁karl	-12703
▁karr	-12704
▁keys	-12705
▁liga	-12706
▁loya	-12707
▁lynn	-12708
▁lyon	-12709
▁maln	-12710
▁mode	-12711
▁nist	-12712
▁plag	-12713
▁qala	-12714
▁rack	-12715
▁repr	-12716
▁ruth	-12717
▁slay	-12718
▁slic	-12719
▁slot	-12720
▁soap	-12721
▁solo	-12722
▁tast	-12723
▁tina	-12724
▁tore	-12725
▁unav	-12726
▁vary	-12727
▁wond	-12728
abilia	-12729
abouts	-12730
ateful	-12731
elrooy	-12732
erving	-12733
mented	-12734
reated	-12735
▁armen	-12736
▁array	-12737
▁asean	-12738
▁bared	-12739
▁barks	-12740
▁batch	-12741
▁byeon	-12742
▁carla	-12743
▁cliff	-12744
▁cycle	-12745
▁fatig	-12746
▁foley	-12747
▁guilt	-12748
▁helen	-12749
▁hello	-12750
▁immun	-12751
▁ineff	-12752
▁jerem	-12753
▁krist	-12754
▁kuala	-12755
▁packs	-12756
▁plain	-12757
▁prone	-12758
▁rojas	-12759
▁sabot	-12760
▁seism	-12761
▁seize	-12762
▁shaft	-12763
▁spies	-12764
▁spree	-12765
▁stiff	-12766
▁tokto	-12767
▁twist	-12768
ensions	-12769
ivities	-12770
ortions	-12771
▁adjour	-12772
▁advers	-12773
▁aiding	-12774
▁bryant	-12775
▁candle	-12776
▁chains	-12777
▁cultiv	-12778
▁deemed	-12779
▁dennis	-12780
▁dignit	-12781
▁floren	-12782
▁forbes	-12783
▁freely	-12784
▁gibson	-12785
▁intrig	-12786
▁invite	-12787
▁khalid	-12788
▁kidman	-12789
▁lovers	-12790
▁misman	-12791
▁nights	-12792
▁orphan	-12793
▁pedest	-12794
▁powder	-12795
▁prints	-12796
▁quotes	-12797
▁recess	-12798
▁roller	-12799
▁sacred	-12800
▁sailor	-12801
▁salary	-12802
▁shrink	-12803
▁spying	-12804
▁superm	-12805
▁tikrit	-12806
▁traced	-12807
▁truman	-12808
▁unesco	-12809
▁update	-12810
▁voices	-12811
▁watson	-12812
▁zapeta	-12813
osterone	-12814
▁accompl	-12815
▁anthrop	-12816
▁anxiety	-12817
▁anxious	-12818
▁baggage	-12819
▁bahrain	-12820
▁banning	-12821
▁battleg	-12822
▁benefic	-12823
▁biology	-12824
▁breathe	-12825
▁bureauc	-12826
▁capello	-12827
▁celsius	-12828
▁centime	-12829
▁chadian	-12830
▁charlie	-12831
▁charred	-12832
▁chronic	-12833
▁cleaner	-12834
▁cooling	-12835
▁daejeon	-12836
▁deposit	-12837
▁digging	-12838
▁evasion	-12839
▁fantasy	-12840
▁garbage	-12841
▁immense	-12842
▁implant	-12843
▁leather	-12844
▁lecture	-12845
▁lesbian	-12846
▁letting	-12847
▁liaison	-12848
▁looming	-12849
▁memphis	-12850
▁newborn	-12851
▁packing	-12852
▁pioneer	-12853
▁presley	-12854
▁preston	-12855
▁rebound	-12856
▁rigging	-12857
▁robotic	-12858
▁scholar	-12859
▁severed	-12860
▁swiftly	-12861
▁therapy	-12862
▁unhappy	-12863
▁walters	-12864
▁blessing	-12865
▁burglary	-12866
▁commonly	-12867
▁compatri	-12868
▁confined	-12869
▁crawford	-12870
▁dadullah	-12871
▁dealings	-12872
▁deutsche	-12873
▁download	-12874
▁equality	-12875
▁external	-12876
▁grateful	-12877
▁hampered	-12878
▁holdings	-12879
▁ideology	-12880
▁kasparov	-12881
▁landfall	-12882
▁outraged	-12883
▁oversees	-12884
▁pandemic	-12885
▁penguins	-12886
▁portrait	-12887
▁recruits	-12888
▁redeploy	-12889
▁reliable	-12890
▁resisted	-12891
▁searches	-12892
▁sequence	-12893
▁sergeant	-12894
▁servants	-12895
▁somewhat	-12896
▁speakers	-12897
▁stricken	-12898
▁syndrome	-12899
▁taxpayer	-12900
▁thatcher	-12901
▁unbeaten	-12902
▁vaccines	-12903
▁valuable	-12904
▁verified	-12905
▁violates	-12906
▁worsened	-12907
▁boycotted	-12908
▁brutality	-12909
▁cardinals	-12910
▁coastline	-12911
▁defendant	-12912
▁descended	-12913
▁disgraced	-12914
▁exploring	-12915
▁exporting	-12916
▁illnesses	-12917
▁jefferson	-12918
▁lucrative	-12919
▁mcconnell	-12920
▁monitored	-12921
▁obtaining	-12922
▁paramount	-12923
▁philosoph	-12924
▁platforms	-12925
▁preferred	-12926
▁purchases	-12927
▁regulator	-12928
▁reprocess	-12929
▁sightings	-12930
▁signature	-12931
▁stalemate	-12932
▁suppliers	-12933
▁acceptable	-12934
▁aggravated	-12935
▁ambulances	-12936
▁broadcasts	-12937
▁collective	-12938
▁deliveries	-12939
▁disclosure	-12940
▁disturbing	-12941
▁nistelrooy	-12942
▁objections	-12943
▁pancreatic	-12944
▁perception	-12945
▁queensland	-12946
▁reaffirmed	-12947
▁recruiting	-12948
▁ronaldinho	-12949
▁spectators	-12950
▁transcript	-12951
▁treatments	-12952
▁veterinary	-12953
▁approaching	-12954
▁checkpoints	-12955
▁destructive	-12956
▁frustration	-12957
▁memorabilia	-12958
▁perspective	-12959
▁precautions	-12960
▁recruitment	-12961
▁substantive	-12962
▁supervisory	-12963
▁considerably	-12964
▁consistently	-12965
▁distributing	-12966
▁evolutionary	-12967
▁experiencing	-12968
▁interference	-12969
▁productivity	-12970
▁surprisingly	-12971
▁testosterone	-12972
▁unauthorized	-12973
▁veterinarian	-12974
▁acknowledging	-12975
▁collaboration	-12976
▁grandchildren	-12977
▁archaeological	-12978
▁recommendation	-12979
97	-12980
kt	-12981
yn	-12982
aws	-12983
bin	-12984
ctv	-12985
ede	-12986
ere	-12987
fia	-12988
gio	-12989
iaz	-12990
nan	-12991
rix	-12992
uca	-12993
urf	-12994
via	-12995
yeh	-12996
yon	-12997
▁cu	-12998
▁fu	-12999
▁nu	-13000
▁xp	-13001
alog	-13002
anne	-13003
bane	-13004
beki	-13005
horn	-13006
icap	-13007
illo	-13008
imat	-13009
isco	-13010
isms	-13011
itzl	-13012
mens	-13013
nate	-13014
oyed	-13015
stam	-13016
than	-13017
ujah	-13018
▁118	-13019
▁126	-13020
▁737	-13021
▁bou	-13022
▁cla	-13023
▁cpl	-13024
▁daw	-13025
▁dyn	-13026
▁eli	-13027
▁gab	-13028
▁jen	-13029
▁jup	-13030
▁laf	-13031
▁lan	-13032
▁mig	-13033
▁mtv	-13034
▁nim	-13035
▁tub	-13036
▁ufo	-13037
▁vil	-13038
▁wta	-13039
▁wto	-13040
▁yok	-13041
anski	-13042
atero	-13043
berry	-13044
eries	-13045
heric	-13046
hetic	-13047
itter	-13048
luded	-13049
osaur	-13050
ouver	-13051
roper	-13052
scale	-13053
ucked	-13054
▁1962	-13055
▁1967	-13056
▁1972	-13057
▁1977	-13058
▁asif	-13059
▁bamb	-13060
▁bapt	-13061
▁bras	-13062
▁ceme	-13063
▁clap	-13064
▁clut	-13065
▁diff	-13066
▁dmit	-13067
▁eyed	-13068
▁gene	-13069
▁heir	-13070
▁hint	-13071
▁inev	-13072
▁kook	-13073
▁kwan	-13074
▁levy	-13075
▁lows	-13076
▁mash	-13077
▁megh	-13078
▁mell	-13079
▁moss	-13080
▁nahr	-13081
▁nets	-13082
▁nike	-13083
▁nong	-13084
▁nood	-13085
▁oecd	-13086
▁owen	-13087
▁patt	-13088
▁quds	-13089
▁reef	-13090
▁rejo	-13091
▁riza	-13092
▁salt	-13093
▁sind	-13094
▁sink	-13095
▁slid	-13096
▁soda	-13097
▁stip	-13098
▁sull	-13099
▁tube	-13100
▁tuck	-13101
▁wand	-13102
▁wash	-13103
▁wise	-13104
▁yach	-13105
▁zamb	-13106
andong	-13107
andson	-13108
anging	-13109
artoum	-13110
boards	-13111
enting	-13112
ijuana	-13113
ington	-13114
lander	-13115
owners	-13116
regate	-13117
stated	-13118
uggish	-13119
ulates	-13120
▁abdel	-13121
▁amuse	-13122
▁brent	-13123
▁cheng	-13124
▁clown	-13125
▁comet	-13126
▁crush	-13127
▁fabio	-13128
▁filip	-13129
▁funny	-13130
▁grain	-13131
▁grapp	-13132
▁highs	-13133
▁hyung	-13134
▁josef	-13135
▁julie	-13136
▁juris	-13137
▁kings	-13138
▁kurds	-13139
▁laund	-13140
▁lions	-13141
▁masks	-13142
▁mbeki	-13143
▁metro	-13144
▁monte	-13145
▁opted	-13146
▁outer	-13147
▁pedro	-13148
▁perry	-13149
▁plame	-13150
▁plead	-13151
▁ratio	-13152
▁reads	-13153
▁recei	-13154
▁rhyth	-13155
▁roses	-13156
▁ruins	-13157
▁sanct	-13158
▁seeds	-13159
▁sheet	-13160
▁sided	-13161
▁skysc	-13162
▁sochi	-13163
▁soren	-13164
▁spiel	-13165
▁stere	-13166
▁tenor	-13167
▁utter	-13168
▁visas	-13169
▁warns	-13170
▁weird	-13171
▁wrist	-13172
▁xiang	-13173
ilitary	-13174
rencies	-13175
ription	-13176
tenance	-13177
vinenko	-13178
▁bloods	-13179
▁bother	-13180
▁bounce	-13181
▁costly	-13182
▁cowell	-13183
▁diving	-13184
▁dormit	-13185
▁excell	-13186
▁exclus	-13187
▁favors	-13188
▁firmly	-13189
▁forecl	-13190
▁heroes	-13191
▁hewitt	-13192
▁indoor	-13193
▁locate	-13194
▁lumpur	-13195
▁malawi	-13196
▁maoist	-13197
▁mayors	-13198
▁norris	-13199
▁orient	-13200
▁overhe	-13201
▁peanut	-13202
▁posing	-13203
▁quebec	-13204
▁raging	-13205
▁relied	-13206
▁renown	-13207
▁rigged	-13208
▁roland	-13209
▁rooted	-13210
▁safegu	-13211
▁scaled	-13212
▁script	-13213
▁serial	-13214
▁sunnis	-13215
▁trauma	-13216
▁tsonga	-13217
▁viable	-13218
attering	-13219
restrial	-13220
▁anytime	-13221
▁auvinen	-13222
▁capsule	-13223
▁checkup	-13224
▁crowned	-13225
▁crushed	-13226
▁curator	-13227
▁darling	-13228
▁debated	-13229
▁defence	-13230
▁defiant	-13231
▁dentist	-13232
▁descent	-13233
▁deserve	-13234
▁disband	-13235
▁emperor	-13236
▁envelop	-13237
▁ferraro	-13238
▁frankly	-13239
▁gradual	-13240
▁grenade	-13241
▁halfway	-13242
▁inflamm	-13243
▁inspire	-13244
▁justine	-13245
▁killers	-13246
▁lawless	-13247
▁morocco	-13248
▁patriot	-13249
▁printed	-13250
▁pullout	-13251
▁quietly	-13252
▁revered	-13253
▁revived	-13254
▁roadmap	-13255
▁seizure	-13256
▁solomon	-13257
▁spurred	-13258
▁statues	-13259
▁stevens	-13260
▁surgeon	-13261
▁tallest	-13262
▁toilets	-13263
▁wanting	-13264
▁whoever	-13265
itutional	-13266
▁acquired	-13267
▁adequate	-13268
▁adjacent	-13269
▁albanian	-13270
▁archipel	-13271
▁backlash	-13272
▁beheaded	-13273
▁brisbane	-13274
▁composed	-13275
▁confirms	-13276
▁defining	-13277
▁engulfed	-13278
▁enjoying	-13279
▁ensuring	-13280
▁excerpts	-13281
▁failures	-13282
▁forensic	-13283
▁francois	-13284
▁grandson	-13285
▁hamilton	-13286
▁humpback	-13287
▁improper	-13288
▁juvenile	-13289
▁khartoum	-13290
▁labeling	-13291
▁launches	-13292
▁mentally	-13293
▁mourners	-13294
▁nepalese	-13295
▁offenses	-13296
▁plunging	-13297
▁proceeds	-13298
▁railways	-13299
▁receives	-13300
▁saddened	-13301
▁schuster	-13302
▁sickened	-13303
▁sluggish	-13304
▁stallone	-13305
▁subjects	-13306
▁switched	-13307
▁theories	-13308
▁trafford	-13309
▁amusement	-13310
▁artifacts	-13311
▁assaulted	-13312
▁audiences	-13313
▁companion	-13314
▁delighted	-13315
▁depressed	-13316
▁disabling	-13317
▁disasters	-13318
▁dissatisf	-13319
▁divisions	-13320
▁europeans	-13321
▁guangdong	-13322
▁guangzhou	-13323
▁himalayan	-13324
▁initiated	-13325
▁integrity	-13326
▁kilograms	-13327
▁liquidity	-13328
▁logistics	-13329
▁marijuana	-13330
▁messenger	-13331
▁middleton	-13332
▁occurring	-13333
▁operative	-13334
▁pipelines	-13335
▁prototype	-13336
▁seemingly	-13337
▁shrinking	-13338
▁sorenstam	-13339
▁succeeded	-13340
▁successes	-13341
▁ukrainian	-13342
▁vancouver	-13343
▁violently	-13344
▁welcoming	-13345
▁wholesale	-13346
▁workplace	-13347
▁accessible	-13348
▁attracting	-13349
▁bipartisan	-13350
▁courthouse	-13351
▁currencies	-13352
▁definitive	-13353
▁delivering	-13354
▁distribute	-13355
▁escalation	-13356
▁guaranteed	-13357
▁historians	-13358
▁incredible	-13359
▁literature	-13360
▁litvinenko	-13361
▁minorities	-13362
▁outrageous	-13363
▁overcoming	-13364
▁physically	-13365
▁pyeongyang	-13366
▁speculated	-13367
▁translator	-13368
▁unofficial	-13369
▁wheelchair	-13370
▁yushchenko	-13371
▁antiquities	-13372
▁convictions	-13373
▁coordinator	-13374
▁destabilize	-13375
▁evacuations	-13376
▁forthcoming	-13377
▁genetically	-13378
▁humiliating	-13379
▁instruments	-13380
▁integration	-13381
▁kidnappings	-13382
▁maintenance	-13383
▁overwhelmed	-13384
▁whereabouts	-13385
▁battleground	-13386
▁conventional	-13387
▁corporations	-13388
▁dictatorship	-13389
▁exploitation	-13390
▁implementing	-13391
▁occasionally	-13392
▁subsequently	-13393
▁complications	-13394
▁consultations	-13395
▁deteriorating	-13396
▁disagreements	-13397
▁professionals	-13398
▁simultaneously	-13399
hr	-13400
oa	-13401
uh	-13402
aga	-13403
ahy	-13404
bag	-13405
eal	-13406
fty	-13407
ilo	-13408
lec	-13409
len	-13410
nie	-13411
nom	-13412
top	-13413
urt	-13414
▁aa	-13415
▁mp	-13416
abel	-13417
anga	-13418
ansa	-13419
asia	-13420
bank	-13421
comb	-13422
eded	-13423
eria	-13424
gart	-13425
girl	-13426
gone	-13427
haal	-13428
hang	-13429
igor	-13430
ingu	-13431
leas	-13432
muss	-13433
onen	-13434
opic	-13435
qual	-13436
uart	-13437
ulla	-13438
velt	-13439
ylan	-13440
▁114	-13441
▁277	-13442
▁ald	-13443
▁aur	-13444
▁cer	-13445
▁dax	-13446
▁dil	-13447
▁duj	-13448
▁eut	-13449
▁fom	-13450
▁gry	-13451
▁lip	-13452
▁liz	-13453
▁lon	-13454
▁nhk	-13455
▁nso	-13456
▁pga	-13457
▁tow	-13458
▁tus	-13459
▁tvs	-13460
▁wie	-13461
▁wit	-13462
▁wiz	-13463
▁xan	-13464
▁zhu	-13465
amped	-13466
ausen	-13467
bling	-13468
denko	-13469
duces	-13470
enary	-13471
erbai	-13472
essim	-13473
gages	-13474
herty	-13475
impse	-13476
imura	-13477
inity	-13478
ipper	-13479
neath	-13480
ovich	-13481
oween	-13482
ppers	-13483
quito	-13484
still	-13485
there	-13486
▁2015	-13487
▁accl	-13488
▁bids	-13489
▁cmdr	-13490
▁dodd	-13491
▁eleg	-13492
▁fart	-13493
▁feud	-13494
▁frig	-13495
▁grac	-13496
▁heal	-13497
▁irna	-13498
▁kaka	-13499
▁kirk	-13500
▁lend	-13501
▁leve	-13502
▁maid	-13503
▁mous	-13504
▁myth	-13505
▁nile	-13506
▁offs	-13507
▁onsl	-13508
▁oval	-13509
▁penh	-13510
▁pupp	-13511
▁ripp	-13512
▁rust	-13513
▁sala	-13514
▁semi	-13515
▁seng	-13516
▁shak	-13517
▁shun	-13518
▁skip	-13519
▁upro	-13520
▁vend	-13521
▁vinc	-13522
▁worn	-13523
alling	-13524
arians	-13525
averal	-13526
forest	-13527
italia	-13528
katiri	-13529
mussen	-13530
osures	-13531
ourage	-13532
▁aaron	-13533
▁alike	-13534
▁arabs	-13535
▁blank	-13536
▁cheon	-13537
▁colin	-13538
▁compr	-13539
▁crest	-13540
▁diarr	-13541
▁dicap	-13542
▁dodge	-13543
▁drops	-13544
▁dylan	-13545
▁emerg	-13546
▁enron	-13547
▁facto	-13548
▁flick	-13549
▁homem	-13550
▁inher	-13551
▁karim	-13552
▁kyong	-13553
▁leahy	-13554
▁lever	-13555
▁livni	-13556
▁navig	-13557
▁noble	-13558
▁nutri	-13559
▁phnom	-13560
▁qatar	-13561
▁raced	-13562
▁revol	-13563
▁rooft	-13564
▁rover	-13565
▁serie	-13566
▁sheik	-13567
▁siber	-13568
▁soyuz	-13569
▁stump	-13570
▁sword	-13571
▁taped	-13572
▁tents	-13573
▁unear	-13574
▁unrel	-13575
akening	-13576
ductive	-13577
olitano	-13578
rations	-13579
urances	-13580
▁abnorm	-13581
▁aliens	-13582
▁allawi	-13583
▁assure	-13584
▁backup	-13585
▁boards	-13586
▁bosses	-13587
▁bulgar	-13588
▁capita	-13589
▁chilly	-13590
▁chimps	-13591
▁cinema	-13592
▁conner	-13593
▁corrid	-13594
▁counse	-13595
▁crises	-13596
▁dmitry	-13597
▁endang	-13598
▁enroll	-13599
▁euthan	-13600
▁exists	-13601
▁expire	-13602
▁fertil	-13603
▁forged	-13604
▁fukuda	-13605
▁genome	-13606
▁gerald	-13607
▁harris	-13608
▁hiring	-13609
▁humane	-13610
▁hungry	-13611
▁jeremy	-13612
▁justin	-13613
▁labels	-13614
▁labore	-13615
▁loving	-13616
▁malibu	-13617
▁mammal	-13618
▁medals	-13619
▁minded	-13620
▁offset	-13621
▁ordeal	-13622
▁pessim	-13623
▁picket	-13624
▁podium	-13625
▁poorly	-13626
▁portal	-13627
▁postal	-13628
▁purely	-13629
▁reopen	-13630
▁resurg	-13631
▁roadbl	-13632
▁saudis	-13633
▁speeds	-13634
▁spends	-13635
▁spider	-13636
▁stiles	-13637
▁submar	-13638
▁sultan	-13639
▁suzuki	-13640
▁trends	-13641
▁triple	-13642
▁uncont	-13643
▁ventil	-13644
▁wishes	-13645
▁xanana	-13646
breaking	-13647
ecretary	-13648
ongchang	-13649
▁abusive	-13650
▁amateur	-13651
▁anymore	-13652
▁azerbai	-13653
▁ballmer	-13654
▁banners	-13655
▁boarded	-13656
▁bosnian	-13657
▁busiest	-13658
▁centrif	-13659
▁cheered	-13660
▁clapton	-13661
▁cluster	-13662
▁commons	-13663
▁corpses	-13664
▁designs	-13665
▁donated	-13666
▁downing	-13667
▁endured	-13668
▁exagger	-13669
▁farther	-13670
▁finland	-13671
▁floated	-13672
▁frances	-13673
▁fueling	-13674
▁glimpse	-13675
▁halting	-13676
▁heating	-13677
▁infants	-13678
▁interfe	-13679
▁jupiter	-13680
▁lighter	-13681
▁mandela	-13682
▁merrill	-13683
▁mineral	-13684
▁miracle	-13685
▁mortars	-13686
▁observe	-13687
▁padilla	-13688
▁pouring	-13689
▁praying	-13690
▁pumping	-13691
▁referee	-13692
▁refiner	-13693
▁repatri	-13694
▁sensors	-13695
▁shifted	-13696
▁siniora	-13697
▁staunch	-13698
▁suburbs	-13699
▁temples	-13700
▁tighten	-13701
▁tracked	-13702
▁unconst	-13703
▁unified	-13704
▁upscale	-13705
▁urgency	-13706
▁warfare	-13707
▁abruptly	-13708
▁advisors	-13709
▁alkatiri	-13710
▁archbish	-13711
▁barracks	-13712
▁belgrade	-13713
▁breached	-13714
▁brooklyn	-13715
▁cardinal	-13716
▁climbers	-13717
▁coincide	-13718
▁credible	-13719
▁defiance	-13720
▁dicaprio	-13721
▁dinosaur	-13722
▁displays	-13723
▁donation	-13724
▁drilling	-13725
▁drinkers	-13726
▁grounded	-13727
▁handover	-13728
▁hydrogen	-13729
▁industri	-13730
▁laughing	-13731
▁magnetic	-13732
▁meltdown	-13733
▁mosquito	-13734
▁probable	-13735
▁provoked	-13736
▁reacting	-13737
▁resource	-13738
▁resuming	-13739
▁salaries	-13740
▁siblings	-13741
▁slipping	-13742
▁supplied	-13743
▁tibetans	-13744
▁zapatero	-13745
vernmental	-13746
▁admitting	-13747
▁affection	-13748
▁ancestors	-13749
▁arresting	-13750
▁breakdown	-13751
▁canaveral	-13752
▁cancelled	-13753
▁chartered	-13754
▁commented	-13755
▁computing	-13756
▁consulate	-13757
▁crossings	-13758
▁davydenko	-13759
▁defeating	-13760
▁detaining	-13761
▁dissident	-13762
▁dissolved	-13763
▁fisheries	-13764
▁guerrilla	-13765
▁halloween	-13766
▁henderson	-13767
▁inquiries	-13768
▁jordanian	-13769
▁lifestyle	-13770
▁magazines	-13771
▁mortgages	-13772
▁notorious	-13773
▁nutrition	-13774
▁objection	-13775
▁obstacles	-13776
▁particles	-13777
▁patriotic	-13778
▁plummeted	-13779
▁precincts	-13780
▁rasmussen	-13781
▁remainder	-13782
▁resistant	-13783
▁respected	-13784
▁restoring	-13785
▁scrambled	-13786
▁shortfall	-13787
▁specially	-13788
▁specifics	-13789
▁speculate	-13790
▁spielberg	-13791
▁stressing	-13792
▁tightened	-13793
▁accelerate	-13794
▁accusation	-13795
▁amendments	-13796
▁appreciate	-13797
▁approaches	-13798
▁architects	-13799
▁attraction	-13800
▁automobile	-13801
▁blacksburg	-13802
▁boycotting	-13803
▁classrooms	-13804
▁consultant	-13805
▁convincing	-13806
▁courageous	-13807
▁frightened	-13808
▁napolitano	-13809
▁obligation	-13810
▁performers	-13811
▁portsmouth	-13812
▁productive	-13813
▁references	-13814
▁respective	-13815
▁separation	-13816
▁skepticism	-13817
▁standstill	-13818
▁subsequent	-13819
▁torrential	-13820
▁underneath	-13821
▁achievement	-13822
▁archipelago	-13823
▁automobiles	-13824
▁commodities	-13825
▁conflicting	-13826
▁contestants	-13827
▁drastically	-13828
▁exclusively	-13829
▁fingerprint	-13830
▁functioning	-13831
▁fundraising	-13832
▁importantly	-13833
▁infiltrated	-13834
▁ingredients	-13835
▁installment	-13836
▁interactive	-13837
▁interpreted	-13838
▁pyeongchang	-13839
▁quarterback	-13840
▁suppression	-13841
▁translation	-13842
▁achievements	-13843
▁constructive	-13844
▁contemporary	-13845
▁destinations	-13846
▁intimidation	-13847
▁confederation	-13848
▁disappointing	-13849
▁reinforcements	-13850
84	-13851
lu	-13852
sm	-13853
ux	-13854
vo	-13855
ben	-13856
bye	-13857
cut	-13858
fts	-13859
ggy	-13860
ieu	-13861
jab	-13862
lif	-13863
lls	-13864
oly	-13865
ono	-13866
ovs	-13867
ras	-13868
ser	-13869
von	-13870
yen	-13871
zio	-13872
▁dh	-13873
▁wm	-13874
abed	-13875
adan	-13876
ante	-13877
awar	-13878
biqu	-13879
coni	-13880
conn	-13881
dled	-13882
drop	-13883
ecca	-13884
ffer	-13885
huff	-13886
ichi	-13887
idav	-13888
inea	-13889
inge	-13890
mons	-13891
neum	-13892
oshi	-13893
raph	-13894
rett	-13895
riel	-13896
shmi	-13897
step	-13898
udge	-13899
ufth	-13900
umbo	-13901
word	-13902
▁122	-13903
▁189	-13904
▁220	-13905
▁320	-13906
▁330	-13907
▁alv	-13908
▁bib	-13909
▁cox	-13910
▁edu	-13911
▁emi	-13912
▁gue	-13913
▁naj	-13914
▁omx	-13915
▁plc	-13916
▁rut	-13917
▁spi	-13918
▁til	-13919
▁tin	-13920
▁tyr	-13921
▁ung	-13922
▁vom	-13923
▁wfp	-13924
▁zur	-13925
acies	-13926
actic	-13927
aguay	-13928
arked	-13929
asive	-13930
azaki	-13931
emaah	-13932
emics	-13933
encer	-13934
gling	-13935
khead	-13936
leton	-13937
mbley	-13938
oding	-13939
osity	-13940
oyama	-13941
sider	-13942
table	-13943
think	-13944
uffed	-13945
ulent	-13946
▁1947	-13947
▁1974	-13948
▁1976	-13949
▁airs	-13950
▁alle	-13951
▁amel	-13952
▁bain	-13953
▁balk	-13954
▁beno	-13955
▁butt	-13956
▁dann	-13957
▁dear	-13958
▁deer	-13959
▁diaz	-13960
▁emmy	-13961
▁fren	-13962
▁hamm	-13963
▁hats	-13964
▁impl	-13965
▁jess	-13966
▁joke	-13967
▁lied	-13968
▁lula	-13969
▁misc	-13970
▁orig	-13971
▁pais	-13972
▁pesh	-13973
▁prey	-13974
▁rapp	-13975
▁sham	-13976
▁stam	-13977
▁subs	-13978
▁swam	-13979
▁tier	-13980
▁trim	-13981
▁unle	-13982
anchez	-13983
ansson	-13984
athers	-13985
ichton	-13986
luster	-13987
marked	-13988
rophic	-13989
waters	-13990
▁anwar	-13991
▁appet	-13992
▁arche	-13993
▁arrow	-13994
▁barcl	-13995
▁barro	-13996
▁belly	-13997
▁braun	-13998
▁comic	-13999
▁costa	-14000
▁cough	-14001
▁derby	-14002
▁drain	-14003
▁drift	-14004
▁dwell	-14005
▁evans	-14006
▁fargo	-14007
▁fiber	-14008
▁fuels	-14009
▁horiz	-14010
▁hover	-14011
▁inhal	-14012
▁input	-14013
▁irwin	-14014
▁lufth	-14015
▁moder	-14016
▁nurse	-14017
▁olive	-14018
▁osman	-14019
▁paths	-14020
▁penny	-14021
▁pneum	-14022
▁renov	-14023
▁rides	-14024
▁rolls	-14025
▁sorts	-14026
▁spike	-14027
▁spurs	-14028
▁tadic	-14029
▁teach	-14030
▁teddy	-14031
▁tenth	-14032
▁thorn	-14033
▁thumb	-14034
▁ubiqu	-14035
▁usher	-14036
▁vinci	-14037
▁wraps	-14038
atorium	-14039
entials	-14040
itement	-14041
keepers	-14042
mingham	-14043
ogether	-14044
theless	-14045
▁adoles	-14046
▁albums	-14047
▁anders	-14048
▁askari	-14049
▁barney	-14050
▁bayern	-14051
▁bishop	-14052
▁blackl	-14053
▁bricks	-14054
▁bubble	-14055
▁canyon	-14056
▁cartel	-14057
▁carved	-14058
▁celest	-14059
▁decent	-14060
▁diesel	-14061
▁doming	-14062
▁floors	-14063
▁foiled	-14064
▁fritzl	-14065
▁guinea	-14066
▁holmes	-14067
▁influx	-14068
▁inmate	-14069
▁insure	-14070
▁interc	-14071
▁jemaah	-14072
▁johnny	-14073
▁kazemi	-14074
▁keeper	-14075
▁latter	-14076
▁lavish	-14077
▁likeli	-14078
▁luther	-14079
▁memoir	-14080
▁nephew	-14081
▁nerves	-14082
▁outlet	-14083
▁punjab	-14084
▁regain	-14085
▁ritual	-14086
▁robots	-14087
▁sample	-14088
▁shrimp	-14089
▁slower	-14090
▁spared	-14091
▁tables	-14092
▁unveil	-14093
▁vetoed	-14094
▁vowing	-14095
▁waiver	-14096
▁yemeni	-14097
▁zebari	-14098
izations	-14099
▁affidav	-14100
▁assumed	-14101
▁baldwin	-14102
▁beliefs	-14103
▁bennett	-14104
▁blanche	-14105
▁bombard	-14106
▁boulder	-14107
▁bystand	-14108
▁cleanup	-14109
▁clemens	-14110
▁coaches	-14111
▁costing	-14112
▁disqual	-14113
▁dynasty	-14114
▁evolved	-14115
▁existed	-14116
▁faction	-14117
▁goodbye	-14118
▁harvest	-14119
▁hawkins	-14120
▁hossein	-14121
▁inhabit	-14122
▁kissing	-14123
▁lakshmi	-14124
▁lasting	-14125
▁lenient	-14126
▁lindsey	-14127
▁martial	-14128
▁matchup	-14129
▁nearest	-14130
▁noodles	-14131
▁pilgrim	-14132
▁pitched	-14133
▁placing	-14134
▁plagued	-14135
▁planted	-14136
▁precond	-14137
▁rangoon	-14138
▁regards	-14139
▁reshuff	-14140
▁restive	-14141
▁retract	-14142
▁ringing	-14143
▁rushing	-14144
▁sanchez	-14145
▁segment	-14146
▁spirits	-14147
▁spouses	-14148
▁stabbed	-14149
▁touring	-14150
▁trailer	-14151
▁twisted	-14152
▁viewing	-14153
▁violate	-14154
▁visitor	-14155
▁warlord	-14156
▁wembley	-14157
▁winston	-14158
itiveness	-14159
▁algerian	-14160
▁applying	-14161
▁artistic	-14162
▁birkhead	-14163
▁blackout	-14164
▁bleeding	-14165
▁bulgaria	-14166
▁cemetery	-14167
▁charisma	-14168
▁cheating	-14169
▁cleaning	-14170
▁competed	-14171
▁crichton	-14172
▁criteria	-14173
▁delicate	-14174
▁deserves	-14175
▁diarrhea	-14176
▁disappro	-14177
▁excluded	-14178
▁explicit	-14179
▁finalize	-14180
▁globally	-14181
▁hatoyama	-14182
▁homemade	-14183
▁honoring	-14184
▁horrible	-14185
▁horrific	-14186
▁immunity	-14187
▁ivanovic	-14188
▁joongang	-14189
▁lawrence	-14190
▁leonardo	-14191
▁limiting	-14192
▁mediator	-14193
▁monarchy	-14194
▁musician	-14195
▁outright	-14196
▁overdose	-14197
▁overlook	-14198
▁overshad	-14199
▁paraguay	-14200
▁populous	-14201
▁portions	-14202
▁precious	-14203
▁premises	-14204
▁printing	-14205
▁provider	-14206
▁regiment	-14207
▁relation	-14208
▁renowned	-14209
▁robinson	-14210
▁sabotage	-14211
▁sampling	-14212
▁showcase	-14213
▁surgeons	-14214
▁tackling	-14215
▁unnecess	-14216
▁valencia	-14217
▁versions	-14218
▁wielding	-14219
▁xinjiang	-14220
▁alcoholic	-14221
▁awakening	-14222
▁battalion	-14223
▁bloodshed	-14224
▁bollywood	-14225
▁carmakers	-14226
▁compounds	-14227
▁consulted	-14228
▁defensive	-14229
▁endurance	-14230
▁escalated	-14231
▁estranged	-14232
▁excellent	-14233
▁forbidden	-14234
▁frenchman	-14235
▁hopefully	-14236
▁impressed	-14237
▁influenza	-14238
▁interfere	-14239
▁johansson	-14240
▁lufthansa	-14241
▁mediation	-14242
▁motorcade	-14243
▁nasrallah	-14244
▁offerings	-14245
▁organizer	-14246
▁outspoken	-14247
▁perceived	-14248
▁resigning	-14249
▁sensation	-14250
▁spaniards	-14251
▁spotlight	-14252
▁unrelated	-14253
▁adolescent	-14254
▁archbishop	-14255
▁birmingham	-14256
▁capitalist	-14257
▁commentary	-14258
▁comparison	-14259
▁compatriot	-14260
▁confronted	-14261
▁denouncing	-14262
▁encourages	-14263
▁excitement	-14264
▁institutes	-14265
▁lackluster	-14266
▁likelihood	-14267
▁meaningful	-14268
▁operatives	-14269
▁passionate	-14270
▁protective	-14271
▁provisions	-14272
▁publicized	-14273
▁quarantine	-14274
▁reconsider	-14275
▁socialists	-14276
▁ubiquitous	-14277
▁undercover	-14278
▁accountable	-14279
▁appreciated	-14280
▁battlefield	-14281
▁certificate	-14282
▁circulating	-14283
▁commemorate	-14284
▁conclusions	-14285
▁confiscated	-14286
▁connections	-14287
▁cooperative	-14288
▁credentials	-14289
▁credibility	-14290
▁delegations	-14291
▁deportation	-14292
▁dignitaries	-14293
▁distributor	-14294
▁expectation	-14295
▁festivities	-14296
▁radioactive	-14297
▁sustainable	-14298
▁alternatives	-14299
▁consultation	-14300
▁embarrassing	-14301
▁installation	-14302
▁nevertheless	-14303
▁reprocessing	-14304
▁unexpectedly	-14305
▁concentration	-14306
▁consciousness	-14307
▁contributions	-14308
▁globalization	-14309
▁technological	-14310
▁industrialized	-14311
▁transformation	-14312
▁undersecretary	-14313
▁competitiveness	-14314
10	-14315
19	-14316
ws	-14317
aba	-14318
azz	-14319
bat	-14320
cha	-14321
gel	-14322
gom	-14323
hey	-14324
idi	-14325
imi	-14326
isi	-14327
oop	-14328
vak	-14329
vet	-14330
▁aj	-14331
▁bj	-14332
▁kr	-14333
addy	-14334
atan	-14335
blor	-14336
bury	-14337
cery	-14338
daem	-14339
etti	-14340
folk	-14341
guet	-14342
hard	-14343
hima	-14344
icon	-14345
inez	-14346
isle	-14347
kill	-14348
nish	-14349
odel	-14350
oeba	-14351
onso	-14352
oret	-14353
orge	-14354
ouad	-14355
ours	-14356
ovoi	-14357
uddy	-14358
uees	-14359
uges	-14360
vian	-14361
▁102	-14362
▁123	-14363
▁124	-14364
▁168	-14365
▁175	-14366
▁185	-14367
▁260	-14368
▁278	-14369
▁380	-14370
▁acr	-14371
▁cay	-14372
▁cds	-14373
▁cot	-14374
▁doo	-14375
▁dre	-14376
▁dys	-14377
▁ern	-14378
▁eva	-14379
▁faa	-14380
▁fug	-14381
▁gag	-14382
▁hed	-14383
▁hes	-14384
▁hob	-14385
▁iii	-14386
▁jel	-14387
▁kal	-14388
▁kap	-14389
▁kbs	-14390
▁kra	-14391
▁lik	-14392
▁lur	-14393
▁mik	-14394
▁mub	-14395
▁nak	-14396
▁phr	-14397
▁ply	-14398
▁pup	-14399
▁sag	-14400
▁seb	-14401
▁sob	-14402
▁thy	-14403
▁ump	-14404
▁vib	-14405
▁yuk	-14406
▁zoe	-14407
▁zub	-14408
adors	-14409
andan	-14410
angle	-14411
anmen	-14412
aytun	-14413
esity	-14414
ilder	-14415
itate	-14416
nants	-14417
oused	-14418
overs	-14419
reeze	-14420
rians	-14421
roads	-14422
rophe	-14423
shots	-14424
tered	-14425
uling	-14426
yssey	-14427
▁2018	-14428
▁adap	-14429
▁bast	-14430
▁bong	-14431
▁bour	-14432
▁cake	-14433
▁cogn	-14434
▁coin	-14435
▁cran	-14436
▁cure	-14437
▁danc	-14438
▁deby	-14439
▁edin	-14440
▁eyew	-14441
▁fool	-14442
▁fret	-14443
▁glor	-14444
▁gond	-14445
▁grey	-14446
▁gymn	-14447
▁hajj	-14448
▁jagu	-14449
▁jams	-14450
▁laud	-14451
▁mald	-14452
▁outf	-14453
▁pork	-14454
▁puzz	-14455
▁ratt	-14456
▁rept	-14457
▁scow	-14458
▁shal	-14459
▁sore	-14460
▁spaw	-14461
▁tarm	-14462
▁util	-14463
▁wary	-14464
▁woke	-14465
▁yoga	-14466
akable	-14467
assing	-14468
atable	-14469
atible	-14470
cribed	-14471
emaker	-14472
estock	-14473
gomery	-14474
iances	-14475
inated	-14476
ishers	-14477
istrib	-14478
linary	-14479
morgan	-14480
resses	-14481
usters	-14482
zeguet	-14483
▁allan	-14484
▁amber	-14485
▁basil	-14486
▁blogs	-14487
▁chunk	-14488
▁clamp	-14489
▁claud	-14490
▁clerk	-14491
▁crazy	-14492
▁drill	-14493
▁femin	-14494
▁ferre	-14495
▁flatt	-14496
▁freud	-14497
▁gamba	-14498
▁gauge	-14499
▁giggs	-14500
▁glenn	-14501
▁globo	-14502
▁goers	-14503
▁grows	-14504
▁janet	-14505
▁julio	-14506
▁katie	-14507
▁keane	-14508
▁lacks	-14509
▁lahim	-14510
▁layer	-14511
▁lifel	-14512
▁lloyd	-14513
▁maxim	-14514
▁nanot	-14515
▁ought	-14516
▁parad	-14517
▁peers	-14518
▁penet	-14519
▁plaza	-14520
▁pools	-14521
▁releg	-14522
▁rises	-14523
▁roose	-14524
▁saves	-14525
▁sixty	-14526
▁skies	-14527
▁snack	-14528
▁spear	-14529
▁stays	-14530
▁tebow	-14531
[...]
