<pad>	0
<s>	0
</s>	0
<unk>	0
▁.	-0
▁이	-1
했다	-2
▁있	-3
▁대	-4
에서	-5
▁,	-6
▁사	-7
▁그	-8
▁지	-9
▁1	-10
▁것	-11
으로	-12
▁2	-13
▁수	-14
▁전	-15
▁미	-16
▁가	-17
▁아	-18
▁있다	-19
▁한	-20
▁고	-21
▁주	-22
▁보	-23
▁시	-24
▁위	-25
▁정	-26
▁경	-27
▁말	-28
▁중	-29
▁인	-30
▁기	-31
하고	-32
00	-33
▁자	-34
하는	-35
▁부	-36
라고	-37
▁밝	-38
다고	-39
▁일	-40
▁발	-41
▁공	-42
▁의	-43
▁오	-44
▁관	-45
▁국	-46
▁밝혔	-47
▁다	-48
들이	-49
▁유	-50
들은	-51
▁밝혔다	-52
▁현	-53
▁말했다	-54
▁미국	-55
▁3	-56
▁것이	-57
▁않	-58
▁비	-59
▁상	-60
▁조	-61
▁나	-62
니다	-63
▁하	-64
▁여	-65
▁제	-66
▁소	-67
▁있는	-68
▁연	-69
▁마	-70
통령	-71
▁영	-72
▁모	-73
▁동	-74
▁대통령	-75
▁선	-76
▁내	-77
으며	-78
▁지난	-79
▁우	-80
었다	-81
에게	-82
▁해	-83
▁무	-84
▁그는	-85
▁최	-86
▁200	-87
▁당	-88
▁후	-89
▁4	-90
▁스	-91
▁방	-92
▁바	-93
▁알	-94
▁예	-95
▁파	-96
▁북	-97
▁위해	-98
▁5	-99
▁세	-100
▁받	-101
▁t	-102
▁a	-103
▁대한	-104
▁결	-105
시간	-106
▁도	-107
▁c	-108
▁없	-109
▁남	-110
▁이라	-111
▁현지	-112
▁총	-113
▁정부	-114
▁이번	-115
▁회	-116
▁에	-117
▁통	-118
▁성	-119
습니다	-120
▁전했다	-121
▁구	-122
지만	-123
▁반	-124
▁개	-125
했다고	-126
▁6	-127
▁어	-128
▁신	-129
이다	-130
▁불	-131
▁노	-132
적인	-133
▁대해	-134
▁만	-135
명이	-136
하기	-137
▁거	-138
in	-139
▁현지시간	-140
▁생	-141
▁장	-142
▁계	-143
▁프	-144
▁s	-145
▁실	-146
▁원	-147
▁며	-148
▁또	-149
▁이라크	-150
▁포	-151
들을	-152
▁강	-153
리는	-154
까지	-155
▁매	-156
▁약	-157
▁차	-158
▁폭	-159
▁경찰	-160
▁사람	-161
됐다	-162
▁올	-163
명의	-164
들의	-165
▁로	-166
▁서	-167
▁것으로	-168
▁감	-169
▁때	-170
▁재	-171
▁더	-172
▁교	-173
▁안	-174
▁문	-175
▁요	-176
▁북한	-177
▁것이라고	-178
▁중국	-179
▁진	-180
▁피	-181
▁라	-182
하지	-183
▁19	-184
▁그러	-185
▁7	-186
▁있다고	-187
▁외	-188
▁자신	-189
한다	-190
▁것을	-191
▁한국	-192
▁달	-193
▁입	-194
▁열	-195
▁그러나	-196
▁추	-197
았다	-198
였다	-199
on	-200
re	-201
▁사망	-202
▁8	-203
▁출	-204
▁주장	-205
적으로	-206
▁많	-207
▁발생	-208
▁확	-209
부터	-210
▁10	-211
에는	-212
▁등	-213
▁군	-214
▁호	-215
▁민	-216
▁테	-217
인은	-218
▁행	-219
▁0	-220
▁카	-221
▁다른	-222
▁f	-223
하게	-224
▁영국	-225
▁두	-226
▁p	-227
▁같	-228
시아	-229
er	-230
▁지역	-231
▁관계	-232
▁증	-233
▁투	-234
▁예정	-235
▁작	-236
▁분	-237
▁9	-238
▁과	-239
바마	-240
▁목	-241
▁베	-242
▁리	-243
▁발표	-244
▁설	-245
▁대변	-246
▁오바마	-247
사는	-248
▁법	-249
리아	-250
장은	-251
▁한편	-252
▁집	-253
▁단	-254
▁타	-255
기를	-256
▁되	-257
▁새	-258
▁이라고	-259
an	-260
▁문제	-261
▁승	-262
▁살	-263
▁독	-264
들에게	-265
▁화	-266
ti	-267
▁배	-268
졌다	-269
▁보도	-270
▁뉴	-271
▁n	-272
▁일본	-273
▁m	-274
▁b	-275
▁이후	-276
▁처	-277
▁관련	-278
▁못	-279
▁할	-280
▁후보	-281
▁건	-282
▁검	-283
▁금	-284
▁심	-285
▁코	-286
다는	-287
▁세계	-288
▁버	-289
▁평	-290
▁참	-291
▁치	-292
▁적	-293
▁판	-294
에서는	-295
에따	-296
자는	-297
면서	-298
▁통해	-299
▁w	-300
▁많은	-301
▁위한	-302
▁앞	-303
▁부시	-304
▁들	-305
▁크	-306
▁협	-307
▁클	-308
▁데	-309
▁12	-310
▁저	-311
▁레	-312
하며	-313
리고	-314
▁핵	-315
▁체	-316
▁언	-317
▁대통령은	-318
en	-319
스탄	-320
▁국가	-321
or	-322
▁병	-323
▁물	-324
명을	-325
했으며	-326
자가	-327
관은	-328
사를	-329
▁운	-330
he	-331
▁변	-332
▁가장	-333
라는	-334
▁필	-335
▁합	-336
▁벌	-337
리가	-338
▁동안	-339
▁같은	-340
▁학	-341
▁그의	-342
▁테러	-343
스트	-344
▁경제	-345
▁영화	-346
▁사건	-347
▁것이다	-348
▁산	-349
▁11	-350
▁시작	-351
▁이상	-352
▁대변인은	-353
문에	-354
▁양	-355
스는	-356
▁브	-357
▁공격	-358
▁아프	-359
원의	-360
▁항	-361
된다	-362
ar	-363
le	-364
리를	-365
▁아이	-366
▁d	-367
▁직	-368
▁현재	-369
자들은	-370
들과	-371
▁20	-372
▁역	-373
▁보고	-374
▁초	-375
▁계획	-376
▁민주	-377
▁o	-378
▁임	-379
▁연구	-380
al	-381
▁될	-382
이트	-383
▁은	-384
▁사용	-385
▁존	-386
▁국제	-387
▁선거	-388
▁인터	-389
혐의	-390
▁미군	-391
▁것은	-392
이라고	-393
▁한다	-394
▁주장했다	-395
지는	-396
▁야	-397
▁메	-398
도록	-399
▁명	-400
000	-401
▁조사	-402
▁또한	-403
▁함	-404
달러	-405
하다	-406
요일	-407
▁i	-408
▁지지	-409
▁최근	-410
▁돌	-411
상을	-412
▁일부	-413
스라	-414
▁뒤	-415
▁했다	-416
되는	-417
으나	-418
▁토	-419
▁발견	-420
었다고	-421
▁덧	-422
▁u	-423
▁덧붙	-424
▁는	-425
▁혐의	-426
▁계속	-427
▁시위	-428
▁특	-429
▁the	-430
▁포함	-431
▁러	-432
력을	-433
▁경우	-434
▁페	-435
했습니다	-436
▁보도했다	-437
▁취	-438
▁사실	-439
▁여성	-440
▁경기	-441
▁덧붙였다	-442
▁및	-443
▁생각	-444
▁태	-445
▁회담	-446
▁요구	-447
▁이란	-448
스라엘	-449
▁환	-450
▁이스라엘	-451
원은	-452
했던	-453
▁않았다	-454
▁e	-455
▁h	-456
▁결정	-457
라이	-458
레이	-459
▁방문	-460
▁박	-461
자들이	-462
▁설명	-463
▁자신의	-464
장을	-465
레스	-466
▁탈	-467
▁지도	-468
로운	-469
▁모든	-470
▁줄	-471
▁비난	-472
▁프로	-473
▁복	-474
리스	-475
▁몇	-476
▁당국	-477
▁라고	-478
키스탄	-479
es	-480
▁에서	-481
▁함께	-482
▁파키스탄	-483
니아	-484
▁당시	-485
르면	-486
▁게	-487
▁가능	-488
▁결과	-489
▁표	-490
주의	-491
인이	-492
되고	-493
▁프랑	-494
▁활	-495
▁종	-496
▁15	-497
nn	-498
▁k	-499
사가	-500
▁음	-501
▁to	-502
▁팔	-503
해야	-504
▁하는	-505
▁그리고	-506
▁논	-507
보다	-508
입니다	-509
▁허	-510
▁j	-511
▁석	-512
▁때문에	-513
▁원문	-514
▁걸	-515
▁맞	-516
▁g	-517
원이	-518
▁높	-519
시키	-520
▁수도	-521
▁인도	-522
▁대선	-523
▁모두	-524
▁근	-525
▁드	-526
▁필요	-527
▁러시아	-528
회의	-529
▁cnn	-530
랜드	-531
▁온	-532
▁30	-533
at	-534
▁간	-535
▁정치	-536
에따르면	-537
▁애	-538
▁클린	-539
is	-540
▁새로운	-541
▁지원	-542
▁예정이다	-543
▁유엔	-544
▁친	-545
▁처음	-546
지를	-547
▁달러	-548
▁프랑스	-549
▁설명했다	-550
자인	-551
▁클린턴	-552
▁충	-553
▁있습니다	-554
지고	-555
번째	-556
▁있으며	-557
▁정부는	-558
▁l	-559
▁경찰은	-560
200	-561
▁열린	-562
▁in	-563
▁사이	-564
▁갖	-565
▁숨	-566
에도	-567
▁민주당	-568
▁떨	-569
▁점	-570
▁본	-571
▁용	-572
▁채	-573
▁알려	-574
▁피해	-575
▁블	-576
▁사고	-577
왔다	-578
서는	-579
▁아직	-580
▁찾	-581
▁기록	-582
▁철	-583
▁케	-584
▁들어	-585
▁터	-586
ro	-587
장이	-588
기가	-589
▁기자	-590
▁좋	-591
▁우리	-592
▁규	-593
부는	-594
▁백	-595
▁큰	-596
▁유럽	-597
▁떨어	-598
▁있었다	-599
▁우주	-600
▁디	-601
▁뉴욕	-602
▁없다	-603
원회	-604
안을	-605
▁16	-606
▁담	-607
▁상황	-608
▁않았	-609
▁휴	-610
▁2005	-611
▁않는	-612
ic	-613
▁질	-614
▁플	-615
▁그녀	-616
▁대표	-617
▁폭탄	-618
▁권	-619
▁하고	-620
▁대통령이	-621
▁쿠	-622
치를	-623
it	-624
비아	-625
되어	-626
▁김	-627
▁월	-628
▁25	-629
▁지난해	-630
▁않을	-631
tion	-632
▁합의	-633
▁아니	-634
▁올해	-635
▁식	-636
이스	-637
기에	-638
▁힐	-639
▁날	-640
▁상원의	-641
▁손	-642
▁최고	-643
▁미국의	-644
▁나타	-645
▁압	-646
▁곳	-647
▁를	-648
▁청	-649
▁국민	-650
▁준	-651
▁이에	-652
▁따	-653
▁13	-654
▁무장	-655
▁199	-656
▁시간	-657
▁네	-658
▁가족	-659
화를	-660
▁of	-661
▁있을	-662
▁와	-663
됐다고	-664
그램	-665
▁이날	-666
▁18	-667
▁침	-668
▁있었	-669
▁광	-670
▁비행	-671
부분	-672
ing	-673
▁총리는	-674
▁완	-675
▁첫	-676
▁체포	-677
▁08	-678
▁루	-679
▁진행	-680
▁접	-681
전을	-682
▁대학	-683
하여	-684
om	-685
거나	-686
이고	-687
▁정보	-688
▁속	-689
수는	-690
▁위치	-691
▁확인	-692
▁반대	-693
▁끝	-694
▁난	-695
▁이슬	-696
▁부상	-697
자를	-698
▁발생한	-699
이며	-700
▁있다는	-701
동을	-702
▁발표했다	-703
과의	-704
▁범	-705
성이	-706
▁받고	-707
▁14	-708
▁이미	-709
▁아프간	-710
▁공개	-711
▁총리	-712
▁대부분	-713
as	-714
ed	-715
▁다음	-716
▁소식	-717
▁잘	-718
▁패	-719
▁폐	-720
▁순	-721
▁이는	-722
▁얻	-723
▁트	-724
▁희	-725
스의	-726
▁다시	-727
▁만들	-728
▁각	-729
▁주민	-730
▁빠	-731
이나	-732
자의	-733
▁증가	-734
▁이용	-735
▁사람들이	-736
운데	-737
ou	-738
▁워	-739
▁그가	-740
에따라	-741
▁가운데	-742
▁정부가	-743
렸다	-744
하면	-745
▁누	-746
▁왕	-747
▁방송	-748
정부	-749
단체	-750
▁중단	-751
▁항공	-752
▁넘	-753
▁축	-754
원을	-755
▁예상	-756
▁전문	-757
▁의해	-758
정을	-759
▁주요	-760
타인	-761
▁밝혀	-762
사의	-763
▁프로그램	-764
성을	-765
▁2006	-766
레반	-767
지역	-768
▁우리는	-769
하면서	-770
▁콜	-771
▁투표	-772
▁탈레반	-773
▁막	-774
스가	-775
▁감독	-776
▁공화	-777
▁내용	-778
▁실시	-779
간의	-780
▁2008	-781
이는	-782
▁오늘	-783
▁얼	-784
▁22	-785
▁이슬람	-786
와의	-787
▁된다	-788
▁된	-789
▁외교	-790
▁인해	-791
▁차량	-792
▁17	-793
▁절	-794
▁암	-795
▁여러	-796
▁납	-797
▁병원	-798
▁상태	-799
▁해결	-800
들에	-801
인을	-802
기사	-803
▁홍	-804
▁않은	-805
▁책	-806
로부터	-807
무장	-808
▁머	-809
는데	-810
▁받아	-811
▁조지	-812
장에서	-813
하려	-814
▁지적	-815
▁됐다	-816
▁밀	-817
났다	-818
▁전쟁	-819
▁인터뷰	-820
▁50	-821
▁중요	-822
▁언급	-823
▁언론	-824
▁농	-825
▁독일	-826
▁의회	-827
▁향	-828
금을	-829
▁팔레스	-830
▁평화	-831
드는	-832
▁혐의로	-833
▁tv	-834
ore	-835
▁이어	-836
했지만	-837
id	-838
il	-839
▁천	-840
▁돌아	-841
대로	-842
디오	-843
▁지금	-844
▁국방	-845
▁폭발	-846
▁대통령의	-847
스를	-848
▁변호	-849
▁골	-850
▁re	-851
▁정상	-852
위원회	-853
▁형	-854
▁도시	-855
동차	-856
▁급	-857
▁잡	-858
▁티	-859
림픽	-860
처럼	-861
▁캐	-862
되지	-863
▁단체	-864
▁원문기사	-865
ins	-866
▁요청	-867
▁학생	-868
▁jo	-869
무부	-870
위를	-871
기로	-872
▁팔레스타인	-873
▁촉	-874
업체	-875
▁살해	-876
▁승리	-877
개월	-878
▁위치한	-879
▁매우	-880
▁헤	-881
▁있어	-882
ent	-883
▁인터넷	-884
▁데이	-885
▁우려	-886
보기	-887
▁악	-888
자로	-889
▁24	-890
▁연방	-891
▁제공	-892
▁호주	-893
관이	-894
도로	-895
▁브라	-896
▁석방	-897
▁이유	-898
▁받았다	-899
▁죽	-900
▁공화당	-901
▁매케	-902
▁상승	-903
▁이를	-904
가는	-905
▁없는	-906
▁27	-907
▁관리	-908
▁금융	-909
▁이들	-910
▁21	-911
▁명의	-912
▁강조	-913
ra	-914
사태	-915
▁을	-916
▁탄	-917
명은	-918
▁소속	-919
▁추가	-920
km	-921
테러	-922
▁당선	-923
▁판매	-924
▁?	-925
▁방법	-926
▁참석	-927
▁한다고	-928
▁개발	-929
▁남부	-930
▁떠	-931
기는	-932
임을	-933
▁마이	-934
▁사실을	-935
수가	-936
▁성공	-937
리카	-938
▁사진	-939
겠다고	-940
▁서울	-941
▁모습	-942
▁않고	-943
▁키	-944
▁힘	-945
했고	-946
▁볼	-947
한다고	-948
▁23	-949
되었다	-950
격을	-951
▁맥	-952
스터	-953
▁자동차	-954
▁여행	-955
▁보여	-956
▁위협	-957
▁협상	-958
▁베이	-959
▁생산	-960
대를	-961
▁터키	-962
▁관계자는	-963
▁긴	-964
리포	-965
▁기술	-966
▁군사	-967
▁하락	-968
▁어떤	-969
냈다	-970
▁joins	-971
▁쓰	-972
장에	-973
▁구조	-974
▁용의	-975
▁지적했다	-976
▁측	-977
▁그들은	-978
▁올림픽	-979
전에	-980
▁인질	-981
▁하나	-982
자들을	-983
이지	-984
▁위험	-985
▁주지	-986
이었다	-987
▁100	-988
▁인근	-989
▁전문가	-990
▁원문기사보기	-991
▁보안	-992
▁보호	-993
▁사무	-994
▁인정	-995
르는	-996
에서의	-997
되었	-998
업을	-999
▁일어	-1000
▁회사	-1001
▁당국은	-1002
▁26	-1003
▁과학	-1004
▁정책	-1005
▁ap	-1006
▁크리스	-1007
▁하지	-1008
▁이라며	-1009
력이	-1010
▁40	-1011
▁반군	-1012
리에	-1013
▁보인	-1014
▁영향	-1015
▁최소	-1016
▁잠	-1017
▁백악	-1018
▁없다고	-1019
ation	-1020
▁검찰	-1021
ec	-1022
개의	-1023
▁납치	-1024
권을	-1025
▁커	-1026
치는	-1027
▁폴	-1028
th	-1029
▁받은	-1030
년간	-1031
센터	-1032
▁경고	-1033
인의	-1034
▁어린	-1035
▁외국	-1036
▁준비	-1037
의를	-1038
▁하지만	-1039
있는	-1040
tic	-1041
▁관광	-1042
부를	-1043
▁2007	-1044
▁편	-1045
▁건물	-1046
▁북한이	-1047
대의	-1048
▁자유	-1049
▁공식	-1050
▁선수	-1051
▁의원	-1052
▁이와	-1053
▁노동	-1054
▁몰	-1055
▁컴	-1056
얀마	-1057
▁이름	-1058
▁제작	-1059
▁ar	-1060
ig	-1061
회담	-1062
했으나	-1063
▁미얀마	-1064
▁번	-1065
지에	-1066
▁안전	-1067
음을	-1068
하기로	-1069
▁오후	-1070
▁지구	-1071
했었다	-1072
▁북한의	-1073
▁있던	-1074
샤라	-1075
식을	-1076
▁것에	-1077
▁공항	-1078
▁마지	-1079
▁받았	-1080
▁an	-1081
▁웹	-1082
▁니	-1083
선을	-1084
▁나는	-1085
다드	-1086
▁도착	-1087
▁은행	-1088
▁극	-1089
▁고위	-1090
▁자살	-1091
▁엘	-1092
대가	-1093
도를	-1094
▁바그	-1095
▁런	-1096
싱턴	-1097
인트	-1098
▁보고서	-1099
▁아시아	-1100
세를	-1101
▁여론	-1102
▁kore	-1103
▁건강	-1104
▁사회	-1105
▁힐러	-1106
▁길	-1107
▁29	-1108
▁스타	-1109
▁경찰이	-1110
▁인터뷰에서	-1111
▁착	-1112
▁노력	-1113
st	-1114
▁격	-1115
퓨터	-1116
▁팀	-1117
신은	-1118
▁런던	-1119
▁스페	-1120
ol	-1121
▁푸	-1122
▁알카	-1123
▁28	-1124
▁시민	-1125
▁이러	-1126
▁학교	-1127
▁미국이	-1128
회견	-1129
▁앞으로	-1130
▁워싱턴	-1131
ac	-1132
은행	-1133
▁com	-1134
▁이러한	-1135
▁컴퓨터	-1136
시켰	-1137
▁치료	-1138
▁바그다드	-1139
▁싶	-1140
▁갖고	-1141
▁사태	-1142
▁미국은	-1143
▁정부의	-1144
▁창	-1145
리의	-1146
문을	-1147
▁앞서	-1148
▁동물	-1149
▁마지막	-1150
▁있도록	-1151
▁밖	-1152
▁오는	-1153
▁북부	-1154
▁조직	-1155
나라	-1156
▁촉구	-1157
▁for	-1158
었던	-1159
▁거래	-1160
▁그녀는	-1161
장의	-1162
하는데	-1163
▁가진	-1164
▁인쇄	-1165
▁떨어진	-1166
▁강조했다	-1167
지가	-1168
지지	-1169
▁목표	-1170
씨는	-1171
▁도움	-1172
▁연합	-1173
et	-1174
▁윌	-1175
▁이탈	-1176
자와	-1177
▁놓	-1178
ad	-1179
▁빌	-1180
▁st	-1181
▁알카에	-1182
수를	-1183
▁발언	-1184
▁연설	-1185
▁기자회견	-1186
▁수상	-1187
▁공동	-1188
▁기업	-1189
하다고	-1190
▁돈	-1191
▁독해	-1192
▁비난했다	-1193
▁잃	-1194
▁거부	-1195
▁거의	-1196
▁유명	-1197
▁장관은	-1198
▁빈	-1199
있다	-1200
▁백악관	-1201
▁자신이	-1202
▁면	-1203
▁혼	-1204
▁결혼	-1205
▁규모	-1206
▁버락	-1207
▁느	-1208
조사	-1209
▁민간	-1210
▁성명	-1211
▁오전	-1212
▁활동	-1213
▁처음으로	-1214
bc	-1215
▁r	-1216
사일	-1217
▁논의	-1218
▁슈	-1219
회를	-1220
▁출신	-1221
▁국경	-1222
▁불법	-1223
▁차지	-1224
에서도	-1225
▁헬	-1226
▁가격	-1227
리포니아	-1228
▁삼	-1229
설명	-1230
▁소비	-1231
▁캘	-1232
같은	-1233
▁경쟁	-1234
▁수감	-1235
▁재판	-1236
했다는	-1237
▁198	-1238
▁남아	-1239
▁불구	-1240
▁타임	-1241
▁눈	-1242
▁판결	-1243
▁지난달	-1244
으로부터	-1245
▁독해설명	-1246
▁사람들은	-1247
동안	-1248
▁금지	-1249
하도록	-1250
▁수백	-1251
▁충돌	-1252
▁투자	-1253
됐으며	-1254
기도	-1255
▁이들은	-1256
▁밤	-1257
대한	-1258
▁이전	-1259
▁환경	-1260
▁헌	-1261
전히	-1262
▁부인	-1263
▁야당	-1264
▁이탈리아	-1265
가지	-1266
▁그것	-1267
샤라프	-1268
▁오바마는	-1269
▁보내	-1270
▁좋은	-1271
자들의	-1272
년에	-1273
니스탄	-1274
▁무샤라프	-1275
▁샤	-1276
심을	-1277
▁관한	-1278
▁다이	-1279
▁라이	-1280
▁사우	-1281
▁심각	-1282
▁베이징	-1283
마스	-1284
▁희생	-1285
인들이	-1286
▁있지만	-1287
▁즉	-1288
▁북한은	-1289
▁알카에다	-1290
▁un	-1291
▁참가	-1292
▁출연	-1293
▁통과	-1294
쳤다	-1295
▁많이	-1296
▁밝히	-1297
사이트	-1298
▁캘리포니아	-1299
▁아무	-1300
▁호텔	-1301
▁부족	-1302
합니다	-1303
들도	-1304
▁이곳	-1305
▁이런	-1306
▁폭력	-1307
▁퍼	-1308
사인	-1309
센트	-1310
▁운영	-1311
▁않는다	-1312
▁이상의	-1313
▁까지	-1314
▁주둔	-1315
군이	-1316
▁공급	-1317
▁콘	-1318
▁참여	-1319
▁만에	-1320
▁유지	-1321
▁친구	-1322
했을	-1323
▁움	-1324
▁늘	-1325
군은	-1326
제를	-1327
▁약속	-1328
▁역사	-1329
▁전망	-1330
▁미사일	-1331
▁보인다	-1332
세계	-1333
▁하루	-1334
▁지방	-1335
el	-1336
▁귀	-1337
규모	-1338
▁그를	-1339
▁못했다	-1340
am	-1341
▁범죄	-1342
▁문제를	-1343
▁감소	-1344
▁없이	-1345
▁코리아	-1346
스타	-1347
▁사망했다	-1348
▁몸	-1349
가니스탄	-1350
▁동영	-1351
▁우승	-1352
▁어린이	-1353
▁엄	-1354
▁대상	-1355
▁중요한	-1356
치가	-1357
▁수사	-1358
2005	-1359
▁아프가니스탄	-1360
국의	-1361
ur	-1362
안에	-1363
▁바이	-1364
니는	-1365
▁최초	-1366
▁artic	-1367
▁구성	-1368
▁이루	-1369
▁지진	-1370
▁article	-1371
감을	-1372
나는	-1373
▁낮	-1374
졌다고	-1375
ss	-1376
▁너	-1377
라도	-1378
베이	-1379
원들이	-1380
▁미국과	-1381
▁박사는	-1382
▁회담을	-1383
드의	-1384
▁갈	-1385
▁움직	-1386
▁징	-1387
▁이야	-1388
▁가자	-1389
▁변화	-1390
▁정도	-1391
▁불구하고	-1392
▁알려졌다	-1393
▁웹사이트	-1394
▁앤	-1395
▁60	-1396
▁000	-1397
자들에게	-1398
어진	-1399
▁독립	-1400
▁번째	-1401
▁공격을	-1402
▁응	-1403
대에	-1404
원에	-1405
▁일으	-1406
▁놀	-1407
▁보다	-1408
▁스페인	-1409
▁말했습니다	-1410
가를	-1411
르코	-1412
▁맡	-1413
▁반면	-1414
▁아버	-1415
▁장관	-1416
▁봉	-1417
사회	-1418
세의	-1419
▁특별	-1420
▁것입니다	-1421
트는	-1422
▁남성	-1423
▁역할	-1424
원들은	-1425
▁딸	-1426
▁부토	-1427
▁유권	-1428
▁전투	-1429
▁폐쇄	-1430
하자	-1431
▁힐러리	-1432
▁짐	-1433
▁퇴	-1434
▁대사	-1435
▁성명을	-1436
하던	-1437
▁인용	-1438
▁직접	-1439
후보	-1440
▁서비	-1441
리에서	-1442
▁사망한	-1443
▁31	-1444
▁안보	-1445
▁전에	-1446
기의	-1447
▁기소	-1448
▁것이라는	-1449
▁쇼	-1450
▁말을	-1451
▁확실	-1452
ay	-1453
▁웨	-1454
▁칼	-1455
가가	-1456
주는	-1457
▁내려	-1458
▁맨	-1459
리다	-1460
사전	-1461
▁기대	-1462
▁목격	-1463
▁회의	-1464
나라당	-1465
기구	-1466
부가	-1467
▁마을	-1468
▁발사	-1469
▁업	-1470
▁이것	-1471
▁사망했다고	-1472
▁글	-1473
ia	-1474
▁별	-1475
▁펼	-1476
▁ch	-1477
▁나라	-1478
▁신문	-1479
▁추정	-1480
▁통신	-1481
▁조치를	-1482
▁한나라당	-1483
계를	-1484
즈는	-1485
▁강화	-1486
▁높은	-1487
▁알고	-1488
▁데이비	-1489
▁모습을	-1490
▁대통령과	-1491
▁발생했다	-1492
un	-1493
스템	-1494
▁어려	-1495
▁콜롬	-1496
▁전세계	-1497
서를	-1498
▁기상	-1499
▁담당	-1500
▁지난주	-1501
만달러	-1502
▁의하면	-1503
▁가능성이	-1504
▁기간	-1505
▁레바	-1506
국은	-1507
▁강력	-1508
▁경선	-1509
▁으로	-1510
▁의견	-1511
▁인권	-1512
원에서	-1513
인들은	-1514
▁뿐	-1515
▁la	-1516
▁운동	-1517
▁혐의를	-1518
▁성명에서	-1519
▁황	-1520
물을	-1521
▁이제	-1522
▁중심	-1523
▁지나	-1524
▁행사	-1525
▁확보	-1526
▁뜻	-1527
▁캠	-1528
였던	-1529
▁더욱	-1530
▁전체	-1531
▁플로	-1532
▁지역에서	-1533
이가	-1534
▁되는	-1535
▁석유	-1536
▁인한	-1537
▁일반	-1538
▁주택	-1539
▁최대	-1540
회에서	-1541
▁레바논	-1542
대는	-1543
적이	-1544
ter	-1545
▁것이며	-1546
라인	-1547
해서	-1548
▁개인	-1549
▁중국의	-1550
하겠다고	-1551
▁개최	-1552
▁과정	-1553
▁소유	-1554
▁수천	-1555
▁팬	-1556
▁중앙	-1557
▁계획을	-1558
▁총리가	-1559
▁2004	-1560
▁믿	-1561
▁엔	-1562
▁문제가	-1563
점을	-1564
▁아침	-1565
▁화재	-1566
시킬	-1567
▁지역에	-1568
▁않았다고	-1569
▁의료	-1570
▁이뤄	-1571
▁필요한	-1572
베트	-1573
측은	-1574
▁때문	-1575
▁마련	-1576
▁핵무	-1577
▁매케인	-1578
▁입장을	-1579
ts	-1580
▁어제	-1581
▁위원	-1582
▁겪	-1583
훈련	-1584
▁us	-1585
▁아니다	-1586
자들	-1587
▁분석	-1588
us	-1589
▁히	-1590
슨은	-1591
시코	-1592
▁건설	-1593
▁사르코	-1594
갔다	-1595
두고	-1596
▁윌리	-1597
머니	-1598
스와	-1599
▁너무	-1600
▁먹	-1601
▁eu	-1602
▁남북	-1603
▁도로	-1604
ce	-1605
▁v	-1606
드가	-1607
라마	-1608
차례	-1609
시켰다	-1610
애나	-1611
▁남편	-1612
▁레이	-1613
▁시도	-1614
▁영향을	-1615
트를	-1616
▁실종	-1617
▁관련된	-1618
▁폭탄테러	-1619
50	-1620
▁억	-1621
리자	-1622
소를	-1623
▁있고	-1624
멕시코	-1625
부의	-1626
▁결국	-1627
▁타이	-1628
전에서	-1629
▁티베트	-1630
▁거주	-1631
▁남자	-1632
▁생활	-1633
▁증거	-1634
▁해외	-1635
▁한국의	-1636
▁콜롬비아	-1637
▁기자회견에서	-1638
▁교육	-1639
▁노무	-1640
▁선택	-1641
▁여자	-1642
▁없었다	-1643
▁울	-1644
▁연기	-1645
▁con	-1646
▁풀	-1647
▁효	-1648
▁ne	-1649
▁선언	-1650
년까지	-1651
▁받을	-1652
▁선고	-1653
▁수행	-1654
▁제조	-1655
▁타고	-1656
었으며	-1657
▁브라운	-1658
▁있었다고	-1659
드리	-1660
품을	-1661
▁노무현	-1662
▁korea	-1663
▁육	-1664
너지	-1665
▁여객	-1666
▁올라	-1667
한다는	-1668
▁and	-1669
스카	-1670
전이	-1671
지구	-1672
▁시설	-1673
▁재개	-1674
od	-1675
사와	-1676
▁문제에	-1677
는지	-1678
이자	-1679
▁또는	-1680
▁아마	-1681
라이나	-1682
▁우리가	-1683
▁탑	-1684
스크	-1685
▁산업	-1686
▁어떻	-1687
▁주변	-1688
▁소식통	-1689
▁둘	-1690
▁망	-1691
▁잔	-1692
▁얼마	-1693
▁이동	-1694
▁비용	-1695
▁시장	-1696
▁프리	-1697
▁2003	-1698
▁역시	-1699
▁주식	-1700
네시아	-1701
▁했다고	-1702
▁끌	-1703
▁나오	-1704
▁명이	-1705
▁사상	-1706
▁사건에	-1707
무를	-1708
텍사	-1709
▁드러	-1710
▁어떻게	-1711
ri	-1712
▁익	-1713
어가	-1714
▁행동	-1715
▁사람이	-1716
▁열리는	-1717
▁조사를	-1718
▁즐	-1719
스에	-1720
▁그렇	-1721
▁수준	-1722
▁음악	-1723
▁제안	-1724
▁해안	-1725
▁이유로	-1726
▁지도자	-1727
▁뇌	-1728
신을	-1729
위에	-1730
제로	-1731
하이	-1732
▁비상	-1733
▁관광객	-1734
▁찾아	-1735
▁총선	-1736
▁동영상	-1737
ve	-1738
▁곧	-1739
국이	-1740
만에	-1741
ver	-1742
▁내년	-1743
▁탐	-1744
버트	-1745
▁de	-1746
▁이끌	-1747
▁책임	-1748
▁아프리카	-1749
ow	-1750
▁찬	-1751
랐다	-1752
▁감염	-1753
▁의미	-1754
▁제기	-1755
▁화요일	-1756
▁인도네시아	-1757
명과	-1758
▁게임	-1759
▁자금	-1760
▁시스템	-1761
▁피해를	-1762
▁플로리다	-1763
▁샌	-1764
▁철수	-1765
▁201	-1766
▁500	-1767
▁라이스	-1768
▁정보를	-1769
▁붙	-1770
▁바로	-1771
▁훈련	-1772
▁멕시코	-1773
▁on	-1774
▁출전	-1775
스코	-1776
이를	-1777
▁내가	-1778
▁라는	-1779
▁일을	-1780
▁전달	-1781
▁회복	-1782
▁휴대	-1783
▁비디오	-1784
는다	-1785
스로	-1786
▁있게	-1787
▁말하는	-1788
▁예정이라고	-1789
▁전문가들은	-1790
▁구호	-1791
▁스티	-1792
▁왔다	-1793
▁제출	-1794
▁중동	-1795
▁윌리엄	-1796
▁자신들의	-1797
베스	-1798
정에	-1799
▁베네	-1800
쪽으로	-1801
▁대선후보	-1802
▁펜	-1803
술을	-1804
▁배우	-1805
년대	-1806
약을	-1807
학교	-1808
▁인구	-1809
포인트	-1810
▁대신	-1811
oc	-1812
▁답	-1813
당의	-1814
▁기념	-1815
▁따라	-1816
▁수십	-1817
▁부상을	-1818
▁정치적	-1819
무장관은	-1820
월에	-1821
프는	-1822
▁제재	-1823
▁텍사	-1824
▁2000	-1825
▁데이비드	-1826
ap	-1827
세력	-1828
▁국영	-1829
▁불가	-1830
▁실패	-1831
겠다는	-1832
▁보였다	-1833
ut	-1834
도가	-1835
▁as	-1836
▁사업	-1837
▁대규모	-1838
료를	-1839
▁헌법	-1840
촬영	-1841
▁일이	-1842
▁주말	-1843
소에서	-1844
ir	-1845
리트	-1846
억원	-1847
치고	-1848
▁대의	-1849
▁사라	-1850
▁추락	-1851
였다고	-1852
▁시작했다	-1853
▁부분	-1854
▁저장	-1855
▁파괴	-1856
▁그들의	-1857
▁위원회	-1858
▁흑	-1859
당한	-1860
부에	-1861
▁약어	-1862
▁전화	-1863
▁특히	-1864
▁상원의원	-1865
드로	-1866
만을	-1867
명에	-1868
일을	-1869
▁교통	-1870
▁부모	-1871
▁부정	-1872
▁제시	-1873
하려는	-1874
▁대피	-1875
▁보건	-1876
▁시아	-1877
▁사우디	-1878
▁앞두고	-1879
▁약어표	-1880
수지	-1881
어를	-1882
▁비롯	-1883
억달러	-1884
▁에너지	-1885
▁이같은	-1886
▁대부분의	-1887
▁사망하고	-1888
드를	-1889
스러	-1890
스턴	-1891
▁무기	-1892
▁수용	-1893
▁정확	-1894
▁지속	-1895
▁심각한	-1896
▁아니라	-1897
었습니다	-1898
▁벨	-1899
▁감시	-1900
▁관할	-1901
▁국내	-1902
▁송	-1903
▁싸	-1904
▁다우	-1905
▁수단	-1906
▁포함한	-1907
op	-1908
군의	-1909
▁고려	-1910
▁사과	-1911
▁아닌	-1912
▁작업	-1913
▁주도	-1914
▁촬영	-1915
▁희망	-1916
▁있었던	-1917
ge	-1918
▁돼	-1919
▁앨	-1920
나다	-1921
일에	-1922
프트	-1923
행을	-1924
▁가까	-1925
▁교수는	-1926
▁던	-1927
바이	-1928
수로	-1929
피언	-1930
▁그런	-1931
▁비판	-1932
▁포기	-1933
으로써	-1934
▁그들이	-1935
▁만들어	-1936
▁미국인	-1937
▁의원은	-1938
만이	-1939
▁살고	-1940
▁전국	-1941
▁조치	-1942
▁중인	-1943
▁사망자	-1944
▁이상이	-1945
▁붕	-1946
사에	-1947
연합	-1948
트로	-1949
▁협력	-1950
ta	-1951
성에	-1952
으면	-1953
폭탄	-1954
▁전해	-1955
▁라디오	-1956
▁가자지구	-1957
섰다	-1958
형을	-1959
▁입은	-1960
▁장면	-1961
▁가지고	-1962
▁것이라	-1963
▁지원을	-1964
신이	-1965
▁메시	-1966
▁수입	-1967
▁작은	-1968
▁직원	-1969
▁축구	-1970
▁탑승	-1971
▁홍콩	-1972
▁로버트	-1973
▁부통령	-1974
▁2002	-1975
▁2009	-1976
안이	-1977
회에	-1978
▁토론	-1979
▁여전히	-1980
▁한국인	-1981
ment	-1982
▁역할을	-1983
실을	-1984
위원	-1985
▁교도	-1986
▁만나	-1987
▁않다	-1988
▁의사	-1989
이라는	-1990
▁월요일	-1991
▁벗	-1992
르고	-1993
움을	-1994
▁안에	-1995
▁태국	-1996
▁당국이	-1997
▁마이클	-1998
고를	-1999
인지	-2000
정한	-2001
▁과거	-2002
▁붕괴	-2003
▁열차	-2004
▁전시	-2005
▁최종	-2006
▁푸틴	-2007
um	-2008
▁젊	-2009
바브	-2010
▁운전	-2011
바브웨	-2012
▁일본의	-2013
▁지역의	-2014
자회담	-2015
▁pro	-2016
▁온라인	-2017
▁이루어	-2018
▁생각한다	-2019
ot	-2020
▁먼	-2021
▁챔	-2022
겠다	-2023
년이	-2024
리그	-2025
시켜	-2026
and	-2027
▁le	-2028
▁시험	-2029
시키는	-2030
▁197	-2031
단은	-2032
들로	-2033
리노	-2034
만원	-2035
성은	-2036
▁기다	-2037
▁승객	-2038
▁나타났다	-2039
▁좌	-2040
▁06	-2041
▁되어	-2042
▁스미	-2043
▁월드	-2044
▁증시	-2045
▁브라질	-2046
ate	-2047
▁결의	-2048
▁난민	-2049
무장관	-2050
▁말한다	-2051
▁짐바브웨	-2052
▁씨	-2053
▁휘	-2054
▁저지	-2055
장으로	-2056
▁관계자가	-2057
▁촉구했다	-2058
보는	-2059
소에	-2060
▁be	-2061
▁없을	-2062
▁빨	-2063
▁풍	-2064
대표	-2065
시설	-2066
어들	-2067
▁국립	-2068
▁밝힌	-2069
▁국무부	-2070
ch	-2071
▁겨	-2072
ers	-2073
▁살아	-2074
▁생존	-2075
▁서로	-2076
▁아르	-2077
▁확산	-2078
리스트	-2079
스에서	-2080
▁경기에서	-2081
▁녹	-2082
▁섬	-2083
버그	-2084
▁다양	-2085
▁만약	-2086
▁암살	-2087
▁오른	-2088
▁정권	-2089
▁후보가	-2090
im	-2091
▁y	-2092
▁슬	-2093
란드	-2094
지의	-2095
▁비해	-2096
▁설치	-2097
▁성장	-2098
▁수색	-2099
▁정신	-2100
운드	-2101
ion	-2102
▁결승	-2103
▁그린	-2104
▁동맹	-2105
▁반응	-2106
▁식량	-2107
▁제한	-2108
▁하기	-2109
▁발표한	-2110
▁챔피언	-2111
▁뛰	-2112
방송	-2113
운티	-2114
▁35	-2115
▁80	-2116
▁구속	-2117
▁동료	-2118
▁상원	-2119
▁수는	-2120
▁승인	-2121
▁민간인	-2122
▁한다는	-2123
▁곤	-2124
▁낙	-2125
▁무엇	-2126
▁전통	-2127
▁제품	-2128
▁충분	-2129
▁케냐	-2130
▁회원	-2131
퍼센트	-2132
▁캐나다	-2133
▁경고했다	-2134
▁요구했다	-2135
수의	-2136
해를	-2137
▁심장	-2138
▁정당	-2139
▁차례	-2140
▁항의	-2141
▁시위를	-2142
▁사랑	-2143
▁사임	-2144
▁업체	-2145
▁외국인	-2146
▁밝혀졌다	-2147
단을	-2148
ill	-2149
▁선정	-2150
▁소송	-2151
▁수가	-2152
▁수출	-2153
▁지불	-2154
▁클린턴은	-2155
▁흔	-2156
운동	-2157
중인	-2158
▁가져	-2159
▁같이	-2160
▁발전	-2161
▁보수	-2162
▁실험	-2163
▁진압	-2164
▁치러	-2165
▁이름을	-2166
▁프라이	-2167
장인	-2168
▁is	-2169
▁공연	-2170
▁소방	-2171
▁페르	-2172
▁평가	-2173
▁활동을	-2174
▁미국에서	-2175
▁싱	-2176
시킨	-2177
이프	-2178
▁니콜	-2179
▁대법	-2180
▁병사	-2181
▁시즌	-2182
▁신용	-2183
▁위반	-2184
▁취임	-2185
▁경기를	-2186
▁관계를	-2187
▁사무총	-2188
▁여론조사	-2189
▁칸	-2190
려는	-2191
어나	-2192
지로	-2193
igh	-2194
▁경험	-2195
▁명령	-2196
▁분명	-2197
▁여름	-2198
▁종교	-2199
▁지하	-2200
년부터	-2201
하거나	-2202
▁결과를	-2203
▁내용을	-2204
▁상황을	-2205
▁시아파	-2206
▁중국은	-2207
▁핵무기	-2208
▁견	-2209
▁넣	-2210
년의	-2211
어는	-2212
▁것과	-2213
▁그래	-2214
▁다르	-2215
▁알리	-2216
▁에드	-2217
▁에이	-2218
▁지명	-2219
▁행위	-2220
인인	-2221
일한	-2222
책을	-2223
▁사령	-2224
▁추진	-2225
시키고	-2226
▁대변인이	-2227
안은	-2228
▁각각	-2229
▁선출	-2230
▁수석	-2231
▁젊은	-2232
▁접근	-2233
▁평균	-2234
하지만	-2235
▁감독은	-2236
▁달러의	-2237
▁프로그램을	-2238
ak	-2239
▁왔	-2240
지도	-2241
▁무역	-2242
▁있기	-2243
▁전반	-2244
▁경찰에	-2245
▁이라크에서	-2246
bs	-2247
▁홀	-2248
거래	-2249
르트	-2250
리와	-2251
▁ac	-2252
▁문화	-2253
▁성폭	-2254
▁스피	-2255
▁않아	-2256
▁취소	-2257
일까지	-2258
▁벤	-2259
관을	-2260
리케	-2261
ist	-2262
▁교황	-2263
▁동의	-2264
▁비밀	-2265
▁센터	-2266
▁총격	-2267
지니아	-2268
▁사건을	-2269
▁상원의원은	-2270
▁쉽	-2271
됐던	-2272
상이	-2273
▁소녀	-2274
▁장기	-2275
▁pre	-2276
▁이수지	-2277
▁행정부	-2278
▁대통령을	-2279
스럽	-2280
장과	-2281
정이	-2282
▁구제	-2283
▁나온	-2284
▁마무	-2285
▁벌어	-2286
▁아메	-2287
▁악화	-2288
▁통제	-2289
▁관심을	-2290
▁사건이	-2291
▁지지를	-2292
이로	-2293
▁게이	-2294
▁동부	-2295
▁밖에	-2296
▁사는	-2297
▁파병	-2298
▁국회의	-2299
▁그녀의	-2300
사건	-2301
오는	-2302
▁걸쳐	-2303
▁나토	-2304
▁받는	-2305
명으로	-2306
장관은	-2307
▁후보는	-2308
▁과정에서	-2309
▁왜	-2310
세인	-2311
엘라	-2312
▁32	-2313
▁가지	-2314
▁돈을	-2315
▁마감	-2316
▁연료	-2317
▁시리아	-2318
가로	-2319
▁90	-2320
▁검색	-2321
▁미래	-2322
▁상대	-2323
▁설립	-2324
▁아내	-2325
▁작품	-2326
만명의	-2327
관계	-2328
리핀	-2329
▁th	-2330
▁뉴스	-2331
▁대중	-2332
▁시카	-2333
▁지켜	-2334
▁집중	-2335
지에서	-2336
▁사이에	-2337
도의	-2338
되기	-2339
었고	-2340
적을	-2341
▁그룹	-2342
▁대비	-2343
▁바란	-2344
▁보유	-2345
▁임명	-2346
▁중에	-2347
▁파견	-2348
▁비행기	-2349
▁잉	-2350
▁개혁	-2351
▁주재	-2352
▁허용	-2353
무부는	-2354
▁경찰서	-2355
▁대상으로	-2356
니스	-2357
로는	-2358
리우	-2359
소의	-2360
▁개선	-2361
▁경영	-2362
▁논쟁	-2363
▁뜻을	-2364
▁북핵	-2365
▁사퇴	-2366
▁온몸	-2367
▁유죄	-2368
▁수요일	-2369
▁대해서는	-2370
▁되고	-2371
▁로켓	-2372
▁이집	-2373
▁혼란	-2374
▁어머니	-2375
▁관계자들은	-2376
앞서	-2377
▁45	-2378
▁동성	-2379
▁북한에	-2380
▁정부에	-2381
명박	-2382
▁구매	-2383
▁대응	-2384
▁배치	-2385
▁야후	-2386
▁환영	-2387
시키기	-2388
캐스터	-2389
▁바이러	-2390
▁베네수	-2391
▁시카고	-2392
▁알려진	-2393
▁총리의	-2394
▁텍사스	-2395
▁사람들을	-2396
▁이에앞서	-2397
se	-2398
▁옮	-2399
진이	-2400
▁공습	-2401
▁블로	-2402
▁조건	-2403
대통령	-2404
자들과	-2405
▁상대로	-2406
▁이명박	-2407
▁온몸으로	-2408
▁흥	-2409
나지	-2410
진을	-2411
회는	-2412
▁넘어	-2413
▁등의	-2414
▁이해	-2415
▁인간	-2416
▁해리	-2417
▁해야	-2418
▁196	-2419
▁300	-2420
▁new	-2421
▁변호사는	-2422
▁기상캐스터	-2423
▁깨	-2424
▁찰	-2425
기와	-2426
끄는	-2427
비를	-2428
어도	-2429
학생	-2430
▁남한	-2431
▁로마	-2432
▁서부	-2433
▁이래	-2434
▁이로	-2435
▁좋아	-2436
▁발견된	-2437
▁벌이고	-2438
▁승리를	-2439
▁홈	-2440
단이	-2441
메라	-2442
▁09	-2443
▁전역	-2444
▁표현	-2445
▁민주주의	-2446
▁아직까지	-2447
관리	-2448
워드	-2449
일간	-2450
회가	-2451
▁두고	-2452
▁사형	-2453
▁선포	-2454
▁임시	-2455
▁사실이	-2456
▁기록했다	-2457
if	-2458
리지	-2459
물이	-2460
트의	-2461
▁양국	-2462
▁크게	-2463
▁사람은	-2464
구를	-2465
▁70	-2466
▁at	-2467
▁강한	-2468
▁아랍	-2469
▁적이	-2470
▁때까지	-2471
▁사이트	-2472
▁합니다	-2473
▁밝혔습니다	-2474
▁상원의원이	-2475
▁갑	-2476
▁깊	-2477
산을	-2478
우주	-2479
▁고용	-2480
▁고통	-2481
▁복귀	-2482
▁신화	-2483
졌으며	-2484
▁벌였다	-2485
uc	-2486
asa	-2487
▁자체	-2488
일부터	-2489
▁결정을	-2490
▁받아들	-2491
▁폭력사태	-2492
bi	-2493
지인	-2494
▁모델	-2495
▁분쟁	-2496
▁인수	-2497
▁재정	-2498
▁쿠바	-2499
▁펜실	-2500
통신은	-2501
▁마이크	-2502
▁목요일	-2503
▁아니라고	-2504
▁윈	-2505
려고	-2506
프로	-2507
▁같다	-2508
▁바다	-2509
▁스트	-2510
▁최악	-2511
▁한반	-2512
▁효과	-2513
2006	-2514
▁검찰은	-2515
▁그것은	-2516
▁다양한	-2517
▁대사관	-2518
▁도움이	-2519
▁무장단체	-2520
▁오바마가	-2521
▁위해서는	-2522
가고	-2523
르게	-2524
선거	-2525
▁관해	-2526
▁구체	-2527
▁따른	-2528
▁마크	-2529
▁파업	-2530
▁하마스	-2531
되었다고	-2532
▁사르코지	-2533
사로	-2534
▁광고	-2535
▁기관	-2536
▁등을	-2537
▁연결	-2538
▁이틀	-2539
▁전자	-2540
▁베네수엘라	-2541
▁솔	-2542
많은	-2543
상의	-2544
식이	-2545
진은	-2546
▁검토	-2547
▁받게	-2548
▁보좌	-2549
▁아바	-2550
▁지시	-2551
▁집권	-2552
▁해당	-2553
▁강력한	-2554
▁못하고	-2555
▁치료를	-2556
▁회장은	-2557
▁2001	-2558
▁능	-2559
밖에	-2560
화가	-2561
▁36	-2562
▁부근	-2563
▁살인	-2564
▁주한	-2565
트에서	-2566
▁달러를	-2567
▁상황이	-2568
▁수많은	-2569
▁필리핀	-2570
▁보고서는	-2571
▁린	-2572
▁고속	-2573
▁단계	-2574
▁매년	-2575
▁분야	-2576
▁일자	-2577
▁집행	-2578
▁포르	-2579
▁도움을	-2580
▁미군이	-2581
▁일요일	-2582
▁nasa	-2583
▁버지니아	-2584
ae	-2585
▁컨	-2586
르드	-2587
리로	-2588
리즈	-2589
자에	-2590
▁높아	-2591
▁어느	-2592
▁전략	-2593
▁가능한	-2594
▁있다며	-2595
▁자신을	-2596
군과	-2597
▁sh	-2598
▁못한	-2599
▁사항	-2600
▁선박	-2601
▁제임	-2602
였으며	-2603
점에서	-2604
하기도	-2605
▁방법을	-2606
▁공격으로	-2607
▁이라크에	-2608
▁긴급	-2609
▁받지	-2610
▁압둘	-2611
▁자녀	-2612
▁지휘	-2613
▁진출	-2614
▁확신	-2615
▁계획이다	-2616
▁무장세력	-2617
▁프라이머	-2618
▁둔	-2619
르타	-2620
이드	-2621
이어	-2622
▁고객	-2623
▁에어	-2624
▁징역	-2625
▁처리	-2626
▁정부와	-2627
▁타임즈	-2628
▁ro	-2629
▁강제	-2630
▁대만	-2631
▁선두	-2632
▁수익	-2633
▁아파	-2634
▁영국의	-2635
em	-2636
ul	-2637
로를	-2638
이션	-2639
이의	-2640
▁go	-2641
▁관심	-2642
▁근처	-2643
▁나머	-2644
▁누구	-2645
▁예측	-2646
▁있지	-2647
▁주의	-2648
▁힘들	-2649
스러운	-2650
▁이라크의	-2651
▁주지사는	-2652
▁사람들에게	-2653
다면	-2654
도에	-2655
차를	-2656
표를	-2657
▁나와	-2658
▁순간	-2659
▁시행	-2660
▁입원	-2661
▁향해	-2662
었지만	-2663
자에게	-2664
▁내렸다	-2665
▁오하이	-2666
▁이끄는	-2667
▁플레이	-2668
▁발견했다	-2669
▁언급했다	-2670
▁빅	-2671
▁잭	-2672
위로	-2673
▁공산	-2674
▁미국을	-2675
▁론	-2676
배를	-2677
율을	-2678
이라	-2679
회사	-2680
▁노조	-2681
▁막기	-2682
▁비슷	-2683
▁빠져	-2684
▁스위	-2685
▁오래	-2686
▁정말	-2687
▁제거	-2688
▁국방부	-2689
▁일리노	-2690
▁협상을	-2691
▁다이애나	-2692
▁받았다고	-2693
▁맺	-2694
▁쉬	-2695
키는	-2696
▁근거	-2697
▁만큼	-2698
▁소재	-2699
▁승무	-2700
▁어떠	-2701
▁잘못	-2702
되면서	-2703
▁밝히지	-2704
▁후보를	-2705
▁오하이오	-2706
▁졸	-2707
▁펠	-2708
가인	-2709
줬다	-2710
▁he	-2711
▁고등	-2712
▁도쿄	-2713
▁착륙	-2714
▁다음달	-2715
▁사람들의	-2716
▁요청했다	-2717
▁냉	-2718
없이	-2719
자이	-2720
▁논란	-2721
▁마약	-2722
▁만든	-2723
▁목숨	-2724
▁비교	-2725
▁인디	-2726
▁달하는	-2727
▁성폭행	-2728
▁이것은	-2729
▁이란이	-2730
▁정상회담	-2731
▁주장하고	-2732
▁탁	-2733
법을	-2734
직을	-2735
▁sp	-2736
▁스포	-2737
▁위성	-2738
가들은	-2739
하였다	-2740
▁되었다	-2741
▁숨지고	-2742
▁이들의	-2743
▁이란의	-2744
▁정도로	-2745
▁1000	-2746
ef	-2747
▁찍	-2748
데이	-2749
비치	-2750
상에	-2751
생활	-2752
ity	-2753
▁개의	-2754
▁둘러	-2755
▁세르	-2756
▁수치	-2757
▁자연	-2758
▁후에	-2759
▁병력을	-2760
▁북한을	-2761
▁비난을	-2762
▁작업을	-2763
▁최고의	-2764
▁허리케	-2765
였습니다	-2766
겼다	-2767
상태	-2768
시는	-2769
식에	-2770
제가	-2771
▁소말	-2772
▁신고	-2773
▁여기	-2774
▁집단	-2775
▁하마	-2776
글랜드	-2777
해왔다	-2778
▁어떠한	-2779
▁우리의	-2780
▁소말리아	-2781
▁예상된다	-2782
▁묘	-2783
년을	-2784
▁대회	-2785
▁라며	-2786
▁제외	-2787
▁케이	-2788
▁하며	-2789
▁했던	-2790
대에서	-2791
으로서	-2792
▁여성이	-2793
▁움직임	-2794
▁지역을	-2795
▁일리노이	-2796
ks	-2797
▁삶	-2798
▁십	-2799
결을	-2800
소가	-2801
즈니	-2802
피아	-2803
▁끝에	-2804
▁물론	-2805
▁세금	-2806
▁인물	-2807
▁출발	-2808
된다고	-2809
여명이	-2810
▁말레이	-2811
▁사진을	-2812
▁여부를	-2813
▁적어도	-2814
롤라이나	-2815
▁낸	-2816
기간	-2817
사한	-2818
▁37	-2819
▁계약	-2820
▁공공	-2821
▁되지	-2822
▁모른	-2823
▁보낸	-2824
▁분리	-2825
▁슈퍼	-2826
▁입고	-2827
▁대표는	-2828
▁미군은	-2829
30	-2830
내는	-2831
라스	-2832
측이	-2833
▁알렉	-2834
▁폭풍	-2835
▁항상	-2836
전으로	-2837
▁시간을	-2838
▁시간이	-2839
▁프로젝	-2840
러는	-2841
화에	-2842
▁경비	-2843
▁기후	-2844
▁수니	-2845
▁접촉	-2846
▁증언	-2847
▁진술	-2848
▁400	-2849
▁미국에	-2850
▁사이클	-2851
▁완전히	-2852
▁유명한	-2853
폭탄테러	-2854
▁결정했다	-2855
▁발생했다고	-2856
▁듯	-2857
▁묻	-2858
▁습	-2859
당은	-2860
롭게	-2861
리기	-2862
하메	-2863
▁am	-2864
▁넘는	-2865
▁베컴	-2866
▁시상	-2867
▁아카	-2868
▁의혹	-2869
▁이달	-2870
▁목숨을	-2871
▁병원에	-2872
▁블로그	-2873
▁올랐다	-2874
▁쿠르드	-2875
▁한국은	-2876
▁술	-2877
같이	-2878
개발	-2879
도는	-2880
▁se	-2881
▁su	-2882
▁wh	-2883
▁군인	-2884
▁불안	-2885
▁씨는	-2886
▁압박	-2887
▁예비	-2888
▁자치	-2889
▁조종	-2890
만명이	-2891
▁fbi	-2892
▁발생해	-2893
▁사건은	-2894
▁유일한	-2895
▁이야기	-2896
▁질문에	-2897
▁주민들이	-2898
▁늦	-2899
량을	-2900
보를	-2901
▁검사	-2902
▁목소	-2903
▁시청	-2904
▁신뢰	-2905
▁아주	-2906
▁의심	-2907
▁일간	-2908
▁적절	-2909
▁출마	-2910
하지는	-2911
▁정부를	-2912
▁최초의	-2913
na	-2914
▁좀	-2915
경을	-2916
스토	-2917
▁거절	-2918
▁경매	-2919
▁노스	-2920
▁대기	-2921
▁무너	-2922
▁바람	-2923
▁보이	-2924
▁아베	-2925
▁청소	-2926
▁관련해	-2927
▁방안을	-2928
▁사고가	-2929
▁휴대폰	-2930
▁지도자인	-2931
▁korean	-2932
▁끊	-2933
석을	-2934
성의	-2935
연구	-2936
art	-2937
▁가스	-2938
▁근무	-2939
▁리버	-2940
▁수술	-2941
▁인사	-2942
▁즉각	-2943
▁해군	-2944
됩니다	-2945
▁가졌다	-2946
▁서비스	-2947
▁이집트	-2948
ld	-2949
▁삭	-2950
기지	-2951
나이	-2952
들어	-2953
상은	-2954
티나	-2955
▁01	-2956
▁물러	-2957
▁유로	-2958
▁카르	-2959
▁대해서	-2960
▁보여주	-2961
▁사고로	-2962
▁아무런	-2963
▁언론은	-2964
▁정책을	-2965
지역에서	-2966
▁과학자들은	-2967
os	-2968
▁간의	-2969
▁규정	-2970
▁기준	-2971
▁총재	-2972
▁평양	-2973
▁나왔다	-2974
▁않았지만	-2975
되었습니다	-2976
▁걱	-2977
▁득	-2978
▁톰	-2979
르의	-2980
소는	-2981
안보	-2982
어난	-2983
주일	-2984
크는	-2985
▁가질	-2986
▁것인	-2987
▁기억	-2988
▁여왕	-2989
▁적용	-2990
▁존재	-2991
한다면	-2992
▁게이츠	-2993
▁규모의	-2994
▁중국이	-2995
▁카운티	-2996
▁합의했다	-2997
▁확인했다	-2998
ly	-2999
▁흡	-3000
국인	-3001
대와	-3002
량의	-3003
아니	-3004
위가	-3005
장관	-3006
▁al	-3007
▁동결	-3008
▁동원	-3009
▁머물	-3010
▁청와	-3011
월부터	-3012
하다는	-3013
▁목표로	-3014
▁방문한	-3015
▁제임스	-3016
qu	-3017
마다	-3018
시에	-3019
해진	-3020
▁개정	-3021
▁등록	-3022
▁성화	-3023
▁장난	-3024
▁저는	-3025
▁트럭	-3026
▁한미	-3027
했는데	-3028
5000	-3029
▁의견을	-3030
▁차베스	-3031
▁최악의	-3032
▁반대하는	-3033
▁오바마의	-3034
▁말레이시아	-3035
▁듣	-3036
▁땅	-3037
▁옷	-3038
군을	-3039
그룹	-3040
량이	-3041
렀다	-3042
비행	-3043
세로	-3044
웠다	-3045
▁숨진	-3046
▁실업	-3047
▁애플	-3048
▁영어	-3049
▁유대	-3050
▁유전	-3051
▁이민	-3052
▁해병	-3053
▁행정	-3054
▁힐튼	-3055
일랜드	-3056
▁우려를	-3057
캐롤라이나	-3058
경기	-3059
되며	-3060
세가	-3061
트가	-3062
▁느끼	-3063
▁말리	-3064
▁병력	-3065
▁블레	-3066
▁자주	-3067
▁점을	-3068
▁코소	-3069
▁투입	-3070
▁그리스	-3071
▁보이는	-3072
▁사무실	-3073
▁연설을	-3074
▁덴	-3075
▁멸	-3076
국을	-3077
브라	-3078
어야	-3079
위는	-3080
이기	-3081
한을	-3082
ary	-3083
▁48	-3084
▁en	-3085
▁고양	-3086
▁당신	-3087
▁들고	-3088
▁박물	-3089
▁법률	-3090
▁부동	-3091
▁블랙	-3092
▁상징	-3093
▁생물	-3094
▁야생	-3095
▁이송	-3096
▁죽음	-3097
하라고	-3098
▁내무부	-3099
▁마드리	-3100
▁법안을	-3101
▁판결을	-3102
▁필요가	-3103
위원회는	-3104
▁크리스토	-3105
▁테러리스트	-3106
▁굴	-3107
▁품	-3108
뉴스	-3109
단의	-3110
로스	-3111
문이	-3112
방을	-3113
서부	-3114
인과	-3115
치의	-3116
호를	-3117
▁고래	-3118
▁기본	-3119
▁나가	-3120
▁놓고	-3121
▁새로	-3122
▁아들	-3123
▁오픈	-3124
▁저항	-3125
▁최신	-3126
▁현대	-3127
▁대의원	-3128
▁스포츠	-3129
▁계속해서	-3130
▁델	-3131
▁빙	-3132
개를	-3133
리프	-3134
베즈	-3135
협회	-3136
▁근로	-3137
▁매일	-3138
▁몇몇	-3139
▁임무	-3140
▁저녁	-3141
▁주최	-3142
▁차기	-3143
▁찰스	-3144
▁피터	-3145
리우드	-3146
▁나머지	-3147
▁잉글랜드	-3148
▁돕	-3149
▁벽	-3150
가의	-3151
골을	-3152
데미	-3153
동부	-3154
역을	-3155
ith	-3156
▁46	-3157
▁ms	-3158
▁도중	-3159
▁동시	-3160
▁부패	-3161
▁신청	-3162
▁약물	-3163
▁없어	-3164
▁올메	-3165
▁위기	-3166
▁작년	-3167
▁전혀	-3168
았다고	-3169
2007	-3170
▁미군의	-3171
▁수니파	-3172
▁숨졌다	-3173
▁하원의	-3174
tal	-3175
▁것도	-3176
▁세력	-3177
▁연속	-3178
▁주는	-3179
▁홍보	-3180
▁bbc	-3181
▁그에게	-3182
▁있음을	-3183
▁카메라	-3184
▁세르비아	-3185
▁밴	-3186
oun	-3187
▁38	-3188
▁ag	-3189
▁국회	-3190
▁다니	-3191
▁물질	-3192
▁민병	-3193
▁싶어	-3194
▁얼굴	-3195
▁작성	-3196
▁지연	-3197
▁통합	-3198
▁흑인	-3199
아니라	-3200
지수는	-3201
▁곳에서	-3202
▁입었다	-3203
▁전까지	-3204
▁판사는	-3205
▁후보에	-3206
▁밝혀지지	-3207
▁주민들은	-3208
▁잇	-3209
기관	-3210
사고	-3211
율이	-3212
친구	-3213
평양	-3214
▁ex	-3215
▁노래	-3216
▁대처	-3217
▁무가	-3218
▁분노	-3219
▁수반	-3220
▁억류	-3221
▁언제	-3222
▁여당	-3223
▁완화	-3224
▁확대	-3225
났다고	-3226
여명의	-3227
원으로	-3228
▁마무리	-3229
▁스스로	-3230
▁의원이	-3231
▁이라는	-3232
▁선거에서	-3233
ag	-3234
▁괴	-3235
결과	-3236
로서	-3237
트리	-3238
트에	-3239
▁구입	-3240
▁대형	-3241
▁무사	-3242
▁불러	-3243
▁스테	-3244
▁싱가	-3245
▁오랫	-3246
▁인상	-3247
▁하이	-3248
▁부시는	-3249
▁시장은	-3250
▁매케인은	-3251
▁비상사태	-3252
▁연설에서	-3253
▁오랫동안	-3254
▁갤	-3255
▁년	-3256
▁쥐	-3257
률이	-3258
▁보장	-3259
▁빠른	-3260
▁작전	-3261
▁파손	-3262
라비아	-3263
주에서	-3264
▁스피어	-3265
▁이들을	-3266
▁확실히	-3267
만아니라	-3268
▁숨졌다고	-3269
미터	-3270
보가	-3271
분이	-3272
우고	-3273
▁ce	-3274
▁pl	-3275
▁겪고	-3276
▁나이	-3277
▁등이	-3278
▁불과	-3279
▁우크	-3280
▁주인	-3281
▁직후	-3282
▁클럽	-3283
▁태양	-3284
▁핵심	-3285
▁cat	-3286
▁그렇게	-3287
▁자금을	-3288
▁발견됐다	-3289
ational	-3290
▁칠	-3291
마일	-3292
만명	-3293
만의	-3294
복을	-3295
실험	-3296
았던	-3297
웨이	-3298
지와	-3299
프라	-3300
항공	-3301
▁op	-3302
▁개봉	-3303
▁모여	-3304
▁상당	-3305
▁연장	-3306
▁지배	-3307
렸다고	-3308
▁소식을	-3309
▁없다는	-3310
▁웨스트	-3311
▁이들이	-3312
하겠다는	-3313
▁병원에서	-3314
도시	-3315
르기	-3316
민주	-3317
바는	-3318
세기	-3319
우리	-3320
sid	-3321
▁42	-3322
▁교수	-3323
▁낮은	-3324
▁리처	-3325
▁맞아	-3326
▁멸종	-3327
▁사살	-3328
▁산불	-3329
▁수정	-3330
▁실제	-3331
▁알게	-3332
▁알아	-3333
▁열릴	-3334
▁예방	-3335
▁오랜	-3336
▁자세	-3337
▁조작	-3338
겠지만	-3339
▁대화를	-3340
▁얼마나	-3341
▁위기에	-3342
▁책임을	-3343
▁가능성을	-3344
▁민주당의	-3345
▁병원으로	-3346
▁회담에서	-3347
▁크리스토퍼	-3348
▁앉	-3349
▁죄	-3350
가스	-3351
푸르	-3352
arc	-3353
ine	-3354
▁감축	-3355
▁끌어	-3356
▁두려	-3357
▁아기	-3358
▁왕세	-3359
▁원조	-3360
▁조금	-3361
▁집계	-3362
▁처벌	-3363
▁축하	-3364
▁허가	-3365
▁말하고	-3366
▁바란다	-3367
▁원자로	-3368
▁행동을	-3369
▁아카데미	-3370
▁허리케인	-3371
대원	-3372
승을	-3373
포를	-3374
ode	-3375
▁결론	-3376
▁곳에	-3377
▁내각	-3378
▁노출	-3379
▁북극	-3380
이지만	-3381
▁떨어져	-3382
▁변호사	-3383
▁보이고	-3384
▁주장을	-3385
▁중이다	-3386
▁관리들은	-3387
da	-3388
▁멀	-3389
▁색	-3390
▁혹	-3391
리오	-3392
분을	-3393
선에	-3394
aea	-3395
▁경호	-3396
▁공군	-3397
▁그중	-3398
▁떠나	-3399
▁목적	-3400
▁방향	-3401
▁의한	-3402
▁자료	-3403
▁총기	-3404
▁카라	-3405
식으로	-3406
월까지	-3407
▁경찰과	-3408
▁발생할	-3409
▁사람들	-3410
▁이란은	-3411
▁iaea	-3412
▁with	-3413
▁부상했다고	-3414
tp	-3415
▁궁	-3416
▁래	-3417
개국	-3418
리며	-3419
▁강타	-3420
▁개입	-3421
▁기반	-3422
▁네덜	-3423
▁법정	-3424
▁이혼	-3425
▁절반	-3426
▁주고	-3427
▁질병	-3428
▁차관	-3429
하메드	-3430
orth	-3431
▁150	-3432
▁cia	-3433
▁기회를	-3434
▁남성이	-3435
▁노력을	-3436
▁무가베	-3437
▁보냈다	-3438
▁사우스	-3439
▁시작된	-3440
▁월드컵	-3441
▁일어난	-3442
▁고속도로	-3443
▁소식통은	-3444
▁전망이다	-3445
iv	-3446
▁숙	-3447
▁헨	-3448
내고	-3449
단한	-3450
조직	-3451
체를	-3452
▁나무	-3453
▁브리	-3454
▁영한	-3455
▁주로	-3456
▁표명	-3457
▁한영	-3458
▁동성애	-3459
▁문제는	-3460
▁위험한	-3461
▁집에서	-3462
▁부인했다	-3463
▁영한사전	-3464
▁펜실베이	-3465
▁한영사전	-3466
디에	-3467
슨이	-3468
▁44	-3469
▁고든	-3470
▁말한	-3471
▁먼저	-3472
▁바르	-3473
▁외환	-3474
▁크로	-3475
▁스티브	-3476
▁후보로	-3477
▁블로그에	-3478
▁올메르트	-3479
▁위원장은	-3480
▁사망했으며	-3481
▁우크라이나	-3482
▁펜실베이니아	-3483
▁휩	-3484
란시	-3485
산업	-3486
▁75	-3487
▁fr	-3488
▁ht	-3489
▁가정	-3490
▁걱정	-3491
▁놀라	-3492
▁대북	-3493
▁속에	-3494
▁엄마	-3495
▁인기	-3496
▁입장	-3497
▁해제	-3498
▁후반	-3499
▁sou	-3500
▁결과가	-3501
▁경제적	-3502
▁리처드	-3503
▁블레어	-3504
▁비슷한	-3505
▁출신의	-3506
▁메시지를	-3507
▁total	-3508
▁대통령에게	-3509
▁롤	-3510
▁염	-3511
▁획	-3512
디아	-3513
만한	-3514
증을	-3515
체가	-3516
▁보기	-3517
▁보험	-3518
▁사례	-3519
▁서명	-3520
▁안정	-3521
▁연루	-3522
▁원유	-3523
▁전력	-3524
▁조정	-3525
▁지급	-3526
▁찬성	-3527
▁파리	-3528
▁파악	-3529
▁피랍	-3530
▁asp	-3531
▁wor	-3532
▁기록을	-3533
▁대표팀	-3534
▁석방을	-3535
▁스미스	-3536
▁일본은	-3537
▁최소한	-3538
▁http	-3539
▁사용하는	-3540
▁있었으며	-3541
▁낳	-3542
▁윤	-3543
▁킹	-3544
다른	-3545
디어	-3546
소로	-3547
치로	-3548
타임	-3549
▁네팔	-3550
▁단지	-3551
▁대체	-3552
▁망명	-3553
▁못할	-3554
▁장애	-3555
▁태풍	-3556
▁하게	-3557
▁하다	-3558
인들의	-3559
ight	-3560
▁거대한	-3561
▁구성된	-3562
▁기자는	-3563
▁변화를	-3564
▁영화를	-3565
▁이밖에	-3566
▁이용해	-3567
▁일부는	-3568
▁노대통령	-3569
▁이야기를	-3570
▁긍	-3571
▁봤	-3572
라의	-3573
스키	-3574
위의	-3575
지게	-3576
티아	-3577
▁배럴	-3578
▁총을	-3579
▁케네	-3580
▁표시	-3581
관계를	-3582
됐지만	-3583
프리카	-3584
code	-3585
▁것처럼	-3586
▁기자가	-3587
▁들어가	-3588
▁스티븐	-3589
▁실시된	-3590
▁알려져	-3591
▁있는데	-3592
▁1999	-3593
▁대통령에	-3594
▁차지했다	-3595
▁혈	-3596
드와	-3597
들린	-3598
보고	-3599
분의	-3600
▁34	-3601
▁기타	-3602
▁김정	-3603
▁내부	-3604
▁대답	-3605
▁바라	-3606
▁손을	-3607
▁쇼핑	-3608
▁시드	-3609
▁아부	-3610
▁얻은	-3611
▁일정	-3612
▁진입	-3613
▁가까운	-3614
▁문제로	-3615
▁아직도	-3616
▁임무를	-3617
▁테러로	-3618
▁후보의	-3619
▁후세인	-3620
▁자신들이	-3621
▁빼	-3622
계의	-3623
르크	-3624
보호	-3625
점에	-3626
하우	-3627
항을	-3628
▁pp	-3629
▁구글	-3630
▁분위	-3631
▁해변	-3632
사에서	-3633
쳤다고	-3634
▁법원은	-3635
▁불만을	-3636
▁회원국	-3637
▁공화당의	-3638
▁north	-3639
경제	-3640
라늄	-3641
우는	-3642
정보	-3643
통신	-3644
투표	-3645
▁기독	-3646
▁당한	-3647
▁라스	-3648
▁며칠	-3649
▁무시	-3650
▁벌인	-3651
▁비자	-3652
▁빨리	-3653
▁시신	-3654
▁원자	-3655
▁이행	-3656
▁인종	-3657
▁점령	-3658
▁파타	-3659
당국은	-3660
인으로	-3661
자들에	-3662
▁가격이	-3663
▁관리는	-3664
▁나섰다	-3665
▁실제로	-3666
▁위해서	-3667
▁정확한	-3668
함으로써	-3669
▁farc	-3670
▁없습니다	-3671
▁사무총장은	-3672
▁자살폭탄테러	-3673
▁혁	-3674
경찰	-3675
랭킹	-3676
면을	-3677
스테	-3678
연맹	-3679
하길	-3680
ice	-3681
ign	-3682
our	-3683
▁33	-3684
▁고문	-3685
▁국왕	-3686
▁글로	-3687
▁늘어	-3688
▁물리	-3689
▁쉽게	-3690
▁시티	-3691
▁애완	-3692
▁이웃	-3693
▁임신	-3694
▁클라	-3695
▁프레	-3696
▁확정	-3697
더라도	-3698
돌리자	-3699
환으로	-3700
▁상황에	-3701
▁아르헨	-3702
▁엘리자	-3703
▁추가로	-3704
▁한반도	-3705
들로부터	-3706
▁끼	-3707
▁몬	-3708
국가	-3709
점이	-3710
청은	-3711
est	-3712
▁51	-3713
▁52	-3714
▁가는	-3715
▁대화	-3716
▁음식	-3717
▁지키	-3718
▁최저	-3719
▁추방	-3720
▁한번	-3721
▁형태	-3722
▁발언을	-3723
▁사용할	-3724
▁살해한	-3725
▁소프트	-3726
▁실시한	-3727
▁않다고	-3728
▁압력을	-3729
▁테러를	-3730
▁하워드	-3731
▁south	-3732
▁!	-3733
▁르	-3734
▁멜	-3735
▁섹	-3736
▁셰	-3737
기고	-3738
당이	-3739
재판	-3740
주를	-3741
▁그와	-3742
▁긍정	-3743
▁기울	-3744
▁내린	-3745
▁다가	-3746
▁부활	-3747
▁실망	-3748
▁응답	-3749
▁자국	-3750
▁증명	-3751
▁직면	-3752
드에서	-3753
지역에	-3754
▁전쟁을	-3755
▁줄어들	-3756
▁테러범	-3757
▁토요일	-3758
▁한국과	-3759
▁회담은	-3760
▁나타냈다	-3761
▁보고서를	-3762
▁상황에서	-3763
▁멋	-3764
▁첼	-3765
니가	-3766
바로	-3767
배우	-3768
일린	-3769
ace	-3770
ard	-3771
▁메이	-3772
▁반발	-3773
▁방해	-3774
▁신속	-3775
▁작가	-3776
▁활용	-3777
▁ira	-3778
▁수술을	-3779
▁여행을	-3780
▁용의자	-3781
▁현장에	-3782
ee	-3783
▁꾸	-3784
▁콩	-3785
다가	-3786
되면	-3787
부와	-3788
비가	-3789
오와	-3790
짜리	-3791
출을	-3792
ial	-3793
▁af	-3794
▁교체	-3795
▁내에	-3796
▁노벨	-3797
▁연락	-3798
▁제이	-3799
▁즉시	-3800
▁토니	-3801
▁화산	-3802
체스터	-3803
▁강하게	-3804
▁그녀가	-3805
▁남북한	-3806
▁요구한	-3807
▁이전에	-3808
▁준비가	-3809
▁투표를	-3810
▁행위를	-3811
▁콘돌리자	-3812
▁할리우드	-3813
가에	-3814
격이	-3815
고한	-3816
라가	-3817
슬러	-3818
제에	-3819
▁47	-3820
▁거짓	-3821
▁방어	-3822
▁사기	-3823
▁수퍼	-3824
▁순찰	-3825
▁스코	-3826
▁애틀	-3827
▁오마	-3828
▁우선	-3829
▁장악	-3830
▁전기	-3831
▁크루	-3832
▁하원	-3833
하려고	-3834
▁검사를	-3835
▁경기에	-3836
▁계획이	-3837
▁드라마	-3838
▁요구를	-3839
▁참석한	-3840
▁코소보	-3841
▁서비스를	-3842
▁시작됐다	-3843
▁우주비행	-3844
ip	-3845
▁꺾	-3846
르토	-3847
정책	-3848
티는	-3849
ian	-3850
▁sc	-3851
▁가수	-3852
▁마리	-3853
▁만족	-3854
▁복용	-3855
▁예술	-3856
▁와인	-3857
▁완전	-3858
▁요르	-3859
▁페더	-3860
▁협조	-3861
지면서	-3862
2008	-3863
▁fta	-3864
▁기술을	-3865
▁대사는	-3866
▁대학의	-3867
▁모스크	-3868
▁불가능	-3869
▁사건의	-3870
▁소비자	-3871
▁여행객	-3872
▁이번이	-3873
▁차량을	-3874
▁테러가	-3875
▁페일린	-3876
▁않는다고	-3877
▁요구하는	-3878
▁유럽연합	-3879
▁신화통신은	-3880
▁액	-3881
마크	-3882
분기	-3883
수도	-3884
주교	-3885
준다	-3886
트남	-3887
▁55	-3888
▁cl	-3889
▁끝난	-3890
▁몰아	-3891
▁미시	-3892
▁법안	-3893
▁사드	-3894
▁자택	-3895
▁증권	-3896
스럽게	-3897
이었던	-3898
▁기독교	-3899
▁말리키	-3900
▁외무부	-3901
▁의장은	-3902
▁총격을	-3903
▁포르투	-3904
란시스코	-3905
▁1997	-3906
▁구체적인	-3907
▁소프트웨	-3908
▁약속했다	-3909
▁열린우리	-3910
▁조사하고	-3911
▁웃	-3912
무역	-3913
비는	-3914
셀로	-3915
이던	-3916
축구	-3917
▁im	-3918
▁감행	-3919
▁갖추	-3920
▁기구	-3921
▁날씨	-3922
▁되면	-3923
▁법적	-3924
▁부문	-3925
▁캠프	-3926
▁흔들	-3927
관들은	-3928
리포터	-3929
상으로	-3930
하라는	-3931
▁리버풀	-3932
▁매들린	-3933
▁보이지	-3934
▁싱가포	-3935
▁의사를	-3936
▁이것이	-3937
▁회담에	-3938
▁수천명의	-3939
▁페르베즈	-3940
▁포함되어	-3941
▁이스라엘의	-3942
ba	-3943
▁앙	-3944
▁캄	-3945
글라	-3946
워크	-3947
호가	-3948
▁가택	-3949
▁운행	-3950
▁유니	-3951
▁유세	-3952
▁철회	-3953
질랜드	-3954
▁국가의	-3955
▁김정일	-3956
▁비롯한	-3957
▁소송을	-3958
▁시상식	-3959
▁아바스	-3960
▁아이를	-3961
▁위협을	-3962
▁주에서	-3963
▁체포된	-3964
▁핵실험	-3965
▁iraq	-3966
▁못했다고	-3967
▁사이클론	-3968
▁아이들을	-3969
▁아이들이	-3970
▁없었다고	-3971
▁필요하다	-3972
▁웹사이트에	-3973
▁빛	-3974
▁옆	-3975
계획	-3976
기문	-3977
미르	-3978
어로	-3979
일로	-3980
처를	-3981
▁긴장	-3982
▁나달	-3983
▁내놓	-3984
▁장례	-3985
▁해적	-3986
래스카	-3987
사들이	-3988
적이고	-3989
▁194	-3990
▁250	-3991
▁600	-3992
▁cbs	-3993
▁론스타	-3994
▁발표할	-3995
▁베트남	-3996
▁부동산	-3997
▁시리즈	-3998
▁했으며	-3999
▁회담이	-4000
▁뉴질랜드	-4001
▁대부분은	-4002
▁맨체스터	-4003
▁받아들이	-4004
▁인터뷰를	-4005
▁지지하는	-4006
▁공식적으로	-4007
▁크리스마스	-4008
80	-4009
▁곡	-4010
▁앓	-4011
간다	-4012
계에	-4013
드에	-4014
디는	-4015
아몬	-4016
전의	-4017
환을	-4018
all	-4019
▁스파	-4020
▁아래	-4021
▁올랐	-4022
▁이재	-4023
▁이하	-4024
▁캠페	-4025
▁탈출	-4026
▁탐사	-4027
▁헤럴	-4028
▁헬기	-4029
때문에	-4030
▁ceo	-4031
▁독립을	-4032
▁됐다고	-4033
▁선거를	-4034
▁속에서	-4035
▁에이즈	-4036
▁우라늄	-4037
▁이르는	-4038
▁있는지	-4039
▁있으나	-4040
▁조지아	-4041
▁중에는	-4042
▁포인트	-4043
▁1990	-4044
▁1998	-4045
▁당선인은	-4046
▁영국에서	-4047
▁중이라고	-4048
▁현장에서	-4049
▁아르헨티나	-4050
20	-4051
ry	-4052
▁얘	-4053
▁훌	-4054
간에	-4055
네이	-4056
동물	-4057
됐고	-4058
령을	-4059
리언	-4060
분에	-4061
츠는	-4062
측의	-4063
함을	-4064
▁강경	-4065
▁관여	-4066
▁상업	-4067
▁소지	-4068
▁적극	-4069
▁조각	-4070
▁집을	-4071
▁침해	-4072
▁패션	-4073
▁힘든	-4074
국으로	-4075
▁sec	-4076
▁경찰관	-4077
▁만드는	-4078
▁않으면	-4079
▁얻었다	-4080
▁테이프	-4081
▁1980	-4082
▁포르투갈	-4083
▁학생들이	-4084
▁쌍	-4085
▁혜	-4086
금이	-4087
단에	-4088
랑카	-4089
발유	-4090
주로	-4091
▁02	-4092
▁마르	-4093
▁마치	-4094
▁변경	-4095
▁부대	-4096
▁브루	-4097
▁사법	-4098
▁삼성	-4099
▁오르	-4100
▁외곽	-4101
▁이른	-4102
▁전면	-4103
▁질문	-4104
▁찾기	-4105
▁초기	-4106
▁형성	-4107
▁호소	-4108
▁화성	-4109
플레이	-4110
▁계획에	-4111
▁국제유	-4112
▁반기문	-4113
▁않도록	-4114
▁역사상	-4115
▁일어나	-4116
▁장관이	-4117
▁지수는	-4118
▁휘발유	-4119
▁지진으로	-4120
▁엘리자베스	-4121
▁붉	-4122
과는	-4123
선이	-4124
제는	-4125
한이	-4126
▁가입	-4127
▁나쁜	-4128
▁로봇	-4129
▁마음	-4130
▁마카	-4131
▁믿고	-4132
▁산타	-4133
▁소요	-4134
▁오사	-4135
▁유혈	-4136
▁인하	-4137
▁학살	-4138
▁향후	-4139
▁협의	-4140
▁화학	-4141
사회의	-4142
왔다고	-4143
▁ppp	-4144
▁리비아	-4145
▁사람의	-4146
▁이상을	-4147
▁주인공	-4148
▁인정했다	-4149
dc	-4150
kg	-4151
pl	-4152
▁꿈	-4153
▁흘	-4154
수한	-4155
어스	-4156
쪽에	-4157
측에	-4158
트릭	-4159
했기	-4160
▁56	-4161
▁57	-4162
▁mo	-4163
▁답변	-4164
▁수영	-4165
▁어렵	-4166
▁육군	-4167
▁음반	-4168
▁입양	-4169
▁집에	-4170
▁탁신	-4171
▁화장	-4172
격으로	-4173
었으나	-4174
▁min	-4175
▁권리를	-4176
▁최근의	-4177
▁때문이다	-4178
▁총선에서	-4179
▁덮	-4180
▁훨	-4181
나와	-4182
대학	-4183
류의	-4184
리드	-4185
리조	-4186
미디	-4187
슨의	-4188
자기	-4189
팀은	-4190
▁or	-4191
▁대량	-4192
▁배심	-4193
▁불참	-4194
▁소개	-4195
▁음모	-4196
▁착용	-4197
▁콘서	-4198
▁훨씬	-4199
▁곳으로	-4200
▁공격이	-4201
▁단체는	-4202
▁박물관	-4203
▁벌어진	-4204
▁스위스	-4205
▁압둘라	-4206
▁영화는	-4207
▁오스트	-4208
▁크라이	-4209
▁예정이며	-4210
▁정치적인	-4211
▁타임즈는	-4212
▁20080	-4213
me	-4214
▁옥	-4215
건의	-4216
시티	-4217
원과	-4218
치지	-4219
하마	-4220
ort	-4221
▁43	-4222
▁53	-4223
▁ad	-4224
▁가득	-4225
▁걸어	-4226
▁국무	-4227
▁랭킹	-4228
▁방침	-4229
▁보냈	-4230
▁샌프	-4231
▁서식	-4232
▁성인	-4233
▁스웨	-4234
▁실행	-4235
▁앨범	-4236
▁예산	-4237
▁이렇	-4238
▁잠재	-4239
▁좋지	-4240
▁착수	-4241
으로는	-4242
▁dna	-4243
▁들었다	-4244
▁반정부	-4245
▁북한과	-4246
▁사람을	-4247
▁일본이	-4248
▁충분한	-4249
▁포함해	-4250
▁협상이	-4251
▁모하메드	-4252
▁요구하고	-4253
▁이라크전	-4254
▁하락했다	-4255
▁샌프란시스코	-4256
▁칭	-4257
거리	-4258
대전	-4259
리칸	-4260
만큼	-4261
백만	-4262
시장	-4263
십자	-4264
ure	-4265
▁ab	-4266
▁성향	-4267
▁수집	-4268
▁심한	-4269
▁영토	-4270
▁주간	-4271
▁중재	-4272
▁천연	-4273
▁해고	-4274
년에는	-4275
▁관리가	-4276
▁발언은	-4277
▁불리는	-4278
▁사태가	-4279
▁의회의	-4280
▁특별한	-4281
▁대변인인	-4282
▁대부분이	-4283
▁만들었다	-4284
▁방법으로	-4285
▁주장하는	-4286
▁해결하기	-4287
▁해리포터	-4288
▁국무장관은	-4289
▁빚	-4290
고래	-4291
금융	-4292
시각	-4293
원인	-4294
터를	-4295
티모	-4296
ess	-4297
▁가르	-4298
▁기능	-4299
▁네트	-4300
▁대다	-4301
▁맞서	-4302
▁맨유	-4303
▁무력	-4304
▁무릎	-4305
▁밀란	-4306
▁붉은	-4307
▁스리	-4308
▁시절	-4309
▁심리	-4310
▁이익	-4311
▁지목	-4312
▁치안	-4313
▁침체	-4314
▁특파	-4315
▁패배	-4316
▁해산	-4317
▁헤즈	-4318
나이티	-4319
틀랜드	-4320
해졌다	-4321
▁가능성	-4322
▁경제학	-4323
▁방문할	-4324
▁요르단	-4325
▁우승을	-4326
▁익명의	-4327
▁주한미	-4328
함에따라	-4329
▁거주하는	-4330
▁네덜란드	-4331
▁입었다고	-4332
▁presid	-4333
▁든	-4334
▁밑	-4335
▁택	-4336
▁텔	-4337
건을	-4338
로의	-4339
르가	-4340
ans	-4341
▁41	-4342
▁49	-4343
▁54	-4344
▁64	-4345
▁거뒀	-4346
▁그곳	-4347
▁나를	-4348
▁달리	-4349
▁로이	-4350
▁문을	-4351
▁온난	-4352
▁위안	-4353
▁유리	-4354
▁이메	-4355
▁전개	-4356
▁접속	-4357
▁지출	-4358
▁회견	-4359
▁획득	-4360
라운드	-4361
▁who	-4362
▁경찰의	-4363
▁그들을	-4364
▁된다고	-4365
▁반응을	-4366
▁벗어나	-4367
▁원하는	-4368
▁이끌어	-4369
▁경선에서	-4370
▁생각하고	-4371
▁알려지지	-4372
▁의원들은	-4373
▁딜	-4374
동이	-4375
렬한	-4376
므로	-4377
일이	-4378
▁05	-4379
▁39	-4380
▁66	-4381
▁bo	-4382
▁공중	-4383
▁누군	-4384
▁담배	-4385
▁도달	-4386
▁로스	-4387
▁리콜	-4388
▁법원	-4389
▁보석	-4390
▁보조	-4391
▁복제	-4392
▁소탕	-4393
▁영변	-4394
▁이르	-4395
▁찾는	-4396
▁측근	-4397
▁치명	-4398
▁편집	-4399
▁폐기	-4400
▁하와	-4401
▁합동	-4402
▁800	-4403
▁남자가	-4404
▁밖으로	-4405
▁의회가	-4406
▁적절한	-4407
▁코미디	-4408
▁태평양	-4409
▁항공사	-4410
▁헤즈볼	-4411
▁희생자	-4412
▁다이아몬	-4413
▁어려움을	-4414
▁파키스탄의	-4415
tv	-4416
▁뒷	-4417
▁뽑	-4418
▁뿌	-4419
▁엑	-4420
▁켄	-4421
▁흉	-4422
▁흐	-4423
데타	-4424
바다	-4425
병을	-4426
시가	-4427
실에	-4428
양의	-4429
었을	-4430
영화	-4431
져야	-4432
치에	-4433
▁도전	-4434
▁마틴	-4435
▁말해	-4436
▁명은	-4437
▁식품	-4438
▁싶다	-4439
▁약간	-4440
▁잠시	-4441
▁주목	-4442
▁취할	-4443
▁허락	-4444
달러에	-4445
에게는	-4446
▁결정은	-4447
▁금요일	-4448
▁나타나	-4449
▁대변인	-4450
▁루이스	-4451
▁모습이	-4452
▁바라고	-4453
▁생각을	-4454
▁외교부	-4455
▁이번주	-4456
▁자리를	-4457
▁제안을	-4458
▁조사에	-4459
▁중국에	-4460
▁청소년	-4461
▁케네디	-4462
▁항공기	-4463
▁comm	-4464
▁will	-4465
▁러시아의	-4466
▁아일랜드	-4467
▁알래스카	-4468
▁이곳에서	-4469
▁발견했다고	-4470
계가	-4471
구가	-4472
담을	-4473
발을	-4474
브는	-4475
세츠	-4476
스톤	-4477
켰다	-4478
훼손	-4479
▁권고	-4480
▁농축	-4481
▁버마	-4482
▁베를	-4483
▁소년	-4484
▁시기	-4485
▁재산	-4486
▁주석	-4487
▁카페	-4488
▁폭우	-4489
일간의	-4490
▁mar	-4491
▁nbc	-4492
▁관계가	-4493
▁사건과	-4494
▁에드워	-4495
▁여성은	-4496
▁전화를	-4497
▁중국과	-4498
무장관이	-4499
▁말합니다	-4500
▁사건으로	-4501
▁아이오와	-4502
▁않았으며	-4503
▁유나이티	-4504
▁체포됐다	-4505
▁현지시각	-4506
▁필요하다고	-4507
og	-4508
▁걷	-4509
▁봄	-4510
격한	-4511
군에	-4512
나미	-4513
루살	-4514
류를	-4515
선의	-4516
업이	-4517
ies	-4518
▁fa	-4519
▁담긴	-4520
▁도와	-4521
▁보관	-4522
▁성과	-4523
▁옮겨	-4524
▁적은	-4525
▁내용이	-4526
▁모두가	-4527
▁발표된	-4528
▁선거캠	-4529
▁수사를	-4530
▁신문은	-4531
▁알렉산	-4532
▁우려가	-4533
▁의회는	-4534
▁장면을	-4535
▁쿠데타	-4536
프로그램	-4537
▁공개했다	-4538
▁동영상을	-4539
▁드러났다	-4540
▁떨어졌다	-4541
▁챔피언스	-4542
▁이스라엘과	-4543
cm	-4544
▁균	-4545
▁뮤	-4546
개가	-4547
됐을	-4548
라덴	-4549
인에	-4550
장한	-4551
주간	-4552
차가	-4553
차로	-4554
▁tr	-4555
▁귀국	-4556
▁끝나	-4557
▁디스	-4558
▁만한	-4559
▁바꾸	-4560
▁보면	-4561
▁보통	-4562
▁서방	-4563
▁수요	-4564
▁얼음	-4565
▁에도	-4566
▁자랑	-4567
▁주가	-4568
▁찾고	-4569
▁추측	-4570
▁콜로	-4571
▁트리	-4572
▁해수	-4573
▁휴전	-4574
사들은	-4575
▁nat	-4576
▁갑자기	-4577
▁관심이	-4578
▁다우존	-4579
▁샤리프	-4580
▁어려운	-4581
▁핵시설	-4582
▁회사의	-4583
▁회의를	-4584
라이라마	-4585
▁도착했다	-4586
▁보여주는	-4587
▁언급하지	-4588
▁예상했다	-4589
▁중국에서	-4590
▁현재까지	-4591
바라	-4592
시의	-4593
자금	-4594
제도	-4595
타나	-4596
▁겨울	-4597
▁교회	-4598
▁마흐	-4599
▁만날	-4600
▁메르	-4601
▁명예	-4602
▁모르	-4603
▁사찰	-4604
▁소행	-4605
▁스키	-4606
▁오브	-4607
▁원제	-4608
▁일은	-4609
▁자이	-4610
▁중독	-4611
▁커피	-4612
▁포경	-4613
▁훌륭	-4614
루살렘	-4615
실에서	-4616
▁195	-4617
▁강력히	-4618
▁당했다	-4619
▁시위대	-4620
▁시작한	-4621
▁이렇게	-4622
▁작전을	-4623
▁총리와	-4624
▁최초로	-4625
▁카스트	-4626
▁통신은	-4627
▁했지만	-4628
▁회사인	-4629
이지리아	-4630
▁처음이다	-4631
▁달라이라마	-4632
▁대선후보인	-4633
ab	-4634
ey	-4635
▁횡	-4636
공화	-4637
나가	-4638
일의	-4639
졌던	-4640
하라	-4641
▁07	-4642
▁61	-4643
▁걸릴	-4644
▁경계	-4645
▁권력	-4646
▁나누	-4647
▁대리	-4648
▁동반	-4649
▁뛰어	-4650
▁라파	-4651
▁맞이	-4652
▁소환	-4653
▁시인	-4654
▁연관	-4655
▁이주	-4656
▁진정	-4657
▁체니	-4658
▁추산	-4659
▁파티	-4660
▁판단	-4661
▁합법	-4662
▁흡연	-4663
번째로	-4664
상에서	-4665
하고자	-4666
했는지	-4667
▁대법원	-4668
▁명령을	-4669
▁아버지	-4670
▁여성의	-4671
▁올렸다	-4672
▁지금은	-4673
▁청와대	-4674
▁치러진	-4675
▁하나의	-4676
▁chin	-4677
▁다르푸르	-4678
▁마이크로	-4679
▁모스크바	-4680
▁사망자가	-4681
▁일환으로	-4682
▁inter	-4683
▁나이지리아	-4684
▁워싱턴에서	-4685
국적	-4686
로드	-4687
리게	-4688
마리	-4689
수에	-4690
용을	-4691
율은	-4692
일리	-4693
지어	-4694
판을	-4695
anc	-4696
▁개막	-4697
▁남은	-4698
▁모인	-4699
▁설득	-4700
▁세워	-4701
▁업무	-4702
▁오염	-4703
▁음주	-4704
▁자리	-4705
▁정기	-4706
▁통치	-4707
▁폭락	-4708
▁가까이	-4709
▁거래를	-4710
▁것보다	-4711
▁게임을	-4712
▁경제가	-4713
▁문제의	-4714
▁밖에서	-4715
▁보좌관	-4716
▁연구를	-4717
▁유사한	-4718
▁장난감	-4719
▁타격을	-4720
▁노력하고	-4721
▁보고했다	-4722
▁스리랑카	-4723
▁아메리칸	-4724
▁일자리를	-4725
▁추정되는	-4726
ud	-4727
▁셀	-4728
내에	-4729
도르	-4730
되자	-4731
만은	-4732
사추	-4733
시피	-4734
아이	-4735
즈가	-4736
트너	-4737
ong	-4738
▁강요	-4739
▁걸친	-4740
▁골을	-4741
▁공무	-4742
▁교착	-4743
▁나의	-4744
▁단순	-4745
▁대출	-4746
▁명백	-4747
▁발굴	-4748
▁복잡	-4749
▁부과	-4750
▁불을	-4751
▁신경	-4752
▁신체	-4753
▁이사	-4754
▁작동	-4755
▁장식	-4756
▁점점	-4757
▁초대	-4758
▁통화	-4759
▁피고	-4760
글라데	-4761
▁pol	-4762
▁res	-4763
▁공격에	-4764
▁그것이	-4765
▁당신이	-4766
▁모른다	-4767
▁못하는	-4768
▁밝히고	-4769
▁시위에	-4770
▁아이의	-4771
▁않지만	-4772
▁이유는	-4773
▁지진이	-4774
▁화재가	-4775
▁목적으로	-4776
▁방글라데	-4777
▁방문했다	-4778
▁부상했다	-4779
▁선거운동	-4780
▁시장에서	-4781
▁이와같은	-4782
▁오스트리아	-4783
▁national	-4784
ue	-4785
▁록	-4786
▁샘	-4787
▁쏟	-4788
내기	-4789
닷컴	-4790
라디	-4791
불어	-4792
주에	-4793
킬로	-4794
통상	-4795
end	-4796
iss	-4797
▁pe	-4798
▁관객	-4799
▁그에	-4800
▁기존	-4801
▁길을	-4802
▁깊은	-4803
▁대책	-4804
▁매각	-4805
▁방영	-4806
▁산악	-4807
▁선보	-4808
▁소설	-4809
▁스튜	-4810
▁앉아	-4811
▁야기	-4812
▁자본	-4813
▁전당	-4814
▁조선	-4815
▁조합	-4816
▁지정	-4817
▁치열	-4818
▁특정	-4819
▁파예	-4820
▁하면	-4821
▁호세	-4822
아시아	-4823
회사인	-4824
vern	-4825
▁경제에	-4826
▁더불어	-4827
▁반군이	-4828
▁시신을	-4829
▁시위가	-4830
▁아무도	-4831
▁여객기	-4832
▁위기를	-4833
▁진행된	-4834
▁계속되고	-4835
▁성공했다	-4836
▁기자회견을	-4837
▁넓	-4838
▁짧	-4839
▁틀	-4840
번의	-4841
상과	-4842
세포	-4843
스틴	-4844
평화	-4845
▁ec	-4846
▁그림	-4847
▁나서	-4848
▁나스	-4849
▁나아	-4850
▁내릴	-4851
▁도입	-4852
▁레드	-4853
▁사냥	-4854
▁상품	-4855
▁새끼	-4856
▁서브	-4857
▁수송	-4858
▁아스	-4859
▁엄청	-4860
▁에는	-4861
▁엘리	-4862
▁의존	-4863
▁자기	-4864
▁출시	-4865
▁취재	-4866
▁칠레	-4867
▁폭행	-4868
▁피난	-4869
▁하늘	-4870
▁합류	-4871
▁해양	-4872
▁후임	-4873
▁훼손	-4874
국장은	-4875
년간의	-4876
달러를	-4877
보다는	-4878
음에도	-4879
▁jap	-4880
▁관련이	-4881
▁달러에	-4882
▁됩니다	-4883
▁무기를	-4884
▁사태를	-4885
▁생활을	-4886
▁수백만	-4887
▁언론이	-4888
▁의회에	-4889
▁있다면	-4890
▁주지사	-4891
사추세츠	-4892
▁것이라며	-4893
▁고등학교	-4894
▁국무장관	-4895
▁싱가포르	-4896
▁연구진은	-4897
▁조사에서	-4898
▁바그다드에서	-4899
▁president	-4900
25	-4901
▁묵	-4902
▁털	-4903
국에	-4904
대회	-4905
드시	-4906
바키	-4907
선은	-4908
정은	-4909
튜브	-4910
프리	-4911
후드	-4912
▁sa	-4913
▁건축	-4914
▁검거	-4915
▁관람	-4916
▁부여	-4917
▁비록	-4918
▁식당	-4919
▁여겨	-4920
▁이중	-4921
▁인식	-4922
▁잔해	-4923
▁전날	-4924
▁전직	-4925
▁추적	-4926
▁파산	-4927
▁폐지	-4928
부에서	-4929
으면서	-4930
있었다	-4931
▁off	-4932
▁것이고	-4933
▁계획은	-4934
▁남아공	-4935
▁논의할	-4936
▁덴마크	-4937
▁레이스	-4938
▁사실상	-4939
▁스웨덴	-4940
▁시설을	-4941
▁야당인	-4942
▁없으며	-4943
▁위험이	-4944
▁이유를	-4945
▁폭발로	-4946
▁증가하고	-4947
▁japan	-4948
▁남아프리카	-4949
▁이스라엘이	-4950
▁노스캐롤라이나	-4951
▁섭	-4952
▁숫	-4953
▁쌓	-4954
라미	-4955
린다	-4956
수인	-4957
없는	-4958
틀러	-4959
학자	-4960
ack	-4961
ama	-4962
ust	-4963
▁65	-4964
▁그루	-4965
▁나갈	-4966
▁농민	-4967
▁달성	-4968
▁돌려	-4969
▁멋진	-4970
▁버스	-4971
▁봉쇄	-4972
▁부총	-4973
▁사담	-4974
▁은신	-4975
▁의학	-4976
▁트레	-4977
▁풀려	-4978
▁행복	-4979
▁혜택	-4980
▁힘을	-4981
개월간	-4982
▁dis	-4983
▁것인지	-4984
▁결정에	-4985
▁그래서	-4986
▁민주화	-4987
▁부상자	-4988
▁분명히	-4989
▁빠르게	-4990
▁신원을	-4991
▁폭탄이	-4992
졌습니다	-4993
▁기다리고	-4994
▁인디애나	-4995
▁자리에서	-4996
▁주지사가	-4997
▁클린턴이	-4998
▁지도자들은	-4999
▁govern	-5000
to	-5001
▁멈	-5002
네스	-5003
분간	-5004
실이	-5005
이크	-5006
하였	-5007
efa	-5008
ell	-5009
led	-5010
ren	-5011
▁73	-5012
▁co	-5013
▁가옥	-5014
▁고조	-5015
▁대항	-5016
▁독재	-5017
▁말라	-5018
▁명확	-5019
▁모색	-5020
▁목록	-5021
▁무료	-5022
▁문서	-5023
▁받기	-5024
▁성적	-5025
▁실질	-5026
▁줄기	-5027
▁철도	-5028
▁체결	-5029
▁출석	-5030
▁출판	-5031
▁콩고	-5032
▁페루	-5033
작업을	-5034
점으로	-5035
eric	-5036
▁ioc	-5037
▁가격을	-5038
▁국경을	-5039
▁그동안	-5040
▁따라서	-5041
▁반드시	-5042
▁시드니	-5043
▁운동을	-5044
▁이재민	-5045
▁피해가	-5046
▁해결을	-5047
▁2010	-5048
▁uefa	-5049
▁국제사회	-5050
▁부근에서	-5051
▁세계대전	-5052
▁시위대는	-5053
▁여자친구	-5054
▁예루살렘	-5055
▁운영하는	-5056
▁제안했다	-5057
▁챔피언스리그	-5058
▁캔	-5059
산화	-5060
수와	-5061
어버	-5062
어의	-5063
지기	-5064
진다	-5065
ant	-5066
▁82	-5067
▁가량	-5068
▁고발	-5069
▁군부	-5070
▁극단	-5071
▁노예	-5072
▁득표	-5073
▁배출	-5074
▁비서	-5075
▁빠진	-5076
▁열대	-5077
▁완벽	-5078
▁운송	-5079
▁인공	-5080
▁자원	-5081
▁절대	-5082
▁하던	-5083
는지는	-5084
들과의	-5085
리조나	-5086
▁계약을	-5087
▁권력을	-5088
▁내용의	-5089
▁니콜라	-5090
▁돌아가	-5091
▁말까지	-5092
▁방문을	-5093
▁승무원	-5094
▁시장에	-5095
▁있었고	-5096
▁정확히	-5097
▁조치가	-5098
▁준비를	-5099
▁증거를	-5100
▁질문을	-5101
▁한국이	-5102
▁보인다고	-5103
▁시스템을	-5104
▁외교통상	-5105
ations	-5106
▁과학자들이	-5107
▁이스라엘은	-5108
ib	-5109
▁옐	-5110
▁읽	-5111
▁척	-5112
공항	-5113
대중	-5114
명도	-5115
봉송	-5116
시를	-5117
아야	-5118
안전	-5119
우스	-5120
일러	-5121
일은	-5122
주가	-5123
터는	-5124
트라	-5125
혔다	-5126
ire	-5127
ton	-5128
▁03	-5129
▁77	-5130
▁ra	-5131
▁감바	-5132
▁고대	-5133
▁고향	-5134
▁광산	-5135
▁구출	-5136
▁근본	-5137
▁누가	-5138
▁등장	-5139
▁디지	-5140
▁민감	-5141
▁승려	-5142
▁아웅	-5143
▁유력	-5144
▁자극	-5145
▁자산	-5146
▁자선	-5147
▁재검	-5148
▁조기	-5149
▁철저	-5150
▁측은	-5151
▁클리	-5152
▁후세	-5153
▁고통을	-5154
▁대가로	-5155
▁선거에	-5156
▁적십자	-5157
▁제재를	-5158
▁주식시	-5159
▁줄리아	-5160
▁회사는	-5161
▁훈련을	-5162
▁국민들은	-5163
▁국방부는	-5164
▁네트워크	-5165
▁시위대가	-5166
▁위원회는	-5167
▁이라크를	-5168
▁관계자들이	-5169
▁마지막으로	-5170
ll	-5171
▁쇠	-5172
나마	-5173
냐는	-5174
네자	-5175
령은	-5176
에선	-5177
연금	-5178
정거	-5179
함이	-5180
lec	-5181
▁59	-5182
▁it	-5183
▁강도	-5184
▁결선	-5185
▁골프	-5186
▁국정	-5187
▁기지	-5188
▁달려	-5189
▁되찾	-5190
▁레알	-5191
▁마찬	-5192
▁매장	-5193
▁분열	-5194
▁불능	-5195
▁선물	-5196
▁소매	-5197
▁소수	-5198
▁아동	-5199
▁아름	-5200
▁앤드	-5201
▁올린	-5202
▁운항	-5203
▁유가	-5204
▁이양	-5205
▁주문	-5206
▁청문	-5207
▁추구	-5208
▁출동	-5209
▁커플	-5210
▁코커	-5211
레이크	-5212
베이거	-5213
업체인	-5214
▁frb	-5215
▁공연을	-5216
▁네바다	-5217
▁능력을	-5218
▁마치고	-5219
▁사령관	-5220
▁에어버	-5221
▁유럽의	-5222
▁이로써	-5223
▁이후로	-5224
▁nato	-5225
▁마찬가지	-5226
▁생각하는	-5227
▁의회에서	-5228
▁제공하는	-5229
▁지역으로	-5230
▁외무장관은	-5231
▁폭탄테러가	-5232
ub	-5233
▁z	-5234
▁낭	-5235
▁뼈	-5236
라로	-5237
르도	-5238
유지	-5239
주고	-5240
티스	-5241
ash	-5242
und	-5243
▁58	-5244
▁교환	-5245
▁급속	-5246
▁리히	-5247
▁만난	-5248
▁만일	-5249
▁무죄	-5250
▁민족	-5251
▁보잉	-5252
▁브래	-5253
▁수의	-5254
▁연주	-5255
▁위조	-5256
▁응급	-5257
▁입증	-5258
▁장착	-5259
▁재미	-5260
▁재배	-5261
▁재활	-5262
▁텔레	-5263
▁통일	-5264
달라고	-5265
레스트	-5266
움에서	-5267
▁감독이	-5268
▁고양이	-5269
▁납치된	-5270
▁다국적	-5271
▁변화가	-5272
▁사장은	-5273
▁상태에	-5274
▁소식이	-5275
▁아마디	-5276
▁안전한	-5277
▁전쟁에	-5278
▁프리미	-5279
▁한국에	-5280
▁혐의가	-5281
아라비아	-5282
▁대선에서	-5283
▁러시아는	-5284
▁성화봉송	-5285
▁일본에서	-5286
▁핵무기를	-5287
▁발생했으며	-5288
▁보고서에서	-5289
▁일반적으로	-5290
▁사우디아라비아	-5291
▁값	-5292
▁똑	-5293
▁왼	-5294
교도	-5295
니의	-5296
질을	-5297
첨단	-5298
탄을	-5299
해질	-5300
화된	-5301
▁62	-5302
▁78	-5303
▁gm	-5304
▁pc	-5305
▁고립	-5306
▁골드	-5307
▁공유	-5308
▁관찰	-5309
▁리조	-5310
▁방지	-5311
▁베르	-5312
▁보는	-5313
▁삶을	-5314
▁선발	-5315
▁신임	-5316
▁쓰러	-5317
▁외무	-5318
▁잃은	-5319
▁장을	-5320
▁차를	-5321
하기를	-5322
▁가치가	-5323
▁결과는	-5324
▁논의를	-5325
▁당신은	-5326
▁디즈니	-5327
▁라이트	-5328
▁소녀의	-5329
▁승리한	-5330
▁시장의	-5331
▁실종된	-5332
▁약속을	-5333
▁에후드	-5334
▁일하는	-5335
▁현재의	-5336
이었다고	-5337
▁공항에서	-5338
▁기대하고	-5339
▁선언했다	-5340
▁역사적인	-5341
▁우려하고	-5342
▁계획이라고	-5343
▁일리노이주	-5344
▁프로그램에	-5345
▁americ	-5346
ff	-5347
ga	-5348
▁x	-5349
▁듀	-5350
▁맹	-5351
▁욕	-5352
러스	-5353
물에	-5354
언을	-5355
전문	-5356
파로	-5357
ang	-5358
ast	-5359
▁감사	-5360
▁개방	-5361
▁군중	-5362
▁극복	-5363
▁맞춰	-5364
▁바뀌	-5365
▁발간	-5366
▁보복	-5367
▁빈곤	-5368
▁사원	-5369
▁생긴	-5370
▁손상	-5371
▁수를	-5372
▁스프	-5373
▁유치	-5374
▁인생	-5375
▁입국	-5376
▁중순	-5377
▁측정	-5378
▁통한	-5379
▁펠로	-5380
▁필립	-5381
▁협박	-5382
▁환자	-5383
가에서	-5384
명에게	-5385
▁fro	-5386
▁경제를	-5387
▁국제적	-5388
▁나오는	-5389
▁나이트	-5390
▁내용은	-5391
▁다니엘	-5392
▁마카오	-5393
▁받아야	-5394
▁사용한	-5395
▁승인을	-5396
▁쓰나미	-5397
▁안전을	-5398
▁있어서	-5399
▁저장된	-5400
▁충분히	-5401
▁타이틀	-5402
▁토마스	-5403
▁서울에서	-5404
▁세계은행	-5405
▁있었지만	-5406
▁체포했다	-5407
▁라스베이거	-5408
▁베이징에서	-5409
▁전했습니다	-5410
ps	-5411
기업	-5412
니오	-5413
씨가	-5414
월의	-5415
주민	-5416
중한	-5417
지며	-5418
프의	-5419
햄프	-5420
호는	-5421
화로	-5422
ars	-5423
▁67	-5424
▁bl	-5425
▁me	-5426
▁갖게	-5427
▁거두	-5428
▁곤잘	-5429
▁관영	-5430
▁기사	-5431
▁논평	-5432
▁로드	-5433
▁로비	-5434
▁리그	-5435
▁매춘	-5436
▁무선	-5437
▁발병	-5438
▁배제	-5439
▁보낼	-5440
▁복구	-5441
▁봉사	-5442
▁북미	-5443
▁상공	-5444
▁상점	-5445
▁시각	-5446
▁연행	-5447
▁은퇴	-5448
▁장소	-5449
▁중지	-5450
▁한때	-5451
▁합병	-5452
됐으나	-5453
생활을	-5454
2009	-5455
ance	-5456
▁130	-5457
▁ind	-5458
▁par	-5459
▁관계자	-5460
▁김대중	-5461
▁대학교	-5462
▁동티모	-5463
▁법원이	-5464
▁수익을	-5465
▁아니면	-5466
▁아마도	-5467
▁여부는	-5468
▁영화의	-5469
▁유권자	-5470
▁자세한	-5471
▁파트너	-5472
▁다쳤다고	-5473
▁미국과의	-5474
▁바르셀로	-5475
▁발생하지	-5476
▁수상했다	-5477
▁승리했다	-5478
▁이라크와	-5479
▁했습니다	-5480
▁국방장관은	-5481
▁폭탄테러로	-5482
ie	-5483
▁펀	-5484
관에	-5485
년과	-5486
노동	-5487
슬림	-5488
와는	-5489
전은	-5490
▁no	-5491
▁거쳐	-5492
▁단속	-5493
▁막을	-5494
▁매니	-5495
▁묘사	-5496
▁불길	-5497
▁불편	-5498
▁삭제	-5499
▁스캔	-5500
▁스탠	-5501
▁쏟아	-5502
▁임기	-5503
▁적합	-5504
▁점차	-5505
▁조류	-5506
▁주차	-5507
▁죽은	-5508
▁채택	-5509
▁출산	-5510
▁카불	-5511
▁후원	-5512
나지르	-5513
햄프셔	-5514
▁검사는	-5515
▁법원에	-5516
▁베를린	-5517
▁시장이	-5518
▁안에서	-5519
▁오사마	-5520
▁의사가	-5521
▁제대로	-5522
▁주장에	-5523
▁총리를	-5524
▁케이블	-5525
▁태어난	-5526
▁1994	-5527
▁2012	-5528
▁3000	-5529
▁만들어진	-5530
▁베나지르	-5531
▁보유하고	-5532
▁외환은행	-5533
▁진행되고	-5534
▁맛	-5535
▁힌	-5536
구의	-5537
권에	-5538
권이	-5539
기술	-5540
내지	-5541
리나	-5542
서에	-5543
에만	-5544
클라	-5545
표가	-5546
프레	-5547
▁가난	-5548
▁과도	-5549
▁단어	-5550
▁시사	-5551
▁앓고	-5552
▁연예	-5553
▁유발	-5554
▁인류	-5555
▁재난	-5556
▁저질	-5557
▁조성	-5558
▁초래	-5559
▁코스	-5560
라이언	-5561
였지만	-5562
인들을	-5563
▁abc	-5564
▁가격은	-5565
▁대단한	-5566
▁대학생	-5567
▁블라디	-5568
▁비용이	-5569
▁상당한	-5570
▁오늘날	-5571
▁오래된	-5572
▁올해의	-5573
▁유엔은	-5574
▁익명을	-5575
▁일정을	-5576
▁자료를	-5577
▁책임이	-5578
▁첫번째	-5579
▁폭탄을	-5580
▁혐의에	-5581
▁회사가	-5582
▁휴대전	-5583
▁cons	-5584
▁가능성은	-5585
▁다우존스	-5586
▁대회에서	-5587
▁발생하는	-5588
▁백악관은	-5589
▁사령관은	-5590
▁증가했다	-5591
▁학생들은	-5592
▁회의에서	-5593
▁스코틀랜드	-5594
ft	-5595
▁궤	-5596
▁묶	-5597
▁쫓	-5598
▁켈	-5599
렸던	-5600
받고	-5601
범위	-5602
봤다	-5603
주년	-5604
▁가슴	-5605
▁간주	-5606
▁거리	-5607
▁고고	-5608
▁고소	-5609
▁공정	-5610
▁구금	-5611
▁규제	-5612
▁그리	-5613
▁급등	-5614
▁따뜻	-5615
▁마시	-5616
▁상호	-5617
▁시달	-5618
▁알바	-5619
▁어디	-5620
▁얻기	-5621
▁존스	-5622
▁존중	-5623
▁찾을	-5624
▁최우	-5625
▁펼쳐	-5626
▁화물	-5627
됐었다	-5628
라고예	-5629
선에서	-5630
올림픽	-5631
land	-5632
▁tal	-5633
▁tim	-5634
▁거뒀다	-5635
▁논란이	-5636
▁레스토	-5637
▁말하며	-5638
▁못하게	-5639
▁스타디	-5640
▁애틀랜	-5641
▁여성을	-5642
▁이산화	-5643
▁자신은	-5644
▁자유를	-5645
▁지역은	-5646
▁천주교	-5647
▁표했다	-5648
▁1970	-5649
▁보여줬다	-5650
▁상승했다	-5651
▁중요하다	-5652
▁국민들에게	-5653
▁헐	-5654
나우	-5655
부양	-5656
성과	-5657
중앙	-5658
한지	-5659
▁가로	-5660
▁공장	-5661
▁기밀	-5662
▁기회	-5663
▁나올	-5664
▁내정	-5665
▁미니	-5666
▁바닥	-5667
▁방안	-5668
▁비타	-5669
▁알코	-5670
▁압수	-5671
▁앞에	-5672
▁청구	-5673
▁투어	-5674
력기구	-5675
마리의	-5676
페이지	-5677
▁국가를	-5678
▁국제원	-5679
▁그러한	-5680
▁모기지	-5681
▁바스라	-5682
▁발언에	-5683
▁북동부	-5684
▁여학생	-5685
▁일으킨	-5686
▁잃었다	-5687
▁재판을	-5688
▁저지른	-5689
▁중국을	-5690
▁집으로	-5691
▁총선을	-5692
▁평화를	-5693
▁피해자	-5694
위원회가	-5695
▁cont	-5696
▁over	-5697
▁뉴욕에서	-5698
▁보안관은	-5699
▁와인하우	-5700
▁카르자이	-5701
▁콜로라도	-5702
▁기자들에게	-5703
▁발견됐다고	-5704
▁뿐만아니라	-5705
▁열린우리당	-5706
10	-5707
ok	-5708
▁갇	-5709
▁롬	-5710
▁쓴	-5711
드라	-5712
력에	-5713
릴라	-5714
모리	-5715
수사	-5716
아나	-5717
이즈	-5718
즈의	-5719
포드	-5720
ake	-5721
ase	-5722
enc	-5723
▁95	-5724
▁검문	-5725
▁검은	-5726
▁과격	-5727
▁기부	-5728
▁기쁘	-5729
▁대결	-5730
▁돌파	-5731
▁되기	-5732
▁머리	-5733
▁못해	-5734
▁보상	-5735
▁부부	-5736
▁비틀	-5737
▁빙하	-5738
▁스턴	-5739
▁아흐	-5740
▁얻어	-5741
▁얻을	-5742
▁예를	-5743
▁의무	-5744
▁의장	-5745
▁전인	-5746
▁절차	-5747
▁지상	-5748
▁지질	-5749
▁체중	-5750
▁출입	-5751
▁프린	-5752
났으며	-5753
되었던	-5754
빈라덴	-5755
▁700	-5756
▁결과에	-5757
▁국가가	-5758
▁법안이	-5759
▁베컴은	-5760
▁선두를	-5761
▁세금을	-5762
▁심지어	-5763
▁아웅산	-5764
▁예정된	-5765
▁월스트	-5766
▁중대한	-5767
▁테스트	-5768
▁프레스	-5769
킬로미터	-5770
플레이션	-5771
▁elec	-5772
▁거부했다	-5773
▁검색어가	-5774
▁구제금융	-5775
▁국민들의	-5776
▁국회의원	-5777
▁레스토랑	-5778
▁말했다고	-5779
▁받았으며	-5780
▁블라고예	-5781
▁시민들이	-5782
▁차관보는	-5783
▁호텔에서	-5784
▁방글라데시	-5785
▁주민들에게	-5786
▁보도에따르면	-5787
▁오사마빈라덴	-5788
▁덕	-5789
▁숀	-5790
▁짓	-5791
▁흰	-5792
담당	-5793
레나	-5794
렌스	-5795
로가	-5796
르지	-5797
상황	-5798
스런	-5799
왔던	-5800
으려	-5801
졌고	-5802
팀이	-5803
패를	-5804
피해	-5805
화의	-5806
ond	-5807
out	-5808
ric	-5809
▁ha	-5810
▁가해	-5811
▁군은	-5812
▁내내	-5813
▁다루	-5814
▁도망	-5815
▁메릴	-5816
▁몸을	-5817
▁방콕	-5818
▁블루	-5819
▁비공	-5820
▁사막	-5821
▁산림	-5822
▁샤라	-5823
▁순방	-5824
▁스크	-5825
▁시에	-5826
▁알라	-5827
▁위에	-5828
▁재건	-5829
▁충격	-5830
▁탄핵	-5831
▁혹은	-5832
▁휩싸	-5833
가들이	-5834
기에서	-5835
됐다는	-5836
되었고	-5837
세력이	-5838
카르타	-5839
▁bus	-5840
▁공격은	-5841
▁노동자	-5842
▁답했다	-5843
▁독일의	-5844
▁두려워	-5845
▁벌금을	-5846
▁비용을	-5847
▁소장은	-5848
▁시작할	-5849
▁없지만	-5850
▁영화제	-5851
▁외교적	-5852
▁위험에	-5853
▁이란에	-5854
▁일으키	-5855
▁젊은이	-5856
▁총장은	-5857
▁호나우	-5858
ister	-5859
▁보호하기	-5860
▁인터넷을	-5861
▁즉각적인	-5862
▁예정입니다	-5863
▁government	-5864
iz	-5865
sa	-5866
▁꼭	-5867
▁멤	-5868
너는	-5869
달을	-5870
서양	-5871
서의	-5872
수록	-5873
월드	-5874
일과	-5875
조차	-5876
준비	-5877
탱크	-5878
old	-5879
▁qu	-5880
▁강풍	-5881
▁개헌	-5882
▁걸려	-5883
▁구축	-5884
▁다윈	-5885
▁리차	-5886
▁맞추	-5887
▁맡은	-5888
▁물이	-5889
▁미술	-5890
▁비극	-5891
▁성직	-5892
▁시내	-5893
▁쓰촨	-5894
▁온실	-5895
▁유출	-5896
▁진영	-5897
▁축제	-5898
▁침입	-5899
▁통계	-5900
▁판사	-5901
단에서	-5902
하겠다	-5903
ress	-5904
▁120	-5905
▁ass	-5906
▁같다고	-5907
▁구조대	-5908
▁나스닥	-5909
▁두바이	-5910
▁디자인	-5911
▁보내는	-5912
▁사용될	-5913
▁샌디에	-5914
▁샤라포	-5915
▁시기에	-5916
▁여러분	-5917
▁완전한	-5918
▁왕세자	-5919
▁원인을	-5920
▁이곳에	-5921
▁일부를	-5922
▁증거가	-5923
▁패트릭	-5924
위원회의	-5925
▁from	-5926
▁가능성에	-5927
▁결의안을	-5928
▁경기부양	-5929
▁공식적인	-5930
▁국민들이	-5931
▁런던에서	-5932
▁미시시피	-5933
▁바이러스	-5934
▁수백명의	-5935
▁애리조나	-5936
▁용의자가	-5937
▁주장하며	-5938
▁블라디미르	-5939
▁사르코지는	-5940
▁소프트웨어	-5941
▁웹사이트를	-5942
▁체포했다고	-5943
▁핵프로그램	-5944
▁전세계적으로	-5945
더는	-5946
률을	-5947
메이	-5948
선수	-5949
위해	-5950
체의	-5951
터리	-5952
히려	-5953
age	-5954
red	-5955
▁63	-5956
▁ob	-5957
▁pk	-5958
▁공모	-5959
▁그들	-5960
▁노르	-5961
▁높이	-5962
▁명을	-5963
▁물고	-5964
▁복무	-5965
▁부담	-5966
▁붙잡	-5967
▁상관	-5968
▁소득	-5969
▁압도	-5970
▁영웅	-5971
▁올려	-5972
▁이론	-5973
▁자르	-5974
▁잡고	-5975
▁촉발	-5976
▁추모	-5977
▁캄보	-5978
▁케빈	-5979
▁클레	-5980
▁항구	-5981
금으로	-5982
lear	-5983
▁관계에	-5984
▁둘러싸	-5985
▁마쳤다	-5986
▁만들고	-5987
▁머리를	-5988
▁머물고	-5989
▁배심원	-5990
▁보도를	-5991
▁일부가	-5992
▁전부터	-5993
▁확실한	-5994
▁회담의	-5995
▁훌륭한	-5996
되었으며	-5997
학자들은	-5998
▁cent	-5999
▁당선인의	-6000
▁미사일을	-6001
▁받아들일	-6002
▁변호사가	-6003
▁비판했다	-6004
▁실패했다	-6005
▁오바마와	-6006
▁캄보디아	-6007
▁공개적으로	-6008
▁비상사태를	-6009
▁지도자들이	-6010
▁객	-6011
▁꺼	-6012
▁쌀	-6013
▁옹	-6014
▁텐	-6015
거운	-6016
라델	-6017
라를	-6018
라며	-6019
말을	-6020
부로	-6021
비의	-6022
애미	-6023
위인	-6024
통제	-6025
하에	-6026
환경	-6027
▁91	-6028
▁em	-6029
▁거듭	-6030
▁게재	-6031
▁골든	-6032
▁날아	-6033
▁낸시	-6034
▁높다	-6035
▁눈이	-6036
▁대륙	-6037
▁뒤에	-6038
▁들여	-6039
▁마라	-6040
▁물을	-6041
▁배경	-6042
▁벌여	-6043
▁법을	-6044
▁봉송	-6045
▁빈민	-6046
▁새벽	-6047
▁시속	-6048
▁오토	-6049
▁원칙	-6050
▁일찍	-6051
▁작용	-6052
▁정해	-6053
▁중부	-6054
▁천재	-6055
▁촉진	-6056
▁폭격	-6057
▁해임	-6058
▁헨리	-6059
▁호랑	-6060
공화국	-6061
글뉴스	-6062
단체가	-6063
단체는	-6064
되어야	-6065
마리가	-6066
받았다	-6067
보장이	-6068
정부는	-6069
▁결론을	-6070
▁그것을	-6071
▁디지털	-6072
▁라이벌	-6073
▁방송은	-6074
▁배럴당	-6075
▁부부는	-6076
▁비타민	-6077
▁산사태	-6078
▁상하이	-6079
▁알코올	-6080
▁엄청난	-6081
▁연구에	-6082
▁인근에	-6083
▁일주일	-6084
▁중앙일	-6085
▁집회를	-6086
▁차량이	-6087
▁태도를	-6088
▁합의를	-6089
▁해결할	-6090
▁fore	-6091
▁도시에서	-6092
▁마감했다	-6093
▁마이애미	-6094
▁실시되는	-6095
▁우리나라	-6096
▁제기했다	-6097
▁윌리엄스는	-6098
▁캘리포니아주	-6099
gh	-6100
▁딕	-6101
▁잊	-6102
▁훔	-6103
다운	-6104
련의	-6105
망을	-6106
변화	-6107
비로	-6108
서가	-6109
위기	-6110
타는	-6111
활동	-6112
ens	-6113
▁74	-6114
▁76	-6115
▁88	-6116
▁tw	-6117
▁감금	-6118
▁감지	-6119
▁겨냥	-6120
▁결코	-6121
▁그레	-6122
▁근육	-6123
▁뉴저	-6124
▁등에	-6125
▁로한	-6126
▁롤링	-6127
▁많다	-6128
▁몰려	-6129
▁비핵	-6130
▁상을	-6131
▁생명	-6132
▁수하	-6133
▁심사	-6134
▁쌍둥	-6135
▁열어	-6136
▁옷을	-6137
▁입법	-6138
▁입을	-6139
▁정착	-6140
▁졸업	-6141
▁주연	-6142
▁차드	-6143
▁체코	-6144
▁초반	-6145
▁탈북	-6146
▁특수	-6147
▁폭파	-6148
▁프랭	-6149
▁피닉	-6150
▁후진	-6151
네자드	-6152
조치를	-6153
카운티	-6154
활동을	-6155
▁경기가	-6156
▁과정을	-6157
▁그렇지	-6158
▁방법이	-6159
▁상태로	-6160
▁언론에	-6161
▁연루된	-6162
▁일본에	-6163
▁증가한	-6164
▁차량에	-6165
▁치열한	-6166
▁토네이	-6167
▁폴란드	-6168
▁필라델	-6169
▁했다는	-6170
▁현장을	-6171
▁화이트	-6172
▁긍정적인	-6173
▁무엇보다	-6174
▁비난하고	-6175
▁생각했다	-6176
▁수석대표	-6177
▁자신에게	-6178
▁참석했다	-6179
▁평가했다	-6180
▁프리미어	-6181
▁한국에서	-6182
▁국제사회의	-6183
▁미국인들이	-6184
▁minister	-6185
▁갱	-6186
▁겸	-6187
▁좁	-6188
겨진	-6189
다시	-6190
민족	-6191
밀한	-6192
살의	-6193
셔츠	-6194
조합	-6195
즈를	-6196
지자	-6197
ath	-6198
ect	-6199
ost	-6200
▁fl	-6201
▁te	-6202
▁갖춘	-6203
▁거대	-6204
▁곳을	-6205
▁과반	-6206
▁급증	-6207
▁년간	-6208
▁눈에	-6209
▁다리	-6210
▁다섯	-6211
▁다운	-6212
▁뒤를	-6213
▁미칠	-6214
▁부르	-6215
▁부채	-6216
▁북쪽	-6217
▁빅토	-6218
▁사전	-6219
▁안토	-6220
▁예전	-6221
▁원숭	-6222
▁의약	-6223
▁전용	-6224
▁존슨	-6225
▁종합	-6226
▁채널	-6227
▁최루	-6228
▁침몰	-6229
▁카를	-6230
▁풀어	-6231
▁플루	-6232
▁항소	-6233
▁현실	-6234
▁홍수	-6235
▁흥미	-6236
갔다고	-6237
았으며	-6238
있다고	-6239
자이자	-6240
했다며	-6241
▁nuc	-6242
▁가족과	-6243
▁가즈니	-6244
▁거리에	-6245
▁규모가	-6246
▁그랜드	-6247
▁나에게	-6248
▁당국의	-6249
▁동맹국	-6250
▁받으며	-6251
▁보스턴	-6252
▁사태에	-6253
▁상태가	-6254
▁아들이	-6255
▁아파트	-6256
▁여당인	-6257
▁연구는	-6258
▁의혹을	-6259
▁인질로	-6260
▁전역에	-6261
▁조치는	-6262
▁지하철	-6263
▁초점을	-6264
▁트레이	-6265
▁폭발이	-6266
회의에서	-6267
▁1996	-6268
▁관리들이	-6269
▁아메리카	-6270
▁자치정부	-6271
▁프랑스의	-6272
뿐만아니라	-6273
▁world	-6274
▁마이크로소	-6275
▁합의했다고	-6276
▁블라고예비치	-6277
▁nuclear	-6278
▁아프가니스탄에서	-6279
▁밥	-6280
건이	-6281
률은	-6282
명한	-6283
목을	-6284
비와	-6285
석이	-6286
세는	-6287
셔널	-6288
업에	-6289
중에	-6290
차별	-6291
타오	-6292
화는	-6293
ain	-6294
ass	-6295
ays	-6296
ild	-6297
ood	-6298
▁ib	-6299
▁up	-6300
▁공포	-6301
▁기각	-6302
▁날짜	-6303
▁남극	-6304
▁늦게	-6305
▁대립	-6306
▁돌입	-6307
▁배가	-6308
▁부양	-6309
▁분류	-6310
▁영양	-6311
▁오딩	-6312
▁올리	-6313
▁왕실	-6314
▁위로	-6315
▁일제	-6316
▁전염	-6317
▁중간	-6318
▁차단	-6319
▁찾은	-6320
▁초청	-6321
▁피츠	-6322
▁흥분	-6323
년에서	-6324
무역협	-6325
용으로	-6326
ence	-6327
▁all	-6328
▁def	-6329
▁pkk	-6330
▁tra	-6331
▁win	-6332
▁공개된	-6333
▁공항에	-6334
▁그대로	-6335
▁로이터	-6336
▁리히터	-6337
▁마무드	-6338
▁목표를	-6339
▁사회적	-6340
▁세계의	-6341
▁승리할	-6342
▁아이폰	-6343
▁오히려	-6344
▁위대한	-6345
▁음식을	-6346
▁이사회	-6347
▁잘못된	-6348
▁증시는	-6349
▁참여한	-6350
▁페르난	-6351
▁펼쳤다	-6352
▁화재로	-6353
▁가족들이	-6354
▁미국으로	-6355
▁브라이언	-6356
▁이산화탄	-6357
▁이에따라	-6358
▁컴퓨터를	-6359
▁지지자들은	-6360
감이	-6361
관의	-6362
기록	-6363
끄러	-6364
몬트	-6365
움이	-6366
유로	-6367
조를	-6368
케이	-6369
프가	-6370
필드	-6371
oci	-6372
ors	-6373
▁69	-6374
▁공간	-6375
▁광부	-6376
▁금리	-6377
▁다큐	-6378
▁대치	-6379
▁만남	-6380
▁물에	-6381
▁반복	-6382
▁반영	-6383
▁베어	-6384
▁소집	-6385
▁신도	-6386
▁에릭	-6387
▁외부	-6388
▁전설	-6389
▁정의	-6390
▁정찰	-6391
▁탄압	-6392
▁투쟁	-6393
라마바	-6394
왔으며	-6395
작전을	-6396
적이며	-6397
직에서	-6398
eral	-6399
port	-6400
▁gro	-6401
▁out	-6402
▁경험이	-6403
▁공산당	-6404
▁기록한	-6405
▁다음날	-6406
▁라이언	-6407
▁리차드	-6408
▁벨기에	-6409
▁사고를	-6410
▁사실은	-6411
▁세력이	-6412
▁아기를	-6413
▁위협이	-6414
▁유튜브	-6415
▁이같이	-6416
▁인구가	-6417
▁장면이	-6418
▁정책에	-6419
▁포함돼	-6420
▁하면서	-6421
▁혜택을	-6422
▁휴가를	-6423
시켰다고	-6424
▁뉴햄프셔	-6425
▁방식으로	-6426
▁부상으로	-6427
▁사람들과	-6428
▁세계적인	-6429
▁여객기가	-6430
▁여성들이	-6431
▁움직임을	-6432
▁진술했다	-6433
▁투표에서	-6434
▁알카에다와	-6435
▁이루어졌다	-6436
▁인플레이션	-6437
▁필라델피아	-6438
▁`	-6439
▁낼	-6440
▁닥	-6441
▁센	-6442
▁쓸	-6443
공격	-6444
니어	-6445
로이	-6446
범죄	-6447
소와	-6448
아는	-6449
오픈	-6450
키퍼	-6451
테네	-6452
톤의	-6453
트와	-6454
한번	-6455
해온	-6456
der	-6457
ive	-6458
▁68	-6459
▁86	-6460
▁가게	-6461
▁가을	-6462
▁관중	-6463
▁구멍	-6464
▁남동	-6465
▁로저	-6466
▁마사	-6467
▁뮤지	-6468
▁미성	-6469
▁보지	-6470
▁부딪	-6471
▁상상	-6472
▁소형	-6473
▁에베	-6474
▁와이	-6475
▁우울	-6476
▁이자	-6477
▁인명	-6478
▁임금	-6479
▁전환	-6480
▁포럼	-6481
▁폭설	-6482
▁해도	-6483
년만에	-6484
렸으며	-6485
안에서	-6486
▁ban	-6487
▁his	-6488
▁가족이	-6489
▁가했다	-6490
▁감염된	-6491
▁골키퍼	-6492
▁그루지	-6493
▁나라의	-6494
▁남동부	-6495
▁다큐멘	-6496
▁단어장	-6497
▁당국에	-6498
▁또다시	-6499
▁무슬림	-6500
▁미군을	-6501
▁방문객	-6502
▁방송을	-6503
▁브랜드	-6504
▁수상한	-6505
▁아이가	-6506
▁여성과	-6507
▁영화에	-6508
▁예정인	-6509
▁장관의	-6510
▁제공할	-6511
▁조사가	-6512
▁주장한	-6513
▁패배를	-6514
▁홍수로	-6515
▁plan	-6516
▁국가안보	-6517
▁국제원자	-6518
▁논의하기	-6519
▁다시한번	-6520
▁비행기를	-6521
▁아이들은	-6522
▁아이들의	-6523
▁알렉산더	-6524
▁영향력을	-6525
▁이미지를	-6526
▁진행되는	-6527
▁china	-6528
▁목격자들은	-6529
▁에베레스트	-6530
▁이슬라마바	-6531
▁전문가들이	-6532
▁증가했다고	-6533
▁200806	-6534
▁조사에따르면	-6535
up	-6536
▁까	-6537
▁랜	-6538
각을	-6539
건은	-6540
먼은	-6541
뱅크	-6542
보험	-6543
세에	-6544
위츠	-6545
있던	-6546
치게	-6547
커는	-6548
코맥	-6549
품이	-6550
▁ba	-6551
▁dv	-6552
▁가치	-6553
▁각료	-6554
▁감옥	-6555
▁개시	-6556
▁게시	-6557
▁기도	-6558
▁기온	-6559
▁난사	-6560
▁누리	-6561
▁달라	-6562
▁담겨	-6563
▁당부	-6564
▁라덴	-6565
▁맡고	-6566
▁배후	-6567
▁사육	-6568
▁상반	-6569
▁세포	-6570
▁순례	-6571
▁스카	-6572
▁스톤	-6573
▁아난	-6574
▁아라	-6575
▁않게	-6576
▁않기	-6577
▁에게	-6578
▁에스	-6579
▁예선	-6580
▁왼쪽	-6581
▁요원	-6582
▁입수	-6583
▁자문	-6584
▁종종	-6585
▁진화	-6586
▁질환	-6587
▁출생	-6588
▁코끼	-6589
▁쿠웨	-6590
▁포드	-6591
▁황금	-6592
도에서	-6593
라에서	-6594
립니다	-6595
▁hiv	-6596
▁vis	-6597
▁개혁을	-6598
▁검찰이	-6599
▁국장은	-6600
▁단체가	-6601
▁당신의	-6602
▁돌아다	-6603
▁마리아	-6604
▁무사히	-6605
▁미군과	-6606
▁미디어	-6607
▁번째로	-6608
▁벌이는	-6609
▁부시의	-6610
▁상태를	-6611
▁우리를	-6612
▁의원의	-6613
▁인간의	-6614
▁정도의	-6615
▁조종사	-6616
▁진정한	-6617
▁part	-6618
▁것이었다	-6619
▁내무부는	-6620
▁사람에게	-6621
▁아버지가	-6622
▁안전하게	-6623
▁있었으나	-6624
▁제조업체	-6625
▁항공우주	-6626
▁알카에다의	-6627
▁외교통상부	-6628
▁한나라당은	-6629
▁사우스캐롤라이나	-6630
▁닉	-6631
▁뭄	-6632
가와	-6633
감독	-6634
계는	-6635
금지	-6636
기자	-6637
느냐	-6638
더스	-6639
라면	-6640
라에	-6641
만장	-6642
받을	-6643
조원	-6644
책임	-6645
해줄	-6646
화와	-6647
tit	-6648
▁04	-6649
▁72	-6650
▁가담	-6651
▁공을	-6652
▁나은	-6653
▁많아	-6654
▁비평	-6655
▁상어	-6656
▁선관	-6657
▁선원	-6658
▁섭취	-6659
▁소리	-6660
▁손에	-6661
▁쓰레	-6662
▁안타	-6663
▁연쇄	-6664
▁옹호	-6665
▁인민	-6666
▁일시	-6667
▁일에	-6668
▁재임	-6669
▁적대	-6670
▁캐릭	-6671
▁표를	-6672
▁프라	-6673
▁플래	-6674
레스를	-6675
부르크	-6676
식에서	-6677
정부가	-6678
했음을	-6679
▁mil	-6680
▁감독의	-6681
▁개발을	-6682
▁거리를	-6683
▁결과로	-6684
▁나오지	-6685
▁남성은	-6686
▁된다는	-6687
▁둘러싼	-6688
▁방법은	-6689
▁베스트	-6690
▁북서부	-6691
▁비교적	-6692
▁사업을	-6693
▁승리로	-6694
▁안정을	-6695
▁여사는	-6696
▁역사적	-6697
▁요청을	-6698
▁인기를	-6699
▁인질을	-6700
▁자신과	-6701
▁제작한	-6702
▁충돌이	-6703
▁케이트	-6704
▁키바키	-6705
▁통신이	-6706
▁페이스	-6707
▁하나로	-6708
▁하나인	-6709
겠습니다	-6710
▁1993	-6711
▁1995	-6712
▁가족들은	-6713
▁발생하고	-6714
▁비난하는	-6715
▁않겠다고	-6716
▁오바마를	-6717
▁우리에게	-6718
▁지도자가	-6719
▁쿠웨이트	-6720
▁행정부가	-6721
▁후진타오	-6722
▁백악관에서	-6723
▁월스트리트	-6724
▁보고서에따르면	-6725
ax	-6726
sp	-6727
▁링	-6728
▁컬	-6729
동맹	-6730
명인	-6731
방에	-6732
비에	-6733
생물	-6734
성장	-6735
야는	-6736
제재	-6737
치며	-6738
행한	-6739
호의	-6740
혹한	-6741
ese	-6742
les	-6743
ous	-6744
ves	-6745
▁71	-6746
▁ur	-6747
▁가벼	-6748
▁갑작	-6749
▁개체	-6750
▁고유	-6751
▁글을	-6752
▁다행	-6753
▁동생	-6754
▁말이	-6755
▁무게	-6756
▁보일	-6757
▁보존	-6758
▁선제	-6759
▁섹스	-6760
▁소위	-6761
▁송환	-6762
▁수립	-6763
▁시나	-6764
▁식료	-6765
▁쓰고	-6766
▁에콰	-6767
▁예멘	-6768
▁적발	-6769
▁조용	-6770
▁주에	-6771
▁지붕	-6772
▁축소	-6773
▁팀이	-6774
▁호흡	-6775
▁화려	-6776
▁회장	-6777
관에서	-6778
라스틱	-6779
시에서	-6780
▁nba	-6781
▁곳이다	-6782
▁광범위	-6783
▁기회가	-6784
▁남서부	-6785
▁단체의	-6786
▁돌고래	-6787
▁마라톤	-6788
▁마음을	-6789
▁미시간	-6790
▁불가피	-6791
▁상당히	-6792
▁생물학	-6793
▁세인트	-6794
▁소규모	-6795
▁아이디	-6796
▁여론조	-6797
▁인용해	-6798
▁재검토	-6799
▁절차를	-6800
▁주도한	-6801
▁지원할	-6802
▁직원이	-6803
▁참석할	-6804
▁총재는	-6805
▁최근에	-6806
▁최대의	-6807
▁충격을	-6808
▁탑승객	-6809
▁협상에	-6810
▁혼란을	-6811
▁활주로	-6812
▁후보인	-6813
▁희망을	-6814
▁힐튼은	-6815
▁show	-6816
▁근처에서	-6817
▁대의원을	-6818
▁보여주고	-6819
▁북쪽으로	-6820
▁연방준비	-6821
▁오바마에	-6822
▁월요일에	-6823
▁이용하는	-6824
▁치명적인	-6825
▁표명했다	-6826
▁헌법재판	-6827
▁경찰서장은	-6828
▁성공적으로	-6829
▁세계적으로	-6830
▁프라이머리	-6831
▁intern	-6832
pe	-6833
▁숲	-6834
▁옛	-6835
▁퀸	-6836
▁팝	-6837
▁폰	-6838
널드	-6839
당인	-6840
등을	-6841
려진	-6842
면에	-6843
밀히	-6844
복선	-6845
지원	-6846
질이	-6847
튼은	-6848
are	-6849
iti	-6850
▁85	-6851
▁걸린	-6852
▁계좌	-6853
▁길이	-6854
▁낙관	-6855
▁되돌	-6856
▁듣고	-6857
▁리더	-6858
▁마친	-6859
▁모래	-6860
▁반박	-6861
▁방사	-6862
▁부산	-6863
▁세부	-6864
▁신규	-6865
▁이륙	-6866
▁이식	-6867
▁자제	-6868
▁전복	-6869
▁정지	-6870
▁제목	-6871
▁제트	-6872
▁짧은	-6873
▁차별	-6874
▁참모	-6875
▁침공	-6876
▁태운	-6877
▁폭스	-6878
▁표준	-6879
▁행진	-6880
▁혁명	-6881
▁횡령	-6882
▁후지	-6883
기라이	-6884
베니아	-6885
운동을	-6886
폴리스	-6887
▁dvd	-6888
▁iss	-6889
▁가족을	-6890
▁갖추고	-6891
▁것임을	-6892
▁국민의	-6893
▁근거로	-6894
▁뉴욕의	-6895
▁달리고	-6896
▁도착한	-6897
▁뭄바이	-6898
▁민감한	-6899
▁반군의	-6900
▁발견한	-6901
▁발표를	-6902
▁부부가	-6903
▁사용해	-6904
▁상황은	-6905
▁생각이	-6906
▁시위는	-6907
▁실시할	-6908
▁영국은	-6909
▁원주민	-6910
▁이름이	-6911
▁일어날	-6912
▁정권을	-6913
▁주었다	-6914
▁차이가	-6915
▁파나마	-6916
▁했었다	-6917
▁호주의	-6918
▁1960	-6919
▁1991	-6920
▁가택연금	-6921
▁받아들여	-6922
▁수준으로	-6923
▁운영하고	-6924
▁의미한다	-6925
▁차지하고	-6926
▁샌디에이고	-6927
▁지역에서는	-6928
▁국제원자력기구	-6929
▁싫	-6930
▁핀	-6931
결승	-6932
곳을	-6933
니까	-6934
니에	-6935
도우	-6936
리어	-6937
버리	-6938
비스	-6939
안의	-6940
유럽	-6941
율로	-6942
의회	-6943
접한	-6944
주지	-6945
직에	-6946
코는	-6947
터가	-6948
펠드	-6949
확인	-6950
ome	-6951
orn	-6952
ven	-6953
▁md	-6954
▁pa	-6955
▁가상	-6956
▁관측	-6957
▁눈을	-6958
▁뉴올	-6959
▁당초	-6960
▁리드	-6961
▁마비	-6962
▁말할	-6963
▁모니	-6964
▁발휘	-6965
▁백인	-6966
▁보게	-6967
▁부사	-6968
▁부적	-6969
▁불이	-6970
▁불쾌	-6971
▁비치	-6972
▁상영	-6973
▁수리	-6974
▁수비	-6975
▁스콜	-6976
▁신중	-6977
▁아는	-6978
▁얘기	-6979
▁에티	-6980
▁용납	-6981
▁저희	-6982
▁중남	-6983
▁책을	-6984
▁출두	-6985
▁케리	-6986
▁코카	-6987
▁특징	-6988
▁포로	-6989
▁하미	-6990
▁협정	-6991
▁호르	-6992
곳에서	-6993
드리게	-6994
메이트	-6995
법원은	-6996
onom	-6997
▁are	-6998
▁not	-6999
▁건물이	-7000
▁결혼을	-7001
▁경찰청	-7002
▁계속될	-7003
▁교황은	-7004
▁규정을	-7005
▁도로를	-7006
▁메르켈	-7007
▁문제와	-7008
▁미치는	-7009
▁바라는	-7010
▁법무부	-7011
▁비서실	-7012
▁상태다	-7013
▁선수가	-7014
▁수감자	-7015
▁않았던	-7016
▁압박을	-7017
▁양국의	-7018
▁영국인	-7019
▁이브라	-7020
▁일어났	-7021
▁있어야	-7022
▁중단할	-7023
▁출연한	-7024
▁크레이	-7025
▁테러에	-7026
▁투표에	-7027
▁하루에	-7028
▁합의한	-7029
▁했으나	-7030
▁확인할	-7031
▁1950	-7032
▁2500	-7033
▁계속되는	-7034
▁뉴올리언	-7035
▁발표하고	-7036
▁변호사인	-7037
▁소식통이	-7038
▁에드워즈	-7039
▁주둔하고	-7040
▁탈레반은	-7041
▁party	-7042
▁매사추세츠	-7043
▁미국인들은	-7044
▁안전보장이	-7045
▁체포됐다고	-7046
▁한나라당의	-7047
▁마이크로소프트	-7048
fl	-7049
▁꼬	-7050
▁뱀	-7051
▁윔	-7052
▁틸	-7053
급을	-7054
마는	-7055
물로	-7056
물의	-7057
바르	-7058
받은	-7059
설을	-7060
스티	-7061
시와	-7062
이상	-7063
일으	-7064
임이	-7065
점은	-7066
종의	-7067
진과	-7068
천만	-7069
체제	-7070
팀을	-7071
ork	-7072
ree	-7073
▁구단	-7074
▁낮추	-7075
▁내보	-7076
▁따돌	-7077
▁래리	-7078
▁루아	-7079
▁미스	-7080
▁본격	-7081
▁북동	-7082
▁빨간	-7083
▁선임	-7084
▁수면	-7085
▁수여	-7086
▁시라	-7087
▁앤더	-7088
▁없게	-7089
▁없고	-7090
▁연금	-7091
▁오스	-7092
▁원래	-7093
▁의도	-7094
▁정교	-7095
▁진실	-7096
▁출구	-7097
▁친척	-7098
▁쿠퍼	-7099
▁탄생	-7100
▁탱크	-7101
▁푸에	-7102
▁회계	-7103
▁효율	-7104
관들이	-7105
된다면	-7106
시스템	-7107
역에서	-7108
적이다	-7109
주의자	-7110
reat	-7111
▁가족은	-7112
▁경제의	-7113
▁관련한	-7114
▁교육을	-7115
▁군사적	-7116
▁난민촌	-7117
▁남자는	-7118
▁노력이	-7119
▁대상이	-7120
▁등으로	-7121
▁만들기	-7122
▁매니저	-7123
▁미성년	-7124
▁별다른	-7125
▁복잡한	-7126
▁사고는	-7127
▁생명을	-7128
▁속도로	-7129
▁아들을	-7130
▁애완견	-7131
▁앤드류	-7132
▁양측은	-7133
▁언급을	-7134
▁우주선	-7135
▁정권이	-7136
▁철수를	-7137
▁파업을	-7138
▁평화와	-7139
▁하락한	-7140
▁하와이	-7141
▁행사를	-7142
▁헬기가	-7143
했었다고	-7144
▁coun	-7145
▁개인적인	-7146
▁교도소에	-7147
▁국제공항	-7148
▁남부에서	-7149
▁동티모르	-7150
▁매케인이	-7151
▁부통령은	-7152
▁불러일으	-7153
▁성관계를	-7154
▁영화배우	-7155
▁예를들어	-7156
▁주장한다	-7157
▁아프간에서	-7158
▁지지자들이	-7159
▁크라이슬러	-7160
ph	-7161
▁엠	-7162
교를	-7163
나의	-7164
니와	-7165
니티	-7166
데스	-7167
락을	-7168
레인	-7169
름을	-7170
식의	-7171
연한	-7172
였고	-7173
오고	-7174
전쟁	-7175
ite	-7176
one	-7177
▁cr	-7178
▁공약	-7179
▁금연	-7180
▁기여	-7181
▁끝날	-7182
▁나눴	-7183
▁녹음	-7184
▁달린	-7185
▁당황	-7186
▁딸이	-7187
▁떠난	-7188
▁벌금	-7189
▁부유	-7190
▁샘플	-7191
▁성추	-7192
▁솔직	-7193
▁수배	-7194
▁시대	-7195
▁신조	-7196
▁알지	-7197
▁어깨	-7198
▁얻고	-7199
▁영상	-7200
▁옐친	-7201
▁완료	-7202
▁의문	-7203
▁일상	-7204
▁종결	-7205
▁처해	-7206
▁침략	-7207
▁향상	-7208
▁허커	-7209
▁협회	-7210
되거나	-7211
만으로	-7212
명에서	-7213
문에서	-7214
해야만	-7215
7000	-7216
▁exp	-7217
▁고위관	-7218
▁공습을	-7219
▁그레이	-7220
▁나타난	-7221
▁루이지	-7222
▁마흐디	-7223
▁목표는	-7224
▁무고한	-7225
▁밝혀진	-7226
▁범인이	-7227
▁법안은	-7228
▁식료품	-7229
▁원인이	-7230
▁은행의	-7231
▁음악을	-7232
▁인도의	-7233
▁일본과	-7234
▁일본인	-7235
▁자리에	-7236
▁조사한	-7237
▁죽음을	-7238
▁촬영한	-7239
▁팬들은	-7240
▁펠로시	-7241
▁후보와	-7242
적이라고	-7243
▁1500	-7244
▁lead	-7245
▁news	-7246
▁국가들은	-7247
▁국방장관	-7248
▁들어갔다	-7249
▁로드리게	-7250
▁마드리드	-7251
▁바란다고	-7252
▁방문하는	-7253
▁브라운은	-7254
▁상태에서	-7255
▁않는다는	-7256
▁예비선거	-7257
▁외무장관	-7258
▁의사들은	-7259
▁인근에서	-7260
▁자카르타	-7261
▁조건으로	-7262
▁지점에서	-7263
▁천연가스	-7264
▁클린턴의	-7265
▁플라스틱	-7266
▁하마스가	-7267
▁해안에서	-7268
▁화요일에	-7269
▁다이아몬드	-7270
▁스타디움에서	-7271
▁foreign	-7272
26	-7273
▁끔	-7274
▁널	-7275
▁댄	-7276
▁햄	-7277
교통	-7278
나무	-7279
단히	-7280
마자	-7281
블던	-7282
식은	-7283
타르	-7284
토늄	-7285
폴리	-7286
프를	-7287
학과	-7288
eek	-7289
▁we	-7290
▁갖는	-7291
▁곳은	-7292
▁관료	-7293
▁국토	-7294
▁군이	-7295
▁기차	-7296
▁낙태	-7297
▁담은	-7298
▁대대	-7299
▁로딕	-7300
▁매달	-7301
▁본부	-7302
▁본토	-7303
▁빌딩	-7304
▁빠질	-7305
▁상륙	-7306
▁선호	-7307
▁설문	-7308
▁세비	-7309
▁앞둔	-7310
▁양의	-7311
▁유도	-7312
▁좌절	-7313
▁철군	-7314
▁축출	-7315
▁쿠즈	-7316
▁탐험	-7317
▁투르	-7318
▁파이	-7319
▁퍼거	-7320
▁해서	-7321
▁환호	-7322
냈다고	-7323
당국이	-7324
면에서	-7325
스트는	-7326
위에서	-7327
지수가	-7328
파운드	-7329
tive	-7330
▁day	-7331
▁mon	-7332
▁sup	-7333
▁tro	-7334
▁가치를	-7335
▁결정할	-7336
▁교도소	-7337
▁국가로	-7338
▁기쁘다	-7339
▁놀라운	-7340
▁다리를	-7341
▁단체인	-7342
▁대표가	-7343
▁데이빗	-7344
▁동일한	-7345
▁만났다	-7346
▁뮤지컬	-7347
▁보도가	-7348
▁보이며	-7349
▁브리핑	-7350
▁사상자	-7351
▁사실에	-7352
▁상당의	-7353
▁생방송	-7354
▁성명은	-7355
▁시신이	-7356
▁실수를	-7357
▁않기로	-7358
▁윔블던	-7359
▁유엔의	-7360
▁이용할	-7361
▁일으킬	-7362
▁작업에	-7363
▁종류의	-7364
▁증시가	-7365
▁지지선	-7366
▁처벌을	-7367
▁충돌로	-7368
▁카트리	-7369
▁푸틴은	-7370
▁프랭크	-7371
▁하나는	-7372
▁학교에	-7373
▁회장이	-7374
ution	-7375
▁국가들이	-7376
▁밝혔으며	-7377
▁밝혔지만	-7378
▁부정적인	-7379
▁비난하며	-7380
▁비행기가	-7381
▁사용하지	-7382
▁상태이다	-7383
▁아버지는	-7384
▁원자로를	-7385
▁유혈사태	-7386
▁인질들을	-7387
▁있었다는	-7388
▁지원하는	-7389
▁카스트로	-7390
▁평화유지	-7391
▁obama	-7392
▁대선후보로	-7393
▁분석가들은	-7394
▁유권자들이	-7395
▁프리미어리그	-7396
70	-7397
▁템	-7398
격히	-7399
렸고	-7400
미니	-7401
발전	-7402
봉사	-7403
세와	-7404
슨과	-7405
자료	-7406
책이	-7407
톨릭	-7408
판이	-7409
피트	-7410
향을	-7411
화한	-7412
ber	-7413
erv	-7414
ide	-7415
▁sk	-7416
▁sn	-7417
▁ww	-7418
▁갔다	-7419
▁개장	-7420
▁건너	-7421
▁급락	-7422
▁느낄	-7423
▁돕기	-7424
▁동남	-7425
▁되길	-7426
▁딸을	-7427
▁러닝	-7428
▁맞는	-7429
▁메디	-7430
▁멤버	-7431
▁몰고	-7432
▁발포	-7433
▁벗어	-7434
▁부서	-7435
▁사설	-7436
▁손님	-7437
▁습격	-7438
▁아시	-7439
▁알제	-7440
▁암컷	-7441
▁약화	-7442
▁여섯	-7443
▁위스	-7444
▁유인	-7445
▁정거	-7446
▁주주	-7447
▁직전	-7448
▁창출	-7449
▁태어	-7450
▁테네	-7451
▁파라	-7452
▁파파	-7453
▁포착	-7454
▁현장	-7455
▁휩쓸	-7456
▁힌두	-7457
국에서	-7458
당했다	-7459
리프는	-7460
마리를	-7461
오피아	-7462
은행은	-7463
타나모	-7464
6000	-7465
ates	-7466
▁mbc	-7467
▁광고를	-7468
▁구호를	-7469
▁기업의	-7470
▁뉴저지	-7471
▁돌아오	-7472
▁두번째	-7473
▁라파엘	-7474
▁민병대	-7475
▁보이콧	-7476
▁사과를	-7477
▁성장을	-7478
▁소식은	-7479
▁신고를	-7480
▁여부에	-7481
▁영국군	-7482
▁이제는	-7483
▁일이다	-7484
▁장군은	-7485
▁주의를	-7486
▁참여할	-7487
▁파바로	-7488
▁평화적	-7489
▁평화협	-7490
▁피라미	-7491
왔습니다	-7492
인들에게	-7493
축구연맹	-7494
▁거주하고	-7495
▁공개됐다	-7496
▁군인들이	-7497
▁남자친구	-7498
▁드러냈다	-7499
▁못하도록	-7500
▁소유하고	-7501
▁심각하게	-7502
▁않는다면	-7503
▁에어버스	-7504
▁인도주의	-7505
▁지시했다	-7506
▁직접적인	-7507
▁해당하는	-7508
▁milit	-7509
▁루이지애나	-7510
▁에티오피아	-7511
▁자유무역협	-7512
▁폭력사태가	-7513
bo	-7514
oy	-7515
▁겁	-7516
▁닫	-7517
▁럼	-7518
▁썼	-7519
▁첩	-7520
관인	-7521
교육	-7522
량은	-7523
로코	-7524
마디	-7525
물은	-7526
법은	-7527
브를	-7528
세대	-7529
역에	-7530
연방	-7531
연히	-7532
입어	-7533
즈와	-7534
타를	-7535
하르	-7536
▁81	-7537
▁99	-7538
▁ir	-7539
▁개편	-7540
▁계열	-7541
▁고급	-7542
▁괴한	-7543
▁내고	-7544
▁노트	-7545
▁데에	-7546
▁돼지	-7547
▁떠올	-7548
▁마돈	-7549
▁번역	-7550
▁북서	-7551
▁불에	-7552
▁세속	-7553
▁소련	-7554
▁애니	-7555
▁열고	-7556
▁의뢰	-7557
▁잇따	-7558
▁재직	-7559
▁전사	-7560
▁제리	-7561
▁종료	-7562
▁주유	-7563
▁줄어	-7564
▁줄일	-7565
▁진보	-7566
▁처한	-7567
▁캐롤	-7568
▁콜린	-7569
▁토크	-7570
▁팀을	-7571
▁하에	-7572
▁혼자	-7573
▁화합	-7574
▁활약	-7575
일에는	-7576
장관이	-7577
지역을	-7578
ical	-7579
▁140	-7580
▁att	-7581
▁fda	-7582
▁imf	-7583
▁격렬한	-7584
▁결의안	-7585
▁경쟁을	-7586
▁납치범	-7587
▁논쟁이	-7588
▁대다수	-7589
▁도시의	-7590
▁부분을	-7591
▁북부에	-7592
▁빠져나	-7593
▁사드르	-7594
▁상승한	-7595
▁성향의	-7596
▁세계적	-7597
▁소식에	-7598
▁수도인	-7599
▁시드의	-7600
▁양국은	-7601
▁언론의	-7602
▁오스카	-7603
▁원하고	-7604
▁이곳은	-7605
▁이란과	-7606
▁지지자	-7607
▁차이로	-7608
▁피닉스	-7609
▁힘입어	-7610
▁1992	-7611
▁4000	-7612
▁7000	-7613
▁prot	-7614
▁곤잘레스	-7615
▁관타나모	-7616
▁매케인의	-7617
▁발표됐다	-7618
▁밝혔다고	-7619
▁방향으로	-7620
▁법원에서	-7621
▁불가리아	-7622
▁선포했다	-7623
▁않았으나	-7624
▁위치하고	-7625
▁자택에서	-7626
▁전망했다	-7627
▁지도자는	-7628
▁지원하고	-7629
▁직원들이	-7630
▁추정된다	-7631
▁state	-7632
▁visit	-7633
▁상원의원의	-7634
▁전국적으로	-7635
▁펜실베니아	-7636
▁econom	-7637
▁깃	-7638
▁롱	-7639
▁탔	-7640
경에	-7641
경은	-7642
고기	-7643
도상	-7644
돼야	-7645
란을	-7646
래스	-7647
론은	-7648
론이	-7649
리코	-7650
병이	-7651
보건	-7652
성근	-7653
소속	-7654
슬리	-7655
승희	-7656
심이	-7657
아노	-7658
용이	-7659
이한	-7660
터스	-7661
품에	-7662
할지	-7663
duc	-7664
man	-7665
oul	-7666
ret	-7667
▁au	-7668
▁nk	-7669
▁가속	-7670
▁공룡	-7671
▁군대	-7672
▁군의	-7673
▁금액	-7674
▁끔찍	-7675
▁남겨	-7676
▁농업	-7677
▁당사	-7678
▁도요	-7679
▁떠오	-7680
▁멀리	-7681
▁미주	-7682
▁벽돌	-7683
▁보스	-7684
▁복역	-7685
▁식민	-7686
▁신분	-7687
▁실린	-7688
▁심문	-7689
▁야스	-7690
▁양육	-7691
▁억제	-7692
▁오리	-7693
▁자동	-7694
▁잡아	-7695
▁점검	-7696
▁좀더	-7697
▁주기	-7698
▁차이	-7699
▁천문	-7700
▁카터	-7701
▁탄광	-7702
▁통상	-7703
▁피살	-7704
▁하여	-7705
▁형제	-7706
당에서	-7707
있으며	-7708
주년을	-7709
페이스	-7710
ouse	-7711
▁160	-7712
▁war	-7713
▁가족의	-7714
▁건강이	-7715
▁경기침	-7716
▁나이가	-7717
▁논쟁을	-7718
▁들어간	-7719
▁라이브	-7720
▁마스터	-7721
▁모양의	-7722
▁물러나	-7723
▁미국측	-7724
▁받았던	-7725
▁사항을	-7726
▁살아남	-7727
▁생산을	-7728
▁손실을	-7729
▁시장을	-7730
▁아테네	-7731
▁않았고	-7732
▁완벽한	-7733
▁정신적	-7734
▁주가는	-7735
▁중남미	-7736
▁최선을	-7737
▁통일부	-7738
▁투자가	-7739
▁페더러	-7740
▁포함된	-7741
▁필요로	-7742
▁하미드	-7743
▁한국을	-7744
▁행사에	-7745
▁행위에	-7746
한글뉴스	-7747
▁공산주의	-7748
▁국무부는	-7749
▁극단주의	-7750
▁뉴욕타임	-7751
▁러시아가	-7752
▁민주당이	-7753
▁보입니다	-7754
▁에콰도르	-7755
▁요구하며	-7756
▁용의자로	-7757
▁유럽에서	-7758
▁유지하고	-7759
▁전반적인	-7760
▁전통적인	-7761
▁좋아하는	-7762
▁주한미군	-7763
▁지지하고	-7764
▁캠페인을	-7765
▁탈레반이	-7766
▁포함하여	-7767
▁행정부의	-7768
▁talks	-7769
▁결정했다고	-7770
▁때문이라고	-7771
▁상원의원과	-7772
▁예정이었다	-7773
▁이스라엘에	-7774
▁곰	-7775
▁띄	-7776
▁밟	-7777
▁엉	-7778
▁햇	-7779
구에	-7780
그로	-7781
내며	-7782
라드	-7783
문제	-7784
바스	-7785
비상	-7786
사무	-7787
사항	-7788
실은	-7789
유를	-7790
진압	-7791
체에	-7792
편의	-7793
향이	-7794
호르	-7795
own	-7796
▁nh	-7797
▁간부	-7798
▁간에	-7799
▁갇혀	-7800
▁개성	-7801
▁검증	-7802
▁기금	-7803
▁나선	-7804
▁나설	-7805
▁넘겨	-7806
▁놓여	-7807
▁느낀	-7808
▁대로	-7809
▁도청	-7810
▁되며	-7811
▁떠날	-7812
▁말에	-7813
▁매매	-7814
▁미네	-7815
▁방위	-7816
▁번의	-7817
▁벌써	-7818
▁불어	-7819
▁선전	-7820
▁술을	-7821
▁술집	-7822
▁아담	-7823
▁아틀	-7824
▁알레	-7825
▁어두	-7826
▁에넹	-7827
▁연간	-7828
▁울포	-7829
▁윤리	-7830
▁일축	-7831
▁자발	-7832
▁잡혀	-7833
▁징후	-7834
▁카리	-7835
▁카메	-7836
▁크레	-7837
▁트로	-7838
▁함유	-7839
분만에	-7840
서에서	-7841
세에서	-7842
시리즈	-7843
았지만	-7844
이즈미	-7845
자동차	-7846
자이너	-7847
젤레스	-7848
판결을	-7849
해지고	-7850
1000	-7851
4000	-7852
olog	-7853
▁dem	-7854
▁ins	-7855
▁man	-7856
▁rec	-7857
▁가벼운	-7858
▁감사의	-7859
▁건강에	-7860
▁건강한	-7861
▁기소된	-7862
▁남부에	-7863
▁남편인	-7864
▁달러가	-7865
▁도시인	-7866
▁디스크	-7867
▁떠났다	-7868
▁루아얄	-7869
▁막대한	-7870
▁모르는	-7871
▁반대로	-7872
▁보도에	-7873
▁보호를	-7874
▁소속의	-7875
▁쓰촨성	-7876
▁않으며	-7877
▁오른쪽	-7878
▁우주왕	-7879
▁위험을	-7880
▁은행에	-7881
▁이뤄진	-7882
▁이용한	-7883
▁제공한	-7884
▁제출한	-7885
▁조사는	-7886
▁조사할	-7887
▁준결승	-7888
▁중이던	-7889
▁증가할	-7890
▁지역인	-7891
▁테니스	-7892
▁테러는	-7893
▁투자를	-7894
▁팬들이	-7895
▁한국군	-7896
▁합의에	-7897
▁활동에	-7898
▁회의에	-7899
▁효과가	-7900
아일랜드	-7901
았습니다	-7902
▁5000	-7903
▁opec	-7904
▁공습으로	-7905
▁교통사고	-7906
▁당선인이	-7907
▁대학에서	-7908
▁마을에서	-7909
▁무장대원	-7910
▁민주당은	-7911
▁사망자는	-7912
▁사용하고	-7913
▁올림픽을	-7914
▁외무부는	-7915
▁이뤄졌다	-7916
▁인터넷에	-7917
▁일이라고	-7918
▁자유롭게	-7919
▁조지아주	-7920
▁페더러는	-7921
▁프로젝트	-7922
자들로부터	-7923
▁seoul	-7924
▁있었습니다	-7925
▁정상회담을	-7926
fp	-7927
▁떼	-7928
▁뜨	-7929
▁쏘	-7930
▁앵	-7931
▁얀	-7932
기금	-7933
기기	-7934
다란	-7935
당을	-7936
라와	-7937
린은	-7938
바오	-7939
법에	-7940
사관	-7941
사령	-7942
소한	-7943
실로	-7944
아가	-7945
정도	-7946
제르	-7947
터키	-7948
티가	-7949
피스	-7950
ife	-7951
min	-7952
▁가고	-7953
▁가즈	-7954
▁갈라	-7955
▁개를	-7956
▁고무	-7957
▁공원	-7958
▁교섭	-7959
▁기계	-7960
▁느꼈	-7961
▁다룬	-7962
▁면담	-7963
▁몸에	-7964
▁보급	-7965
▁사절	-7966
▁쉽지	-7967
▁실무	-7968
▁실직	-7969
▁아닙	-7970
▁양곤	-7971
▁업계	-7972
▁영업	-7973
▁오렌	-7974
▁우고	-7975
▁유감	-7976
▁점거	-7977
▁제압	-7978
▁조절	-7979
▁처방	-7980
▁카드	-7981
▁커뮤	-7982
▁탈락	-7983
▁화해	-7984
▁휴가	-7985
▁흘러	-7986
때까지	-7987
원들의	-7988
월에는	-7989
차례에	-7990
프라임	-7991
하마드	-7992
행위를	-7993
회의에	-7994
▁cdc	-7995
▁eng	-7996
▁fif	-7997
▁pri	-7998
▁게릴라	-7999
▁경선을	-8000
▁경험을	-8001
▁고고학	-8002
▁권성근	-8003
▁그녀를	-8004
▁글로벌	-8005
▁나달은	-8006
▁남성의	-8007
▁노래를	-8008
▁높다고	-8009
▁다음주	-8010
▁다쳤다	-8011
▁대회를	-8012
▁데일리	-8013
▁또다른	-8014
▁법안에	-8015
▁베네딕	-8016
▁부토의	-8017
▁약간의	-8018
▁얼마전	-8019
▁영국과	-8020
▁왕자가	-8021
▁원인은	-8022
▁이익을	-8023
▁일련의	-8024
▁전하고	-8025
▁조승희	-8026
▁총상을	-8027
▁포르노	-8028
▁하거나	-8029
▁할머니	-8030
▁해병대	-8031
▁핵개발	-8032
▁회사를	-8033
▁히틀러	-8034
▁1989	-8035
▁more	-8036
▁결선투표	-8037
▁고려하고	-8038
▁고이즈미	-8039
▁국가에서	-8040
▁기소됐다	-8041
▁당했다고	-8042
▁아니라는	-8043
▁아니었다	-8044
▁아프간에	-8045
▁이와같이	-8046
▁중동평화	-8047
▁챔피언십	-8048
▁클린턴에	-8049
▁호소했다	-8050
▁확인됐다	-8051
▁무샤라프는	-8052
▁상원의원을	-8053
▁발표했습니다	-8054
▁여론조사에서	-8055
▁american	-8056
ls	-8057
pa	-8058
▁핸	-8059
경영	-8060
국과	-8061
글로	-8062
날드	-8063
노스	-8064
니야	-8065
두는	-8066
령이	-8067
모스	-8068
았을	-8069
어질	-8070
에미	-8071
우기	-8072
작전	-8073
종을	-8074
체는	-8075
카트	-8076
커가	-8077
키로	-8078
380	-8079
itt	-8080
▁by	-8081
▁my	-8082
▁ph	-8083
▁sy	-8084
▁가짜	-8085
▁교전	-8086
▁금메	-8087
▁금속	-8088
▁내일	-8089
▁놀이	-8090
▁동북	-8091
▁들이	-8092
▁마케	-8093
▁맞고	-8094
▁매출	-8095
▁맥도	-8096
▁멈추	-8097
▁모금	-8098
▁무슨	-8099
▁미첼	-8100
▁발발	-8101
▁붙여	-8102
▁서서	-8103
▁서양	-8104
▁숨을	-8105
▁스토	-8106
▁엔터	-8107
▁연계	-8108
▁연례	-8109
▁열심	-8110
▁일치	-8111
▁있은	-8112
▁잡지	-8113
▁전형	-8114
▁주립	-8115
▁중의	-8116
▁즐길	-8117
▁지고	-8118
▁지는	-8119
▁진지	-8120
▁취한	-8121
▁크라	-8122
▁타밀	-8123
▁탄도	-8124
▁테이	-8125
▁통행	-8126
▁퇴원	-8127
▁팀의	-8128
▁풍부	-8129
▁피트	-8130
▁하버	-8131
▁학대	-8132
경기를	-8133
나에서	-8134
머니는	-8135
베르토	-8136
스트라	-8137
졌지만	-8138
지역의	-8139
쳤으며	-8140
혐의로	-8141
▁fin	-8142
▁fir	-8143
▁경매에	-8144
▁공격한	-8145
▁국가에	-8146
▁권리가	-8147
▁남편이	-8148
▁노트북	-8149
▁뉴욕주	-8150
▁늘어나	-8151
▁도미니	-8152
▁됐으며	-8153
▁목사는	-8154
▁방송에	-8155
▁불능화	-8156
▁뿐이다	-8157
▁살해된	-8158
▁수입을	-8159
▁스크린	-8160
▁심장마	-8161
▁앞서고	-8162
▁엄격한	-8163
▁연구소	-8164
▁연기를	-8165
▁연합군	-8166
▁열대성	-8167
▁열렸다	-8168
▁오클라	-8169
▁유대인	-8170
▁의견이	-8171
▁이끌고	-8172
▁일으켰	-8173
▁제외한	-8174
▁지구에	-8175
▁최첨단	-8176
▁폭우로	-8177
▁행동에	-8178
▁향하는	-8179
강전에서	-8180
▁conf	-8181
▁wash	-8182
▁결정적인	-8183
▁나타내는	-8184
▁동성애자	-8185
▁보여준다	-8186
▁아닙니다	-8187
▁아름다운	-8188
▁알바니아	-8189
▁연구소의	-8190
▁용의자는	-8191
▁위원장이	-8192
▁위협하고	-8193
▁일어나는	-8194
▁준비하고	-8195
▁중이었다	-8196
▁참석하지	-8197
▁타임즈가	-8198
▁확산되고	-8199
ington	-8200
▁결승전에서	-8201
▁시작했다고	-8202
▁알카에다가	-8203
▁우주비행사	-8204
▁secret	-8205
▁[	-8206
▁넬	-8207
▁몽	-8208
▁턱	-8209
개로	-8210
거를	-8211
는가	-8212
드베	-8213
력은	-8214
문은	-8215
생산	-8216
세트	-8217
세한	-8218
이와	-8219
졌을	-8220
치와	-8221
크가	-8222
타의	-8223
통이	-8224
판에	-8225
행위	-8226
확실	-8227
500	-8228
ach	-8229
ops	-8230
▁ru	-8231
▁가중	-8232
▁거론	-8233
▁계산	-8234
▁그만	-8235
▁기숙	-8236
▁냈다	-8237
▁단행	-8238
▁당해	-8239
▁데려	-8240
▁도살	-8241
▁도심	-8242
▁때는	-8243
▁모양	-8244
▁모욕	-8245
▁무덤	-8246
▁무승	-8247
▁미리	-8248
▁믿을	-8249
▁밀려	-8250
▁박탈	-8251
▁반도	-8252
▁발행	-8253
▁법무	-8254
▁부탁	-8255
▁세탁	-8256
▁씨가	-8257
▁압력	-8258
▁양성	-8259
▁양키	-8260
▁여권	-8261
▁옆에	-8262
▁유기	-8263
▁유통	-8264
▁음성	-8265
▁이다	-8266
▁정전	-8267
▁제약	-8268
▁조심	-8269
▁준수	-8270
▁직업	-8271
▁차베	-8272
▁채취	-8273
▁카지	-8274
▁택시	-8275
▁터널	-8276
▁퇴임	-8277
▁펼친	-8278
▁폭동	-8279
▁플라	-8280
▁하자	-8281
▁허드	-8282
▁형사	-8283
년으로	-8284
되기도	-8285
레스는	-8286
비치는	-8287
상태에	-8288
자금을	-8289
회의를	-8290
ency	-8291
▁gen	-8292
▁has	-8293
▁roh	-8294
▁강제로	-8295
▁건물에	-8296
▁계속된	-8297
▁고위급	-8298
▁국가인	-8299
▁남학생	-8300
▁너무나	-8301
▁대서양	-8302
▁대책을	-8303
▁데이터	-8304
▁들어갈	-8305
▁메드베	-8306
▁무엇을	-8307
▁방문은	-8308
▁법원의	-8309
▁불확실	-8310
▁브래드	-8311
▁사임을	-8312
▁사진이	-8313
▁상처를	-8314
▁서울시	-8315
▁서장은	-8316
▁성공을	-8317
▁알렉스	-8318
▁알렸다	-8319
▁야후의	-8320
▁여지가	-8321
▁역사를	-8322
▁위스콘	-8323
▁윈도우	-8324
▁유명인	-8325
▁이후에	-8326
▁인터폴	-8327
▁일본을	-8328
▁일하고	-8329
▁잃어버	-8330
▁자리잡	-8331
▁중에서	-8332
▁증언을	-8333
▁커다란	-8334
▁터키의	-8335
▁테네시	-8336
들에게는	-8337
▁time	-8338
▁가능성도	-8339
▁가족들과	-8340
▁담당자는	-8341
▁대법원은	-8342
▁동영상이	-8343
▁디자이너	-8344
▁미얀마의	-8345
▁법정에서	-8346
▁보고서에	-8347
▁빅토리아	-8348
▁아니지만	-8349
▁앞으로도	-8350
▁언급하며	-8351
▁여성들은	-8352
▁오클라호	-8353
▁움직임은	-8354
▁이루어진	-8355
▁이름으로	-8356
▁이브라힘	-8357
▁제시했다	-8358
▁테러조직	-8359
▁텍사스주	-8360
▁플루토늄	-8361
▁대통령으로	-8362
▁민주주의를	-8363
▁통과시켰다	-8364
▁프라이머리에서	-8365
ck	-8366
vs	-8367
▁딘	-8368
▁써	-8369
▁옳	-8370
▁웰	-8371
▁킬	-8372
▁팽	-8373
골로	-8374
넬라	-8375
념을	-8376
단과	-8377
되길	-8378
마의	-8379
미는	-8380
받아	-8381
법원	-8382
분께	-8383
사업	-8384
석에	-8385
세프	-8386
아버	-8387
아의	-8388
았고	-8389
어요	-8390
에이	-8391
연료	-8392
제네	-8393
지방	-8394
진의	-8395
체로	-8396
카는	-8397
클럽	-8398
편이	-8399
▁79	-8400
▁ge	-8401
▁pm	-8402
▁pr	-8403
▁uc	-8404
▁교외	-8405
▁귀환	-8406
▁기원	-8407
▁낮아	-8408
▁노인	-8409
▁느낌	-8410
▁다수	-8411
▁망원	-8412
▁맥캔	-8413
▁메일	-8414
▁모건	-8415
▁모술	-8416
▁모아	-8417
▁무자	-8418
▁밀어	-8419
▁바탕	-8420
▁바티	-8421
▁부검	-8422
▁빼앗	-8423
▁살모	-8424
▁수류	-8425
▁신발	-8426
▁실현	-8427
▁아지	-8428
▁애국	-8429
▁요리	-8430
▁원인	-8431
▁이득	-8432
▁잇는	-8433
▁정리	-8434
▁중태	-8435
▁파월	-8436
▁판다	-8437
▁해저	-8438
▁활발	-8439
단체인	-8440
들이다	-8441
스럽다	-8442
에게도	-8443
진으로	-8444
타에서	-8445
투표를	-8446
트레이	-8447
▁int	-8448
▁경기는	-8449
▁기사를	-8450
▁내려진	-8451
▁느끼고	-8452
▁머레이	-8453
▁발표는	-8454
▁방문해	-8455
▁방법에	-8456
▁병력이	-8457
▁사진은	-8458
▁사형을	-8459
▁생각해	-8460
▁성공한	-8461
▁수행할	-8462
▁스타벅	-8463
▁스파이	-8464
▁안으로	-8465
▁영국에	-8466
▁영화가	-8467
▁왕자는	-8468
▁위하여	-8469
▁유죄를	-8470
▁자르다	-8471
▁작업이	-8472
▁작품을	-8473
▁적합한	-8474
▁최우선	-8475
▁탑승한	-8476
▁토크쇼	-8477
▁파파라	-8478
▁판결이	-8479
▁폭력을	-8480
▁해수면	-8481
▁화려한	-8482
▁활동이	-8483
▁회사에	-8484
▁효과를	-8485
시키려는	-8486
▁계획하고	-8487
▁광범위한	-8488
▁국가비상	-8489
▁남아있는	-8490
▁누군가가	-8491
▁메릴랜드	-8492
▁모른다고	-8493
▁보고서가	-8494
▁선거관리	-8495
▁시작으로	-8496
▁실시했다	-8497
▁아라비아	-8498
▁아랍에미	-8499
▁아웅산수	-8500
▁예상하고	-8501
▁위스콘신	-8502
▁전역에서	-8503
▁제출했다	-8504
▁주민들을	-8505
▁주민들의	-8506
▁추정하고	-8507
▁카메라를	-8508
▁코소보의	-8509
▁타이틀을	-8510
▁플레이를	-8511
▁행정부는	-8512
▁홈페이지	-8513
▁개인적으로	-8514
▁국제유가가	-8515
▁요구했다고	-8516
▁안전보장이사회	-8517
▁washington	-8518
19	-8519
60	-8520
▁붐	-8521
▁컵	-8522
▁펄	-8523
괴한	-8524
근혜	-8525
마를	-8526
먼트	-8527
비넨	-8528
성화	-8529
시대	-8530
아를	-8531
어와	-8532
어져	-8533
우며	-8534
지대	-8535
착륙	-8536
크라	-8537
파가	-8538
프롬	-8539
▁89	-8540
▁ye	-8541
▁고안	-8542
▁교사	-8543
▁남용	-8544
▁내지	-8545
▁넘게	-8546
▁높게	-8547
▁뉴델	-8548
▁단독	-8549
▁달간	-8550
▁담고	-8551
▁데뷔	-8552
▁도디	-8553
▁루이	-8554
▁맞은	-8555
▁불교	-8556
▁블록	-8557
▁비아	-8558
▁산책	-8559
▁신호	-8560
▁실려	-8561
▁아나	-8562
▁양쪽	-8563
▁염려	-8564
▁완성	-8565
▁워너	-8566
▁원내	-8567
▁원정	-8568
▁유사	-8569
▁이슈	-8570
▁이적	-8571
▁자전	-8572
▁자행	-8573
▁잭슨	-8574
▁조약	-8575
▁종식	-8576
▁증강	-8577
▁치를	-8578
▁포셋	-8579
▁했고	-8580
▁현금	-8581
▁후송	-8582
갔으며	-8583
거래소	-8584
시간을	-8585
시키며	-8586
시하고	-8587
원들을	-8588
이사회	-8589
총리는	-8590
▁193	-8591
▁aig	-8592
▁ear	-8593
▁inc	-8594
▁its	-8595
▁one	-8596
▁가난한	-8597
▁공정한	-8598
▁국립공	-8599
▁규모를	-8600
▁근로자	-8601
▁나이로	-8602
▁내리는	-8603
▁누구도	-8604
▁대선에	-8605
▁도착할	-8606
▁동물원	-8607
▁디스커	-8608
▁레이건	-8609
▁미래를	-8610
▁미래에	-8611
▁받는다	-8612
▁방문에	-8613
▁변화에	-8614
▁보고를	-8615
▁보내고	-8616
▁사생활	-8617
▁사용된	-8618
▁사퇴를	-8619
▁상대방	-8620
▁세대를	-8621
▁수사에	-8622
▁신속히	-8623
▁실험을	-8624
▁심하게	-8625
▁알리는	-8626
▁오렌지	-8627
▁왕자의	-8628
▁위안부	-8629
▁이내에	-8630
▁이처럼	-8631
▁인구의	-8632
▁인사를	-8633
▁일자리	-8634
▁전투기	-8635
▁정치인	-8636
▁진전이	-8637
▁친환경	-8638
▁테일러	-8639
▁하이브	-8640
▁학생이	-8641
▁허가를	-8642
▁현재는	-8643
istan	-8644
▁1987	-8645
▁bush	-8646
▁york	-8647
▁거부권을	-8648
▁거절했다	-8649
▁국제우주	-8650
▁기대한다	-8651
▁내렸다고	-8652
▁높아지고	-8653
▁대피했다	-8654
▁메드베데	-8655
▁모두에게	-8656
▁목소리를	-8657
▁베네딕토	-8658
▁보냈다고	-8659
▁뿐이라고	-8660
▁사이트를	-8661
▁상황이다	-8662
▁생각하지	-8663
▁선수들은	-8664
▁선수들이	-8665
▁세속주의	-8666
▁숨졌으며	-8667
▁않았다는	-8668
▁연구결과	-8669
▁의원들이	-8670
▁이라크는	-8671
▁이메일을	-8672
▁일어났다	-8673
▁치러지는	-8674
▁학교에서	-8675
▁핵실험을	-8676
▁house	-8677
▁무장세력이	-8678
▁서브프라임	-8679
▁국가비상사태	-8680
▁international	-8681
ah	-8682
ix	-8683
▁굉	-8684
▁꽃	-8685
▁뚫	-8686
▁츠	-8687
▁콰	-8688
▁펭	-8689
관련	-8690
나를	-8691
나에	-8692
단계	-8693
렸을	-8694
매매	-8695
블로	-8696
시로	-8697
시오	-8698
시한	-8699
쓰고	-8700
씨의	-8701
었기	-8702
췄다	-8703
카드	-8704
커스	-8705
케인	-8706
킥을	-8707
파의	-8708
평균	-8709
ict	-8710
▁83	-8711
▁cd	-8712
▁dr	-8713
▁각국	-8714
▁간호	-8715
▁고의	-8716
▁구류	-8717
▁권총	-8718
▁급습	-8719
▁널리	-8720
▁대전	-8721
▁도난	-8722
▁동계	-8723
▁먹고	-8724
▁모임	-8725
▁미드	-8726
▁바꿀	-8727
▁박스	-8728
▁방출	-8729
▁비가	-8730
▁성격	-8731
▁소아	-8732
▁소장	-8733
▁스탈	-8734
▁심의	-8735
▁안내	-8736
▁안드	-8737
▁앨런	-8738
▁야구	-8739
▁얻게	-8740
▁엑스	-8741
▁요한	-8742
▁워터	-8743
▁웨인	-8744
▁유람	-8745
▁유산	-8746
▁유행	-8747
▁임대	-8748
▁자바	-8749
▁장려	-8750
▁재고	-8751
▁전격	-8752
▁정유	-8753
▁줄리	-8754
▁초에	-8755
▁총에	-8756
▁토로	-8757
▁통보	-8758
▁트라	-8759
▁티벳	-8760
▁페이	-8761
▁포트	-8762
▁향한	-8763
▁호송	-8764
겼다고	-8765
등학교	-8766
사항을	-8767
으려고	-8768
은행이	-8769
크리트	-8770
▁bda	-8771
▁ibm	-8772
▁mdc	-8773
▁rel	-8774
▁감바리	-8775
▁강진이	-8776
▁것인가	-8777
▁견해를	-8778
▁결정이	-8779
▁계속할	-8780
▁공개한	-8781
▁공항을	-8782
▁금리를	-8783
▁나라를	-8784
▁남자를	-8785
▁다르다	-8786
▁데리고	-8787
▁돌아갈	-8788
▁동안의	-8789
▁맡았다	-8790
▁메이저	-8791
▁명백한	-8792
▁목적을	-8793
▁부대를	-8794
▁부족한	-8795
▁비행을	-8796
▁서신을	-8797
▁성과를	-8798
▁소년이	-8799
▁아마존	-8800
▁아이들	-8801
▁얼굴을	-8802
▁여러번	-8803
▁원한다	-8804
▁유럽과	-8805
▁유엔이	-8806
▁의사는	-8807
▁의회를	-8808
▁이란을	-8809
▁이뤄질	-8810
▁일간지	-8811
▁자녀를	-8812
▁재무부	-8813
▁전략을	-8814
▁전체가	-8815
▁제치고	-8816
▁중이며	-8817
▁지역이	-8818
▁차관은	-8819
▁출신인	-8820
▁치러질	-8821
▁클레이	-8822
▁파이프	-8823
▁퍼거슨	-8824
됨에따라	-8825
ition	-8826
▁fifa	-8827
▁국가들의	-8828
▁국가정보	-8829
▁국제적인	-8830
▁되었다고	-8831
▁벌어졌다	-8832
▁보좌관은	-8833
▁비디오를	-8834
▁사용했다	-8835
▁살모넬라	-8836
▁시위대를	-8837
▁연구원은	-8838
▁영화에서	-8839
▁울포위츠	-8840
▁이라크내	-8841
▁중단했다	-8842
▁지도자로	-8843
▁직원들은	-8844
▁카를로스	-8845
▁파리에서	-8846
▁무장세력의	-8847
▁발견되었다	-8848
▁시위자들은	-8849
▁않았습니다	-8850
▁유권자들은	-8851
▁상승했습니다	-8852
▁자살폭탄테러가	-8853
40	-8854
▁굳	-8855
▁렌	-8856
▁봐	-8857
▁쳐	-8858
▁춤	-8859
▁큐	-8860
공급	-8861
도와	-8862
라바	-8863
력과	-8864
력의	-8865
만년	-8866
모를	-8867
받는	-8868
사이	-8869
세이	-8870
인다	-8871
인민	-8872
입을	-8873
제이	-8874
조한	-8875
크의	-8876
튼의	-8877
파울	-8878
플루	-8879
히는	-8880
ble	-8881
for	-8882
ish	-8883
ute	-8884
▁가끔	-8885
▁강행	-8886
▁결심	-8887
▁곳이	-8888
▁교토	-8889
▁국세	-8890
▁군과	-8891
▁기아	-8892
▁깨끗	-8893
▁내다	-8894
▁당의	-8895
▁대우	-8896
▁도덕	-8897
▁동참	-8898
▁라우	-8899
▁막아	-8900
▁만능	-8901
▁만화	-8902
▁맨해	-8903
▁먹는	-8904
▁모집	-8905
▁무렵	-8906
▁묻는	-8907
▁박사	-8908
▁반전	-8909
▁발매	-8910
▁부러	-8911
▁부속	-8912
▁세운	-8913
▁수족	-8914
▁수컷	-8915
▁숙박	-8916
▁시점	-8917
▁약혼	-8918
▁언덕	-8919
▁역임	-8920
▁연극	-8921
▁영구	-8922
▁옥스	-8923
▁왜곡	-8924
▁요즘	-8925
▁위생	-8926
▁유적	-8927
▁이외	-8928
▁이정	-8929
▁장교	-8930
▁재무	-8931
▁전범	-8932
▁주거	-8933
▁찾지	-8934
▁측이	-8935
▁치솟	-8936
▁포장	-8937
▁항생	-8938
▁행렬	-8939
▁협약	-8940
국들은	-8941
달러로	-8942
랜드는	-8943
럼비아	-8944
렀다고	-8945
에게서	-8946
으므로	-8947
이라며	-8948
일하게	-8949
정부의	-8950
졌으나	-8951
ains	-8952
uman	-8953
▁감정을	-8954
▁기능을	-8955
▁기분이	-8956
▁긴장이	-8957
▁납치한	-8958
▁다니는	-8959
▁달러로	-8960
▁돌아와	-8961
▁런던의	-8962
▁마이스	-8963
▁바티칸	-8964
▁박근혜	-8965
▁범죄를	-8966
▁보다는	-8967
▁상파울	-8968
▁세력을	-8969
▁수반은	-8970
▁시신은	-8971
▁신원이	-8972
▁아스날	-8973
▁업무를	-8974
▁연구가	-8975
▁열심히	-8976
▁왔다고	-8977
▁우울증	-8978
▁유력한	-8979
▁의원을	-8980
▁전쟁이	-8981
▁존스턴	-8982
▁주요한	-8983
▁중단을	-8984
▁취하고	-8985
▁크기의	-8986
▁텔레비	-8987
▁투표가	-8988
▁피랍된	-8989
▁피하기	-8990
▁해수욕	-8991
▁호텔에	-8992
▁work	-8993
▁가능하다	-8994
▁공개하지	-8995
▁관계자의	-8996
▁내려졌다	-8997
▁노르웨이	-8998
▁당부했다	-8999
▁받아왔다	-9000
▁분리주의	-9001
▁분위기를	-9002
▁승인했다	-9003
▁시티그룹	-9004
▁아버지인	-9005
▁아시아의	-9006
▁위원회의	-9007
▁일으켰다	-9008
▁자동차업	-9009
▁자원봉사	-9010
▁재판에서	-9011
▁전해졌다	-9012
▁정부군이	-9013
▁차지하는	-9014
▁최고경영	-9015
▁출연했다	-9016
▁테이프를	-9017
▁평화적인	-9018
▁first	-9019
▁다우지수는	-9020
▁오하이오주	-9021
▁용의자들을	-9022
▁적극적으로	-9023
▁정기적으로	-9024
▁파키스탄에	-9025
▁프랑스에서	-9026
▁프로그램이	-9027
▁하이브리드	-9028
▁학생들에게	-9029
▁국제우주정거	-9030
▁아랍에미리트	-9031
▁아마디네자드	-9032
▁military	-9033
go	-9034
ke	-9035
▁굿	-9036
▁깔	-9037
▁덜	-9038
▁짝	-9039
검사	-9040
것도	-9041
곳에	-9042
과학	-9043
구조	-9044
니를	-9045
니언	-9046
당에	-9047
독한	-9048
려야	-9049
로에	-9050
마르	-9051
미를	-9052
받침	-9053
범한	-9054
보안	-9055
본부	-9056
색을	-9057
서치	-9058
애틀	-9059
올로	-9060
정상	-9061
정의	-9062
지다	-9063
지수	-9064
타이	-9065
테르	-9066
티에	-9067
피를	-9068
해가	-9069
해주	-9070
혁명	-9071
호에	-9072
lic	-9073
mer	-9074
pos	-9075
▁98	-9076
▁gu	-9077
▁lg	-9078
▁강간	-9079
▁것일	-9080
▁고어	-9081
▁공대	-9082
▁꺾고	-9083
▁남쪽	-9084
▁내리	-9085
▁던진	-9086
▁럼스	-9087
▁모리	-9088
▁미셸	-9089
▁박격	-9090
▁봤다	-9091
▁부결	-9092
▁부터	-9093
▁불만	-9094
▁사인	-9095
▁삭감	-9096
▁산맥	-9097
▁상의	-9098
▁스노	-9099
▁신사	-9100
▁아빠	-9101
▁약탈	-9102
▁양자	-9103
▁없애	-9104
▁에따	-9105
▁연출	-9106
▁외계	-9107
▁우편	-9108
▁워렌	-9109
▁유수	-9110
▁음료	-9111
▁일고	-9112
▁저렴	-9113
▁전파	-9114
▁접수	-9115
▁제정	-9116
▁진전	-9117
▁체류	-9118
▁치매	-9119
▁카스	-9120
▁크리	-9121
▁투명	-9122
▁표결	-9123
▁한달	-9124
▁해상	-9125
▁해소	-9126
▁해체	-9127
▁회동	-9128
고에서	-9129
까지도	-9130
어졌다	-9131
통신이	-9132
하려던	-9133
ople	-9134
▁rep	-9135
▁가져올	-9136
▁간단한	-9137
▁개발에	-9138
▁건물을	-9139
▁경고를	-9140
▁구호물	-9141
▁남성을	-9142
▁내용에	-9143
▁돌아올	-9144
▁디트로	-9145
▁못한다	-9146
▁무장한	-9147
▁반군은	-9148
▁방향을	-9149
▁부분이	-9150
▁생존자	-9151
▁선거가	-9152
▁수감된	-9153
▁수사가	-9154
▁수치는	-9155
▁실패한	-9156
▁앞섰다	-9157
▁억만장	-9158
▁에르도	-9159
▁연락을	-9160
▁예정이	-9161
▁올라가	-9162
▁위협에	-9163
▁음주운	-9164
▁이유가	-9165
▁장관과	-9166
▁전에는	-9167
▁제시한	-9168
▁제품을	-9169
▁조직을	-9170
▁주식을	-9171
▁진행될	-9172
▁총기를	-9173
▁켄터키	-9174
▁파업에	-9175
▁편지를	-9176
▁해안에	-9177
▁행위는	-9178
▁현상이	-9179
▁형태의	-9180
▁환자가	-9181
달러까지	-9182
대회에서	-9183
렸습니다	-9184
시장에서	-9185
위원장은	-9186
차전에서	-9187
▁1986	-9188
▁apec	-9189
▁가즈프롬	-9190
▁개발도상	-9191
▁거리에서	-9192
▁관련하여	-9193
▁권고했다	-9194
▁대표하는	-9195
▁못했지만	-9196
▁반대하고	-9197
▁병사들이	-9198
▁분석했다	-9199
▁선고했다	-9200
▁시나리오	-9201
▁않습니다	-9202
▁에드워드	-9203
▁윌리엄스	-9204
▁의심되는	-9205
▁인질들이	-9206
▁정부에서	-9207
▁창기라이	-9208
▁출신으로	-9209
▁출전하지	-9210
▁클린턴과	-9211
▁피츠버그	-9212
▁항의하는	-9213
▁헤럴드는	-9214
▁확신한다	-9215
▁확인되지	-9216
▁회견에서	-9217
▁동영상에서	-9218
▁디트로이트	-9219
▁러닝메이트	-9220
▁연구원들은	-9221
▁유나이티드	-9222
▁유죄판결을	-9223
▁지속적으로	-9224
▁200809	-9225
▁people	-9226
12	-9227
▁괜	-9228
▁융	-9229
개에	-9230
국민	-9231
기부	-9232
나게	-9233
노조	-9234
놓고	-9235
런스	-9236
만간	-9237
보좌	-9238
연을	-9239
음이	-9240
조약	-9241
지우	-9242
차는	-9243
천억	-9244
크를	-9245
클로	-9246
클리	-9247
학을	-9248
ory	-9249
▁id	-9250
▁갤런	-9251
▁거친	-9252
▁결합	-9253
▁괜찮	-9254
▁기증	-9255
▁기획	-9256
▁깊이	-9257
▁끊임	-9258
▁내전	-9259
▁델타	-9260
▁돈이	-9261
▁마찰	-9262
▁만료	-9263
▁매입	-9264
▁물가	-9265
▁물어	-9266
▁미셀	-9267
▁발급	-9268
▁베탕	-9269
▁북측	-9270
▁상처	-9271
▁소니	-9272
▁솔로	-9273
▁송금	-9274
▁수락	-9275
▁쉬운	-9276
▁슬로	-9277
▁실적	-9278
▁싶지	-9279
▁양측	-9280
▁에너	-9281
▁연말	-9282
▁영장	-9283
▁오를	-9284
▁인내	-9285
▁잠수	-9286
▁점유	-9287
▁정밀	-9288
▁즐기	-9289
▁지점	-9290
▁진상	-9291
▁차가	-9292
▁체계	-9293
▁총통	-9294
▁취급	-9295
▁케르	-9296
▁코너	-9297
▁터뜨	-9298
▁포획	-9299
▁피신	-9300
▁헬리	-9301
▁화면	-9302
병으로	-9303
시키지	-9304
정으로	-9305
태평양	-9306
2000	-9307
8000	-9308
▁cor	-9309
▁개발한	-9310
▁거부한	-9311
▁기지를	-9312
▁긴장을	-9313
▁남자의	-9314
▁대테러	-9315
▁뒷받침	-9316
▁북극곰	-9317
▁분노를	-9318
▁분쟁을	-9319
▁비공식	-9320
▁사고의	-9321
▁사이버	-9322
▁석방된	-9323
▁선수로	-9324
▁스튜어	-9325
▁안보를	-9326
▁언급한	-9327
▁없다며	-9328
▁열었다	-9329
▁우리당	-9330
▁원자력	-9331
▁위치를	-9332
▁위치해	-9333
▁유세를	-9334
▁은신처	-9335
▁의문을	-9336
▁이곳을	-9337
▁일제히	-9338
▁자격이	-9339
▁자국의	-9340
▁자세히	-9341
▁전투를	-9342
▁접촉을	-9343
▁조만간	-9344
▁조치로	-9345
▁줄이기	-9346
▁즐기는	-9347
▁참가한	-9348
▁출전할	-9349
▁캐릭터	-9350
▁크루즈	-9351
▁특사는	-9352
▁하도록	-9353
▁행진을	-9354
▁cour	-9355
▁high	-9356
▁miss	-9357
▁거짓말을	-9358
▁결혼식을	-9359
▁계속하고	-9360
▁그들에게	-9361
▁문제들을	-9362
▁발견되지	-9363
▁사과했다	-9364
▁샤라포바	-9365
▁수십명이	-9366
▁수요일에	-9367
▁수천명이	-9368
▁시인했다	-9369
▁아무것도	-9370
▁안토니오	-9371
▁엘리베이	-9372
▁용의자를	-9373
▁재무장관	-9374
▁줄기세포	-9375
▁테러와의	-9376
▁포함됐다	-9377
▁힐러리가	-9378
ration	-9379
▁press	-9380
▁교도소에서	-9381
▁디스커버리	-9382
▁소비자들이	-9383
▁수사관들은	-9384
▁이스라엘을	-9385
▁파키스탄이	-9386
▁플로리다주	-9387
▁associ	-9388
▁secretary	-9389
ai	-9390
fo	-9391
▁갔	-9392
▁깁	-9393
▁닭	-9394
▁뮌	-9395
▁쟁	-9396
▁험	-9397
관과	-9398
년전	-9399
르바	-9400
름이	-9401
만여	-9402
말라	-9403
백을	-9404
분야	-9405
석은	-9406
업자	-9407
자스	-9408
청이	-9409
층에	-9410
치인	-9411
타다	-9412
타운	-9413
통합	-9414
티의	-9415
파인	-9416
허가	-9417
ral	-9418
rol	-9419
vel	-9420
▁lo	-9421
▁ny	-9422
▁가깝	-9423
▁가리	-9424
▁각종	-9425
▁교과	-9426
▁국적	-9427
▁기뻐	-9428
▁나섰	-9429
▁내의	-9430
▁노던	-9431
▁느껴	-9432
▁다소	-9433
▁당일	-9434
▁던져	-9435
▁덴버	-9436
▁독도	-9437
▁동굴	-9438
▁리오	-9439
▁면서	-9440
▁무산	-9441
▁물품	-9442
▁발렌	-9443
▁발령	-9444
▁배포	-9445
▁복합	-9446
▁불황	-9447
▁사마	-9448
▁산하	-9449
▁살이	-9450
▁상위	-9451
▁생겨	-9452
▁손해	-9453
▁스콧	-9454
▁신의	-9455
▁실수	-9456
▁심슨	-9457
▁쓰는	-9458
▁씨의	-9459
▁아민	-9460
▁악의	-9461
▁안나	-9462
▁엉덩	-9463
▁예언	-9464
▁위축	-9465
▁유괴	-9466
▁유조	-9467
▁인형	-9468
▁장벽	-9469
▁전년	-9470
▁절약	-9471
▁제니	-9472
▁종사	-9473
▁주류	-9474
▁줄을	-9475
▁찍은	-9476
▁참전	-9477
▁추천	-9478
▁치른	-9479
▁통근	-9480
▁피추	-9481
▁필수	-9482
▁하드	-9483
▁회수	-9484
▁히트	-9485
경기에	-9486
단체의	-9487
들보다	-9488
만개의	-9489
일에서	-9490
중이다	-9491
학자인	-9492
ited	-9493
▁170	-9494
▁180	-9495
▁900	-9496
▁acc	-9497
▁aid	-9498
▁dec	-9499
▁tri	-9500
▁two	-9501
▁감독을	-9502
▁검색어	-9503
▁경기장	-9504
▁과정에	-9505
▁교전을	-9506
▁국민을	-9507
▁기술이	-9508
▁끔찍한	-9509
▁남부의	-9510
▁넣었다	-9511
▁느끼는	-9512
▁다수의	-9513
▁대비해	-9514
▁대한민	-9515
▁돌아온	-9516
▁된다면	-9517
▁모여들	-9518
▁무소속	-9519
▁무죄를	-9520
▁범인은	-9521
▁보여준	-9522
▁보유한	-9523
▁본부를	-9524
▁분량의	-9525
▁분야에	-9526
▁브로드	-9527
▁사례가	-9528
▁사용을	-9529
▁사회에	-9530
▁사회의	-9531
▁새롭게	-9532
▁세웠다	-9533
▁소리를	-9534
▁소유한	-9535
▁슈퍼볼	-9536
▁스탈린	-9537
▁시애틀	-9538
▁실시될	-9539
▁아니며	-9540
▁안전에	-9541
▁애틀란	-9542
▁오늘밤	-9543
▁오프라	-9544
▁외무성	-9545
▁우간다	-9546
▁유지할	-9547
▁의미가	-9548
▁의장이	-9549
▁인상을	-9550
▁있기를	-9551
▁자금이	-9552
▁조직의	-9553
▁죽음에	-9554
▁집회에	-9555
▁출연해	-9556
▁카지노	-9557
▁트라볼	-9558
▁판결에	-9559
▁평가를	-9560
▁포스트	-9561
▁한다면	-9562
▁행동이	-9563
▁협력을	-9564
▁협정을	-9565
위원회에	-9566
ainst	-9567
▁comp	-9568
▁검토하고	-9569
▁남쪽으로	-9570
▁동의했다	-9571
▁레이스를	-9572
▁방송에서	-9573
▁법적으로	-9574
▁부상자가	-9575
▁북한과의	-9576
▁불법으로	-9577
▁브레이크	-9578
▁사용되는	-9579
▁샤리프는	-9580
▁수백명이	-9581
▁예상되고	-9582
▁예측했다	-9583
▁온실가스	-9584
▁움직임이	-9585
▁워싱턴의	-9586
▁이들에게	-9587
▁전달했다	-9588
▁전쟁으로	-9589
▁증가하는	-9590
▁최고치를	-9591
▁출구조사	-9592
▁프랑스는	-9593
▁하마스의	-9594
▁활동하고	-9595
illion	-9596
▁human	-9597
▁노대통령은	-9598
▁오클라호마	-9599
▁재무장관은	-9600
▁지도자들을	-9601
▁폭력사태로	-9602
▁center	-9603
▁연방준비제도	-9604
▁지지자들에게	-9605
▁against	-9606
av	-9607
cc	-9608
lo	-9609
ms	-9610
po	-9611
▁댈	-9612
▁덩	-9613
▁램	-9614
▁킨	-9615
▁헝	-9616
▁흩	-9617
가격	-9618
과정	-9619
권은	-9620
길을	-9621
까요	-9622
내려	-9623
널티	-9624
니고	-9625
대책	-9626
되던	-9627
드폰	-9628
렌은	-9629
례를	-9630
림을	-9631
미한	-9632
방이	-9633
법이	-9634
복지	-9635
본을	-9636
브가	-9637
브레	-9638
빌리	-9639
색의	-9640
스마	-9641
심한	-9642
우석	-9643
자원	-9644
절한	-9645
제품	-9646
층이	-9647
클린	-9648
퍼드	-9649
페이	-9650
평가	-9651
프에	-9652
협력	-9653
ung	-9654
▁93	-9655
▁sw	-9656
▁가동	-9657
▁게리	-9658
▁고수	-9659
▁공사	-9660
▁규칙	-9661
▁균형	-9662
▁그라	-9663
▁급진	-9664
▁기분	-9665
▁나눠	-9666
▁날이	-9667
▁남녀	-9668
▁남미	-9669
▁남서	-9670
▁내게	-9671
▁내로	-9672
▁놀랄	-9673
▁다비	-9674
▁도핑	-9675
▁독감	-9676
▁드는	-9677
▁딜러	-9678
▁라울	-9679
▁레오	-9680
▁로맨	-9681
▁매도	-9682
▁매몰	-9683
▁모의	-9684
▁모험	-9685
▁반미	-9686
▁배급	-9687
▁버냉	-9688
▁버크	-9689
▁벌이	-9690
▁벌일	-9691
▁보증	-9692
▁복원	-9693
▁부처	-9694
▁브랜	-9695
▁브로	-9696
▁생태	-9697
▁선진	-9698
▁소총	-9699
▁수년	-9700
▁슬픔	-9701
▁시골	-9702
▁암호	-9703
▁얼룩	-9704
▁였다	-9705
▁오케	-9706
▁자사	-9707
▁작곡	-9708
▁절도	-9709
▁조항	-9710
▁중도	-9711
▁중반	-9712
▁처형	-9713
▁첫날	-9714
▁취해	-9715
▁침묵	-9716
▁카디	-9717
▁카자	-9718
▁칸다	-9719
▁칼리	-9720
▁코피	-9721
▁클로	-9722
▁피할	-9723
▁해방	-9724
▁호날	-9725
▁호전	-9726
▁화염	-9727
거리는	-9728
공격을	-9729
까지는	-9730
내에서	-9731
달라는	-9732
메이션	-9733
문제를	-9734
센터는	-9735
스러워	-9736
시킨다	-9737
아티아	-9738
어지는	-9739
인에게	-9740
작으로	-9741
제네거	-9742
지역인	-9743
플루엔	-9744
할만한	-9745
화되고	-9746
enti	-9747
▁sur	-9748
▁강화할	-9749
▁경계를	-9750
▁교전이	-9751
▁급격히	-9752
▁기준금	-9753
▁끝까지	-9754
▁내셔널	-9755
▁노력할	-9756
▁뉴욕에	-9757
▁늘어날	-9758
▁다리가	-9759
▁다행히	-9760
▁단순히	-9761
▁담배를	-9762
▁대선주	-9763
▁대회에	-9764
▁들어와	-9765
▁레이저	-9766
▁리조트	-9767
▁머리카	-9768
▁목적이	-9769
▁못했던	-9770
▁미주리	-9771
▁바하마	-9772
▁반체제	-9773
▁밝히며	-9774
▁베이루	-9775
▁부인인	-9776
▁부토는	-9777
▁브리트	-9778
▁브리티	-9779
▁산불이	-9780
▁서울에	-9781
▁선박이	-9782
▁선택할	-9783
▁세계를	-9784
▁시작될	-9785
▁약속한	-9786
▁양측이	-9787
▁연기가	-9788
▁영상을	-9789
▁외쳤다	-9790
▁유전자	-9791
▁이스트	-9792
▁인도분	-9793
▁임기를	-9794
▁입수한	-9795
▁자신에	-9796
▁재판에	-9797
▁재판이	-9798
▁존스는	-9799
▁철저히	-9800
▁최고위	-9801
▁토대로	-9802
▁헬리콥	-9803
▁휴스턴	-9804
경기에서	-9805
명이라고	-9806
아프리카	-9807
에서부터	-9808
tions	-9809
▁have	-9810
▁거래됐다	-9811
▁공격했다	-9812
▁그곳에서	-9813
▁대표단은	-9814
▁목요일에	-9815
▁북한에서	-9816
▁스튜디오	-9817
▁스페인의	-9818
▁실질적인	-9819
▁야생동물	-9820
▁연구에서	-9821
▁요르단강	-9822
▁이라크로	-9823
▁인정하지	-9824
▁일어나고	-9825
▁자동차를	-9826
▁장소에서	-9827
▁전합니다	-9828
▁정부군과	-9829
▁지역사회	-9830
▁징역형을	-9831
▁총리에게	-9832
▁크레이그	-9833
▁하마스는	-9834
▁헤즈볼라	-9835
▁호주오픈	-9836
▁확인하기	-9837
▁가족들에게	-9838
▁정치적으로	-9839
▁크로아티아	-9840
▁프로그램의	-9841
▁항공우주국	-9842
▁troops	-9843
▁라스베이거스	-9844
▁인도네시아의	-9845
▁england	-9846
af	-9847
▁닌	-9848
▁촛	-9849
다이	-9850
당국	-9851
데버	-9852
드러	-9853
들인	-9854
듯이	-9855
디슈	-9856
라리	-9857
리티	-9858
메르	-9859
물인	-9860
법의	-9861
보로	-9862
분경	-9863
사절	-9864
있을	-9865
제의	-9866
조건	-9867
차량	-9868
처리	-9869
쿠니	-9870
타가	-9871
토는	-9872
해도	-9873
해에	-9874
화될	-9875
ern	-9876
int	-9877
ons	-9878
▁ai	-9879
▁가구	-9880
▁가죽	-9881
▁감정	-9882
▁개표	-9883
▁광장	-9884
▁군함	-9885
▁나빠	-9886
▁네이	-9887
▁달아	-9888
▁대폭	-9889
▁도울	-9890
▁돌을	-9891
▁마침	-9892
▁말로	-9893
▁메리	-9894
▁면접	-9895
▁몸값	-9896
▁무대	-9897
▁무효	-9898
▁물건	-9899
▁뮌헨	-9900
▁반등	-9901
▁발레	-9902
▁부실	-9903
▁사면	-9904
▁삶의	-9905
▁얻지	-9906
▁엔지	-9907
▁역대	-9908
▁울프	-9909
▁원치	-9910
▁입어	-9911
▁적응	-9912
▁전임	-9913
▁제네	-9914
▁제도	-9915
▁집필	-9916
▁집회	-9917
▁첩보	-9918
▁친선	-9919
▁클루	-9920
▁키드	-9921
▁편안	-9922
▁플레	-9923
▁피부	-9924
▁피의	-9925
▁하트	-9926
▁했을	-9927
▁화가	-9928
▁확장	-9929
관계가	-9930
구에서	-9931
냈으며	-9932
대학교	-9933
만명에	-9934
시키려	-9935
rest	-9936
ther	-9937
▁bur	-9938
▁col	-9939
▁가량의	-9940
▁개표가	-9941
▁겨냥한	-9942
▁국회에	-9943
▁기자의	-9944
▁남성과	-9945
▁남편은	-9946
▁내리고	-9947
▁노동당	-9948
▁뉴욕시	-9949
▁단체를	-9950
▁도시를	-9951
▁동물을	-9952
▁라호르	-9953
▁메모리	-9954
▁명확히	-9955
▁물건을	-9956
▁미군에	-9957
▁미래의	-9958
▁바닥에	-9959
▁바람이	-9960
▁방식을	-9961
▁보도한	-9962
▁부르는	-9963
▁부모가	-9964
▁분쟁이	-9965
▁사라진	-9966
▁선거는	-9967
▁속도를	-9968
▁스프링	-9969
▁시위로	-9970
▁신뢰를	-9971
▁신호를	-9972
▁쌍둥이	-9973
▁안보리	-9974
▁않겠다	-9975
▁압바스	-9976
▁야당은	-9977
▁여사가	-9978
▁연료를	-9979
▁외교관	-9980
▁원숭이	-9981
▁유감을	-9982
▁이르기	-9983
▁임기가	-9984
▁전력을	-9985
▁전체에	-9986
▁정치범	-9987
▁주장이	-9988
▁줄이는	-9989
▁지구의	-9990
▁추락한	-9991
▁취하지	-9992
▁태우고	-9993
▁테러의	-9994
▁특별히	-9995
▁파운드	-9996
▁판매를	-9997
▁하는데	-9998
▁항공은	-9999
▁행사할	-10000
▁호랑이	-10001
▁환경에	-10002
▁회의가	-10003
▁히드로	-10004
만달러를	-10005
시키는데	-10006
억달러의	-10007
ublic	-10008
▁says	-10009
▁국방부가	-10010
▁기자들이	-10011
▁당선자는	-10012
▁데이비스	-10013
▁둘러싸고	-10014
▁밝혔었다	-10015
▁밝혔으나	-10016
▁보였다고	-10017
▁본선에서	-10018
▁부인하고	-10019
▁사망자를	-10020
▁사상자가	-10021
▁스미스의	-10022
▁시민들은	-10023
▁아버지의	-10024
▁여객기는	-10025
▁예정되어	-10026
▁이슬람교	-10027
▁이어졌다	-10028
▁인명피해	-10029
▁일으키는	-10030
▁저항세력	-10031
▁전쟁에서	-10032
▁제외하고	-10033
▁증언했다	-10034
▁테러단체	-10035
▁표시했다	-10036
▁확인하고	-10037
▁trans	-10038
▁가자지구를	-10039
▁때문입니다	-10040
▁받아들이지	-10041
▁상원의원에	-10042
▁애니메이션	-10043
▁어린이들이	-10044
▁우주왕복선	-10045
▁이탈리아의	-10046
▁프로그램은	-10047
▁파키스탄에서	-10048
▁팔레스타인의	-10049
mm	-10050
▁닷	-10051
▁랄	-10052
▁슛	-10053
▁쪽	-10054
▁팜	-10055
돌이	-10056
디가	-10057
리야	-10058
마트	-10059
무드	-10060
박한	-10061
병은	-10062
보장	-10063
석의	-10064
선과	-10065
션을	-10066
습을	-10067
시즌	-10068
인도	-10069
전략	-10070
주기	-10071
크로	-10072
통을	-10073
현정	-10074
ick	-10075
▁87	-10076
▁96	-10077
▁lp	-10078
▁가한	-10079
▁개설	-10080
▁고장	-10081
▁김선	-10082
▁나왔	-10083
▁내세	-10084
▁당원	-10085
▁독자	-10086
▁딸의	-10087
▁리우	-10088
▁마스	-10089
▁매력	-10090
▁맥주	-10091
▁명에	-10092
▁모가	-10093
▁모으	-10094
▁무크	-10095
▁믿는	-10096
▁방화	-10097
▁버진	-10098
▁번호	-10099
▁블룸	-10100
▁상담	-10101
▁세웠	-10102
▁세트	-10103
▁숨어	-10104
▁슈워	-10105
▁시일	-10106
▁싸움	-10107
▁아칸	-10108
▁앞선	-10109
▁역전	-10110
▁연안	-10111
▁영광	-10112
▁예배	-10113
▁예약	-10114
▁유용	-10115
▁유타	-10116
▁음란	-10117
▁입력	-10118
▁장비	-10119
▁저택	-10120
▁전부	-10121
▁점프	-10122
▁제일	-10123
▁제프	-10124
▁조짐	-10125
▁종파	-10126
▁징계	-10127
▁칼라	-10128
▁타협	-10129
▁토마	-10130
▁퇴역	-10131
▁파크	-10132
▁펭귄	-10133
▁포괄	-10134
▁폭로	-10135
▁휴먼	-10136
국들이	-10137
만명을	-10138
바에서	-10139
상태를	-10140
세력을	-10141
스타인	-10142
었는데	-10143
었는지	-10144
자였던	-10145
작업이	-10146
주일에	-10147
최지우	-10148
3000	-10149
arch	-10150
ings	-10151
▁bar	-10152
▁law	-10153
▁강타한	-10154
▁개선을	-10155
▁거리로	-10156
▁검찰의	-10157
▁것이기	-10158
▁고현정	-10159
▁공급을	-10160
▁관람객	-10161
▁그곳에	-10162
▁글래스	-10163
▁기대를	-10164
▁기반을	-10165
▁나눴다	-10166
▁나와즈	-10167
▁나타났	-10168
▁남한의	-10169
▁노력의	-10170
▁뉴스의	-10171
▁달라고	-10172
▁답변을	-10173
▁드라이	-10174
▁들어온	-10175
▁때마다	-10176
▁떨어질	-10177
▁라모스	-10178
▁런던에	-10179
▁마케팅	-10180
▁모두를	-10181
▁목소리	-10182
▁무장대	-10183
▁문서를	-10184
▁미시건	-10185
▁박사가	-10186
▁베탕쿠	-10187
▁보상을	-10188
▁부분은	-10189
▁붕괴된	-10190
▁비난한	-10191
▁선거의	-10192
▁성직자	-10193
▁센터의	-10194
▁손상을	-10195
▁시라크	-10196
▁아이는	-10197
▁야당의	-10198
▁언제나	-10199
▁에스토	-10200
▁요구에	-10201
▁요청한	-10202
▁운동가	-10203
▁원하지	-10204
▁이름의	-10205
▁인기가	-10206
▁있었기	-10207
▁자격을	-10208
▁자살한	-10209
▁재개할	-10210
▁재활용	-10211
▁중심에	-10212
▁지방의	-10213
▁차량은	-10214
▁총리로	-10215
▁취했다	-10216
▁친구가	-10217
▁통해서	-10218
▁페이지	-10219
▁하버드	-10220
▁행사가	-10221
▁형태로	-10222
▁확보할	-10223
되었다는	-10224
되었지만	-10225
하였으며	-10226
▁1988	-10227
▁meet	-10228
▁강화하고	-10229
▁경쟁자인	-10230
▁관점에서	-10231
▁국민들을	-10232
▁국방위원	-10233
▁국회에서	-10234
▁근본주의	-10235
▁대사관은	-10236
▁들어가는	-10237
▁라이벌인	-10238
▁러시아와	-10239
▁럼스펠드	-10240
▁말하면서	-10241
▁밝혀냈다	-10242
▁벌였다고	-10243
▁베어스턴	-10244
▁생산하는	-10245
▁수상자인	-10246
▁에따르면	-10247
▁에르도간	-10248
▁연방수사	-10249
▁영국으로	-10250
▁인질들의	-10251
▁일어나지	-10252
▁책임자인	-10253
▁취소했다	-10254
▁크리스마	-10255
▁탈레반과	-10256
▁테러지원	-10257
▁필요성을	-10258
▁해결책을	-10259
▁행사에서	-10260
▁호주에서	-10261
▁확신했다	-10262
▁회사들이	-10263
▁휴대전화	-10264
▁힐러리는	-10265
▁court	-10266
▁secur	-10267
▁관광객들이	-10268
▁국무장관이	-10269
▁되었습니다	-10270
▁미국에서는	-10271
▁상원의원인	-10272
▁에스토니아	-10273
▁지지선언을	-10274
▁하락했습니다	-10275
hd	-10276
io	-10277
▁줬	-10278
▁챙	-10279
감은	-10280
검찰	-10281
게도	-10282
고가	-10283
두를	-10284
롭고	-10285
르며	-10286
바흐	-10287
밴드	-10288
번에	-10289
비한	-10290
선한	-10291
스프	-10292
심의	-10293
의원	-10294
이란	-10295
장애	-10296
주전	-10297
채가	-10298
청의	-10299
총장	-10300
층을	-10301
켓을	-10302
하러	-10303
ief	-10304
ise	-10305
rac	-10306
▁bm	-10307
▁감기	-10308
▁거둔	-10309
▁구경	-10310
▁권리	-10311
▁녹색	-10312
▁대가	-10313
▁대니	-10314
▁대략	-10315
▁뒤집	-10316
▁들을	-10317
▁라시	-10318
▁로버	-10319
▁매주	-10320
▁머무	-10321
▁명칭	-10322
▁바꿔	-10323
▁바쿠	-10324
▁반환	-10325
▁발달	-10326
▁발효	-10327
▁배상	-10328
▁뱅크	-10329
▁본다	-10330
▁성사	-10331
▁손실	-10332
▁수수	-10333
▁스텔	-10334
▁승점	-10335
▁신원	-10336
▁안락	-10337
▁암시	-10338
▁역설	-10339
▁열려	-10340
▁요새	-10341
▁운반	-10342
▁유입	-10343
▁유해	-10344
▁은하	-10345
▁이바	-10346
▁임상	-10347
▁잡은	-10348
▁제의	-10349
▁조속	-10350
▁존경	-10351
▁좋다	-10352
▁주당	-10353
▁줄여	-10354
▁지낸	-10355
▁착취	-10356
▁창설	-10357
▁청년	-10358
▁최후	-10359
▁침팬	-10360
▁타계	-10361
▁털어	-10362
▁파란	-10363
▁포터	-10364
▁품목	-10365
▁피로	-10366
▁하산	-10367
▁하얀	-10368
▁한층	-10369
▁할지	-10370
▁행성	-10371
▁현상	-10372
▁혈액	-10373
▁흰색	-10374
▁히스	-10375
대표는	-10376
돼있다	-10377
되지만	-10378
베리아	-10379
시까지	-10380
연구소	-10381
지기도	-10382
하자는	-10383
해서는	-10384
회장은	-10385
ents	-10386
iver	-10387
▁cap	-10388
▁kim	-10389
▁usa	-10390
▁wto	-10391
▁경영진	-10392
▁공급이	-10393
▁국가는	-10394
▁국가들	-10395
▁근처에	-10396
▁끝나는	-10397
▁나가는	-10398
▁나오고	-10399
▁노력에	-10400
▁높이의	-10401
▁덕분에	-10402
▁동유럽	-10403
▁머리에	-10404
▁명백히	-10405
▁모로코	-10406
▁목적은	-10407
▁미국산	-10408
▁미끄러	-10409
▁병원을	-10410
▁복귀할	-10411
▁분위기	-10412
▁사람과	-10413
▁사원을	-10414
▁사이언	-10415
▁선출된	-10416
▁쇠고기	-10417
▁수업을	-10418
▁실업수	-10419
▁싶다고	-10420
▁쓰레기	-10421
▁않아도	-10422
▁야당이	-10423
▁어두운	-10424
▁어려움	-10425
▁여왕의	-10426
▁연구의	-10427
▁영감을	-10428
▁영향력	-10429
▁올리고	-10430
▁요청할	-10431
▁이래로	-10432
▁인근서	-10433
▁일으켜	-10434
▁자살을	-10435
▁자이언	-10436
▁작성한	-10437
▁정도가	-10438
▁정보가	-10439
▁정상화	-10440
▁정책이	-10441
▁제작된	-10442
▁조건을	-10443
▁조치에	-10444
▁종교적	-10445
▁주가가	-10446
▁주장은	-10447
▁지수가	-10448
▁진전을	-10449
▁차이나	-10450
▁차지한	-10451
▁카라치	-10452
▁코스피	-10453
▁티셔츠	-10454
▁패리스	-10455
▁폭발물	-10456
▁필요할	-10457
▁하나가	-10458
▁해왔다	-10459
▁혼란에	-10460
▁확인된	-10461
▁환경을	-10462
▁환자의	-10463
▁황우석	-10464
▁회견을	-10465
되었는데	-10466
▁2011	-10467
▁city	-10468
▁take	-10469
▁경제성장	-10470
▁골든글로	-10471
▁교전으로	-10472
▁기록하며	-10473
▁대대적인	-10474
▁리처드슨	-10475
▁명단에서	-10476
▁모가디슈	-10477
▁무승부를	-10478
▁반박했다	-10479
▁부통령이	-10480
▁북부에서	-10481
▁분야에서	-10482
▁사랑하는	-10483
▁상공에서	-10484
▁상승세를	-10485
▁슈퍼대의	-10486
▁스트레스	-10487
▁야스쿠니	-10488
▁어머니가	-10489
▁원자바오	-10490
▁이라크인	-10491
▁일반적인	-10492
▁입었으며	-10493
▁제공하고	-10494
▁지도부는	-10495
▁지속적인	-10496
▁지지율을	-10497
▁추산했다	-10498
▁클린턴을	-10499
▁하더라도	-10500
▁현지경찰	-10501
트레이어스	-10502
▁가자지구에	-10503
▁감소했다고	-10504
▁사무총장이	-10505
▁스피어스는	-10506
▁웹사이트는	-10507
▁이산화탄소	-10508
▁주장했지만	-10509
▁지지한다고	-10510
▁한나라당이	-10511
▁마이스페이스	-10512
18	-10513
aw	-10514
ep	-10515
ma	-10516
mp	-10517
np	-10518
sh	-10519
▁꼽	-10520
▁닐	-10521
▁뚜	-10522
▁란	-10523
▁했	-10524
강에	-10525
견을	-10526
권의	-10527
냄새	-10528
너럴	-10529
누엘	-10530
당과	-10531
등한	-10532
디스	-10533
로우	-10534
로지	-10535
론을	-10536
론의	-10537
르던	-10538
리한	-10539
미널	-10540
받지	-10541
부대	-10542
부모	-10543
부인	-10544
브스	-10545
성한	-10546
소시	-10547
수준	-10548
쉬는	-10549
스텔	-10550
악한	-10551
열에	-10552
위와	-10553
인데	-10554
임에	-10555
조에	-10556
조정	-10557
조치	-10558
주인	-10559
지면	-10560
집행	-10561
치기	-10562
타와	-10563
팀의	-10564
포트	-10565
한국	-10566
행정	-10567
ket	-10568
▁92	-10569
▁do	-10570
▁il	-10571
▁가라	-10572
▁가축	-10573
▁가할	-10574
▁거세	-10575
▁검시	-10576
▁겨우	-10577
▁격돌	-10578
▁고민	-10579
▁공기	-10580
▁관절	-10581
▁구간	-10582
▁끌고	-10583
▁내는	-10584
▁뇌물	-10585
▁도메	-10586
▁되풀	-10587
▁듣지	-10588
▁따를	-10589
▁레빈	-10590
▁리얼	-10591
▁메인	-10592
▁면제	-10593
▁모바	-10594
▁반란	-10595
▁밝힐	-10596
▁불평	-10597
▁설계	-10598
▁세우	-10599
▁소화	-10600
▁실은	-10601
▁안젤	-10602
▁알렌	-10603
▁알파	-10604
▁영원	-10605
▁오고	-10606
▁유시	-10607
▁이룩	-10608
▁일로	-10609
▁전원	-10610
▁정식	-10611
▁정오	-10612
▁줄이	-10613
▁중계	-10614
▁진흙	-10615
▁집무	-10616
▁추종	-10617
▁추출	-10618
▁충족	-10619
▁취득	-10620
▁침수	-10621
▁칭찬	-10622
▁카우	-10623
▁콘텐	-10624
▁크다	-10625
▁파르	-10626
▁펀드	-10627
▁피플	-10628
▁헤이	-10629
▁현행	-10630
▁호킹	-10631
면으로	-10632
블랜드	-10633
사건에	-10634
시켜야	-10635
연상을	-10636
이트를	-10637
조사를	-10638
총장은	-10639
테리아	-10640
해에서	-10641
해주는	-10642
▁191	-10643
▁afp	-10644
▁air	-10645
▁car	-10646
▁nfl	-10647
▁org	-10648
▁ter	-10649
▁top	-10650
▁wfp	-10651
▁감사를	-10652
▁계획의	-10653
▁공공장	-10654
▁관계는	-10655
▁국민이	-10656
▁군대가	-10657
▁뉴욕증	-10658
▁단계에	-10659
▁단순한	-10660
▁대기업	-10661
▁도시로	-10662
▁독일인	-10663
▁들어오	-10664
▁로스앤	-10665
▁로켓포	-10666
▁로한은	-10667
▁마라도	-10668
▁무엇이	-10669
▁바다로	-10670
▁박격포	-10671
▁반군을	-10672
▁방문이	-10673
▁버냉키	-10674
▁버마의	-10675
▁범죄에	-10676
▁보안관	-10677
▁사고에	-10678
▁사태는	-10679
▁사태의	-10680
▁수류탄	-10681
▁수준의	-10682
▁수치다	-10683
▁신문에	-10684
▁신발을	-10685
▁알제리	-10686
▁야후는	-10687
▁양국간	-10688
▁언급은	-10689
▁없었던	-10690
▁올리는	-10691
▁우리베	-10692
▁위기가	-10693
▁의미를	-10694
▁의석을	-10695
▁의지를	-10696
▁이어질	-10697
▁이해할	-10698
▁있거나	-10699
▁장거리	-10700
▁장비를	-10701
▁전기가	-10702
▁제니퍼	-10703
▁제조업	-10704
▁제출할	-10705
▁줄이고	-10706
▁차례로	-10707
▁차례의	-10708
▁카자흐	-10709
▁터키군	-10710
▁투데이	-10711
▁투표할	-10712
▁판결은	-10713
▁판매할	-10714
▁합의는	-10715
▁헬기를	-10716
▁협력할	-10717
▁활성화	-10718
▁힐튼이	-10719
만달러의	-10720
자회담에	-10721
지역으로	-10722
ights	-10723
ondon	-10724
▁bank	-10725
▁lpga	-10726
▁pros	-10727
▁serv	-10728
▁같습니다	-10729
▁국회의사	-10730
▁남아있다	-10731
▁네바다주	-10732
▁도로에서	-10733
▁드립니다	-10734
▁목격자는	-10735
▁무장괴한	-10736
▁받았지만	-10737
▁방지하기	-10738
▁백악관에	-10739
▁보호하고	-10740
▁보호하는	-10741
▁사라졌다	-10742
▁사무실을	-10743
▁상관없이	-10744
▁수퍼대의	-10745
▁시달리고	-10746
▁시스템이	-10747
▁시작되는	-10748
▁예상보다	-10749
▁유일하게	-10750
▁전대통령	-10751
▁전세계에	-10752
▁조사하기	-10753
▁주최측은	-10754
▁중단하고	-10755
▁진출했다	-10756
▁차원에서	-10757
▁참여하는	-10758
▁추가적인	-10759
▁추정했다	-10760
▁칸다하르	-10761
▁컴퓨터가	-10762
▁크리스티	-10763
▁탈레반의	-10764
▁티베트의	-10765
▁페이스북	-10766
▁폭풍으로	-10767
▁프랑스와	-10768
▁후보들은	-10769
▁count	-10770
▁elect	-10771
▁경기부양책	-10772
▁다큐멘터리	-10773
▁시상식에서	-10774
▁시카고에서	-10775
▁이르기까지	-10776
▁인도주의적	-10777
▁중요하다고	-10778
▁london	-10779
▁가자지구에서	-10780
▁로스앤젤레스	-10781
▁아프가니스탄에	-10782
▁아프가니스탄의	-10783
▁security	-10784
co	-10785
ds	-10786
▁렉	-10787
▁류	-10788
▁웬	-10789
▁짜	-10790
▁튀	-10791
감시	-10792
개혁	-10793
금은	-10794
나귀	-10795
냈던	-10796
놓은	-10797
라노	-10798
란히	-10799
미가	-10800
베리	-10801
병에	-10802
병의	-10803
보의	-10804
소득	-10805
수감	-10806
숙한	-10807
예를	-10808
워터	-10809
월과	-10810
있고	-10811
종이	-10812
참모	-10813
츠의	-10814
캐슬	-10815
턴은	-10816
히고	-10817
ech	-10818
ety	-10819
way	-10820
▁00	-10821
▁ak	-10822
▁so	-10823
▁거머	-10824
▁과시	-10825
▁광우	-10826
▁구역	-10827
▁근교	-10828
▁기습	-10829
▁나노	-10830
▁내비	-10831
▁놓은	-10832
▁다녀	-10833
▁대지	-10834
▁도주	-10835
▁둘째	-10836
▁드물	-10837
▁득점	-10838
▁러드	-10839
▁레논	-10840
▁로빈	-10841
▁롬니	-10842
▁만났	-10843
▁맞붙	-10844
▁매머	-10845
▁맺고	-10846
▁모터	-10847
▁몰래	-10848
▁몸무	-10849
▁발이	-10850
▁밤새	-10851
▁배를	-10852
▁배아	-10853
▁백신	-10854
▁밴드	-10855
▁범행	-10856
▁베리	-10857
▁부른	-10858
▁분실	-10859
▁불공	-10860
▁비영	-10861
▁비유	-10862
▁사카	-10863
▁사탕	-10864
▁생성	-10865
▁서신	-10866
▁세실	-10867
▁소실	-10868
▁숫자	-10869
▁승부	-10870
▁싶은	-10871
▁악어	-10872
▁앞당	-10873
▁언어	-10874
▁여부	-10875
▁연령	-10876
▁연휴	-10877
▁예수	-10878
▁오키	-10879
▁올바	-10880
▁우방	-10881
▁위태	-10882
▁유효	-10883
▁응원	-10884
▁이례	-10885
▁이스	-10886
▁인계	-10887
▁일할	-10888
▁자크	-10889
▁잠을	-10890
▁장치	-10891
▁저널	-10892
▁전송	-10893
▁절감	-10894
▁점이	-10895
▁종이	-10896
▁좌파	-10897
▁주교	-10898
▁주미	-10899
▁중산	-10900
▁지중	-10901
▁차로	-10902
▁창조	-10903
▁출국	-10904
▁취약	-10905
▁크고	-10906
▁타지	-10907
▁탄소	-10908
▁패한	-10909
▁포위	-10910
▁포츠	-10911
▁해를	-10912
▁허블	-10913
▁호화	-10914
▁회부	-10915
▁회색	-10916
▁힘이	-10917
년에도	-10918
는지에	-10919
메리카	-10920
방에서	-10921
스와의	-10922
였으나	-10923
으려는	-10924
의사를	-10925
하기는	-10926
하는지	-10927
ense	-10928
▁350	-10929
▁fed	-10930
▁may	-10931
▁sch	-10932
▁url	-10933
▁결혼식	-10934
▁경우가	-10935
▁계획한	-10936
▁구체적	-10937
▁국가주	-10938
▁그룹의	-10939
▁기간에	-10940
▁기간을	-10941
▁김선일	-10942
▁눈물을	-10943
▁뉴캐슬	-10944
▁느낀다	-10945
▁당국과	-10946
▁당나귀	-10947
▁대만의	-10948
▁대사가	-10949
▁대주교	-10950
▁동반한	-10951
▁되돌아	-10952
▁말라고	-10953
▁맞았다	-10954
▁명단에	-10955
▁무너져	-10956
▁바람직	-10957
▁발사를	-10958
▁발전을	-10959
▁버스를	-10960
▁보여줄	-10961
▁본사를	-10962
▁부부의	-10963
▁북부의	-10964
▁비판을	-10965
▁빠졌다	-10966
▁사항은	-10967
▁서울의	-10968
▁설치된	-10969
▁셰이크	-10970
▁손해를	-10971
▁쇼핑몰	-10972
▁수용할	-10973
▁시간에	-10974
▁시설에	-10975
▁심문을	-10976
▁아내와	-10977
▁아들인	-10978
▁아이돌	-10979
▁아칸소	-10980
▁양국이	-10981
▁엘바라	-10982
▁여왕은	-10983
▁열차가	-10984
▁영국이	-10985
▁오마르	-10986
▁의무를	-10987
▁의혹에	-10988
▁일정이	-10989
▁임무는	-10990
▁있었을	-10991
▁자산을	-10992
▁자세를	-10993
▁재정적	-10994
▁재확인	-10995
▁접전을	-10996
▁제안한	-10997
▁제프리	-10998
▁주인이	-10999
▁지속될	-11000
▁참석해	-11001
▁찾았다	-11002
▁최선의	-11003
▁축구팬	-11004
▁케이시	-11005
▁코끼리	-11006
▁토론을	-11007
▁판단을	-11008
▁프레드	-11009
▁하나를	-11010
▁할아버	-11011
▁행사는	-11012
▁향하고	-11013
▁호텔을	-11014
▁후지모	-11015
선거에서	-11016
센터에서	-11017
억달러를	-11018
적이었다	-11019
퍼센트의	-11020
▁1200	-11021
▁1981	-11022
▁life	-11023
▁공동으로	-11024
▁구조대원	-11025
▁군인들은	-11026
▁금지하고	-11027
▁기록하고	-11028
▁대통령도	-11029
▁브리티시	-11030
▁비밀리에	-11031
▁비행기에	-11032
▁사람들도	-11033
▁세계보건	-11034
▁승객들이	-11035
▁않겠다는	-11036
▁어머니와	-11037
▁유세에서	-11038
▁전국적인	-11039
▁점프하는	-11040
▁정해지지	-11041
▁중요성을	-11042
▁지구에서	-11043
▁지지율이	-11044
▁촉구하는	-11045
▁총격으로	-11046
▁학생들의	-11047
▁헤럴드가	-11048
▁후보들이	-11049
▁관계자들과	-11050
▁다이애나가	-11051
▁대통령과의	-11052
▁버지니아주	-11053
▁소식입니다	-11054
▁아시아에서	-11055
▁엘바라데이	-11056
▁의원들에게	-11057
▁짐바브웨의	-11058
▁카자흐스탄	-11059
▁폭력사태를	-11060
▁폭탄테러를	-11061
▁프로젝트를	-11062
▁경찰에따르면	-11063
▁해수욕장에서	-11064
▁연방준비제도이사회	-11065
cr	-11066
ha	-11067
sc	-11068
▁끈	-11069
▁댓	-11070
▁밸	-11071
▁앰	-11072
▁즈	-11073
▁핑	-11074
건설	-11075
경이	-11076
구간	-11077
길에	-11078
너스	-11079
년도	-11080
놨다	-11081
다코	-11082
락은	-11083
망이	-11084
문의	-11085
보면	-11086
브리	-11087
시경	-11088
액은	-11089
여행	-11090
우로	-11091
운을	-11092
음악	-11093
일즈	-11094
자민	-11095
장일	-11096
재를	-11097
전선	-11098
줘야	-11099
질유	-11100
테인	-11101
티를	-11102
호한	-11103
ail	-11104
▁97	-11105
▁bb	-11106
▁br	-11107
▁hy	-11108
▁kn	-11109
▁kt	-11110
▁po	-11111
▁가기	-11112
▁가서	-11113
▁개가	-11114
▁개별	-11115
▁격리	-11116
▁경보	-11117
▁곳의	-11118
▁그럼	-11119
▁기조	-11120
▁기초	-11121
▁끌려	-11122
▁닥터	-11123
▁단일	-11124
▁당혹	-11125
▁도발	-11126
▁도서	-11127
▁두개	-11128
▁두뇌	-11129
▁드림	-11130
▁들은	-11131
▁디에	-11132
▁땅을	-11133
▁로페	-11134
▁마호	-11135
▁막고	-11136
▁면역	-11137
▁몸이	-11138
▁문자	-11139
▁방치	-11140
▁부작	-11141
▁부품	-11142
▁비준	-11143
▁비즈	-11144
▁빠뜨	-11145
▁서안	-11146
▁서쪽	-11147
▁설정	-11148
▁성전	-11149
▁스케	-11150
▁시판	-11151
▁신장	-11152
▁실어	-11153
▁싫어	-11154
▁아끼	-11155
▁아사	-11156
▁아우	-11157
▁오피	-11158
▁원화	-11159
▁유망	-11160
▁의식	-11161
▁인신	-11162
▁일단	-11163
▁일명	-11164
▁잃고	-11165
▁자서	-11166
▁재벌	-11167
▁제가	-11168
▁조명	-11169
▁조셉	-11170
▁조언	-11171
▁지닌	-11172
▁지뢰	-11173
▁진단	-11174
▁첨단	-11175
▁촛불	-11176
▁추격	-11177
▁측에	-11178
▁치고	-11179
▁침투	-11180
▁키스	-11181
▁타결	-11182
▁테리	-11183
▁통증	-11184
▁틀림	-11185
▁평소	-11186
▁폴란	-11187
▁해킹	-11188
▁후퇴	-11189
▁휴양	-11190
기간을	-11191
달러의	-11192
된다는	-11193
사건을	-11194
서비스	-11195
시위를	-11196
었다는	-11197
일에도	-11198
화하는	-11199
able	-11200
alth	-11201
ital	-11202
ward	-11203
▁cam	-11204
▁get	-11205
▁leg	-11206
▁med	-11207
▁mus	-11208
▁pml	-11209
▁red	-11210
▁ref	-11211
▁sum	-11212
▁개최된	-11213
▁거래가	-11214
▁겪었다	-11215
▁경기도	-11216
▁경기의	-11217
▁경제는	-11218
▁경제와	-11219
▁고려해	-11220
▁고향인	-11221
▁공화국	-11222
▁과거의	-11223
▁구하기	-11224
▁군대를	-11225
▁규모는	-11226
▁기도를	-11227
▁나토군	-11228
▁날씨가	-11229
▁남편과	-11230
▁논의가	-11231
▁누르고	-11232
▁뉴스는	-11233
▁대표인	-11234
▁되풀이	-11235
▁마련할	-11236
▁마을에	-11237
▁말아야	-11238
▁맡았던	-11239
▁모았다	-11240
▁무너진	-11241
▁물었다	-11242
▁미네소	-11243
▁미드필	-11244
▁발표에	-11245
▁방송의	-11246
▁보호할	-11247
▁불렀다	-11248
▁사임할	-11249
▁생산할	-11250
▁성추행	-11251
▁소녀가	-11252
▁소리가	-11253
▁수십억	-11254
▁수치를	-11255
▁시장과	-11256
▁시즌을	-11257
▁아기가	-11258
▁아기의	-11259
▁아들의	-11260
▁알자와	-11261
▁양측의	-11262
▁어디서	-11263
▁언제든	-11264
▁오딩가	-11265
▁운행을	-11266
▁유수프	-11267
▁응답자	-11268
▁이것을	-11269
▁인정한	-11270
▁인정할	-11271
▁있을지	-11272
▁장치를	-11273
▁전망이	-11274
▁전쟁의	-11275
▁전하며	-11276
▁중국인	-11277
▁증시의	-11278
▁지나지	-11279
▁지진은	-11280
▁지키고	-11281
▁지키기	-11282
▁진술을	-11283
▁차이를	-11284
▁타이완	-11285
▁태국의	-11286
▁터키는	-11287
▁토론토	-11288
▁판사가	-11289
▁페트로	-11290
▁풍부한	-11291
▁프로듀	-11292
▁피아노	-11293
▁한다며	-11294
▁합의가	-11295
▁헌법을	-11296
▁호르몬	-11297
▁화상을	-11298
▁회동을	-11299
▁힘들다	-11300
▁sold	-11301
▁week	-11302
▁경찰서에	-11303
▁글래스고	-11304
▁기반으로	-11305
▁기상청은	-11306
▁니콜라스	-11307
▁대답했다	-11308
▁라이스는	-11309
▁명령했다	-11310
▁모습으로	-11311
▁민주당과	-11312
▁받았으나	-11313
▁벌어지고	-11314
▁부문에서	-11315
▁비즈니스	-11316
▁사임했다	-11317
▁상원에서	-11318
▁상파울루	-11319
▁시점에서	-11320
▁아이들과	-11321
▁애완동물	-11322
▁연기했다	-11323
▁예상되는	-11324
▁우주정거	-11325
▁웨스트버	-11326
▁위협하는	-11327
▁위협했다	-11328
▁유명하다	-11329
▁이라크가	-11330
▁이용하고	-11331
▁이재민이	-11332
▁인디아나	-11333
▁인종차별	-11334
▁일정으로	-11335
▁자신감을	-11336
▁장난감을	-11337
▁재정경제	-11338
▁정상들은	-11339
▁제공했다	-11340
▁지나치게	-11341
▁지방에서	-11342
▁착수했다	-11343
▁참가했다	-11344
▁참여하지	-11345
▁참여했다	-11346
▁추진하고	-11347
▁커뮤니티	-11348
▁쿠데타로	-11349
▁쿠르드족	-11350
▁판결했다	-11351
▁팔레스타	-11352
▁확실하지	-11353
▁활동하는	-11354
▁회사들은	-11355
▁plans	-11356
▁국제유가는	-11357
▁아이디어를	-11358
▁지도자들과	-11359
▁투자자들은	-11360
▁투자자들이	-11361
▁한국인들이	-11362
▁former	-11363
▁세계보건기구	-11364
▁정상회담에서	-11365
▁남아프리카공화국	-11366
▁association	-11367
az	-11368
dp	-11369
ug	-11370
▁릭	-11371
▁빗	-11372
▁빵	-11373
▁툴	-11374
가족	-11375
거는	-11376
경비	-11377
공사	-11378
구역	-11379
그라	-11380
그래	-11381
극을	-11382
긴다	-11383
대사	-11384
돌프	-11385
동생	-11386
되게	-11387
두에	-11388
들리	-11389
디언	-11390
디의	-11391
려면	-11392
로로	-11393
뤘다	-11394
문과	-11395
베르	-11396
비엘	-11397
센은	-11398
야의	-11399
얄라	-11400
열을	-11401
오염	-11402
욕을	-11403
인수	-11404
일라	-11405
일째	-11406
자지	-11407
작업	-11408
조로	-11409
종일	-11410
죄로	-11411
주와	-11412
중계	-11413
채의	-11414
층의	-11415
트맨	-11416
퍼스	-11417
편에	-11418
형에	-11419
ctv	-11420
urn	-11421
▁94	-11422
▁bu	-11423
▁hs	-11424
▁pf	-11425
▁가결	-11426
▁가던	-11427
▁각자	-11428
▁갈등	-11429
▁격려	-11430
▁결함	-11431
▁계곡	-11432
▁고마	-11433
▁공판	-11434
▁공학	-11435
▁구사	-11436
▁구할	-11437
▁구형	-11438
▁그때	-11439
▁길에	-11440
▁김경	-11441
▁냄새	-11442
▁누드	-11443
▁단식	-11444
▁대면	-11445
▁뒤따	-11446
▁듯한	-11447
▁때가	-11448
▁라왈	-11449
▁레저	-11450
▁로라	-11451
▁만이	-11452
▁만찬	-11453
▁맞게	-11454
▁몸집	-11455
▁미친	-11456
▁바나	-11457
▁바에	-11458
▁방한	-11459
▁병에	-11460
▁복사	-11461
▁본드	-11462
▁빛을	-11463
▁속옷	-11464
▁속한	-11465
▁수업	-11466
▁승용	-11467
▁시범	-11468
▁쓰여	-11469
▁아닐	-11470
▁악영	-11471
▁야자	-11472
▁양보	-11473
▁얻는	-11474
▁에디	-11475
▁에버	-11476
▁에탄	-11477
▁오징	-11478
▁오프	-11479
▁와의	-11480
▁우호	-11481
▁의석	-11482
▁이나	-11483
▁이며	-11484
▁일방	-11485
▁입학	-11486
▁자라	-11487
▁자백	-11488
▁잔디	-11489
▁재경	-11490
▁저작	-11491
▁정통	-11492
▁제패	-11493
▁조장	-11494
▁종말	-11495
▁종신	-11496
▁종양	-11497
▁좋게	-11498
▁즐거	-11499
▁지분	-11500
▁지침	-11501
▁집어	-11502
▁차림	-11503
▁채워	-11504
▁총알	-11505
▁출장	-11506
▁침범	-11507
▁침착	-11508
▁캐리	-11509
▁캠벨	-11510
▁코네	-11511
▁콜레	-11512
▁테마	-11513
▁퇴직	-11514
▁티모	-11515
▁평론	-11516
▁폴리	-11517
▁폴슨	-11518
▁피셔	-11519
▁하리	-11520
▁호수	-11521
▁회피	-11522
년형을	-11523
대사는	-11524
대학의	-11525
렸지만	-11526
버그는	-11527
번이나	-11528
스탄불	-11529
스트롱	-11530
시간에	-11531
시설을	-11532
자리에	-11533
장치를	-11534
적이지	-11535
ange	-11536
ants	-11537
atch	-11538
ourn	-11539
▁125	-11540
▁787	-11541
▁ann	-11542
▁reg	-11543
▁sci	-11544
▁가격에	-11545
▁가져다	-11546
▁갤런당	-11547
▁경찰을	-11548
▁공격의	-11549
▁국세청	-11550
▁국제사	-11551
▁군부가	-11552
▁권한을	-11553
▁그린피	-11554
▁금융위	-11555
▁기술의	-11556
▁니케이	-11557
▁다음과	-11558
▁단어를	-11559
▁단체에	-11560
▁대선을	-11561
▁대중의	-11562
▁던졌다	-11563
▁도널드	-11564
▁뒤에서	-11565
▁라이프	-11566
▁마약을	-11567
▁매코맥	-11568
▁맥케인	-11569
▁맥코맥	-11570
▁맨해튼	-11571
▁무엇인	-11572
▁바바라	-11573
▁바이오	-11574
▁방사능	-11575
▁버몬트	-11576
▁베컴이	-11577
▁벤자민	-11578
▁부상당	-11579
▁브루스	-11580
▁비교해	-11581
▁비무장	-11582
▁사업에	-11583
▁산불로	-11584
▁생일을	-11585
▁선언한	-11586
▁세계에	-11587
▁소수의	-11588
▁수위가	-11589
▁스피처	-11590
▁시도를	-11591
▁식량을	-11592
▁식민지	-11593
▁아스널	-11594
▁아흐메	-11595
▁안타깝	-11596
▁얼음이	-11597
▁여파로	-11598
▁역사가	-11599
▁영장을	-11600
▁요구할	-11601
▁우승한	-11602
▁위에서	-11603
▁이름은	-11604
▁입국을	-11605
▁자유의	-11606
▁장소로	-11607
▁재판은	-11608
▁잭슨은	-11609
▁정신과	-11610
▁정치에	-11611
▁존드로	-11612
▁주말에	-11613
▁주어진	-11614
▁중상을	-11615
▁지원에	-11616
▁지지율	-11617
▁참가할	-11618
▁철저한	-11619
▁총기난	-11620
▁총선에	-11621
▁최대한	-11622
▁출마할	-11623
▁출전한	-11624
▁커지고	-11625
▁크라우	-11626
▁투표는	-11627
▁특이한	-11628
▁페널티	-11629
▁필요는	-11630
▁협조를	-11631
단체들은	-11632
통합민주	-11633
▁1953	-11634
▁8226	-11635
▁fire	-11636
▁rese	-11637
▁가족에게	-11638
▁개최되는	-11639
▁결의안에	-11640
▁경제적인	-11641
▁국가보안	-11642
▁금지하는	-11643
▁기본적인	-11644
▁단체들은	-11645
▁당국자는	-11646
▁대부분을	-11647
▁데이터를	-11648
▁도미니카	-11649
▁동영상은	-11650
▁떨어지는	-11651
▁마흐무드	-11652
▁말했지만	-11653
▁미드필더	-11654
▁박테리아	-11655
▁법무장관	-11656
▁부상자는	-11657
▁부족으로	-11658
▁브리트니	-11659
▁사망하는	-11660
▁사무총장	-11661
▁사용되고	-11662
▁사이트에	-11663
▁사회주의	-11664
▁상승으로	-11665
▁선정됐다	-11666
▁수사관은	-11667
▁수하르토	-11668
▁시스템은	-11669
▁시위대와	-11670
▁알자와히	-11671
▁암스트롱	-11672
▁앞으로의	-11673
▁어린이를	-11674
▁어머니는	-11675
▁연구팀은	-11676
▁용의자의	-11677
▁유권자의	-11678
▁이스탄불	-11679
▁일자리가	-11680
▁일축했다	-11681
▁전문가인	-11682
▁정상적인	-11683
▁좋아한다	-11684
▁중단됐다	-11685
▁중심으로	-11686
▁중앙정보	-11687
▁차베스는	-11688
▁카트리나	-11689
▁케르비엘	-11690
▁학생들과	-11691
▁확인하는	-11692
▁후세인의	-11693
▁death	-11694
▁관광객들은	-11695
▁메사추세츠	-11696
▁보도합니다	-11697
▁사망자수가	-11698
▁살해했다고	-11699
▁수감자들을	-11700
▁시위자들이	-11701
▁아웅산수치	-11702
▁알카에다는	-11703
▁이라크전에	-11704
▁크리스티나	-11705
▁확인했다고	-11706
▁모스크바에서	-11707
▁미국인들에게	-11708
▁사망했습니다	-11709
▁유럽축구연맹	-11710
▁control	-11711
▁research	-11712
84	-11713
ik	-11714
oo	-11715
wc	-11716
▁굶	-11717
▁꽤	-11718
▁닿	-11719
▁룰	-11720
▁룸	-11721
▁앗	-11722
▁옵	-11723
▁칩	-11724
▁캥	-11725
가리	-11726
거루	-11727
겔라	-11728
곳의	-11729
구로	-11730
냐고	-11731
데일	-11732
머는	-11733
발의	-11734
봉을	-11735
부족	-11736
비용	-11737
산이	-11738
상승	-11739
시바	-11740
엄한	-11741
웨어	-11742
유의	-11743
작을	-11744
장치	-11745
재가	-11746
저널	-11747
적은	-11748
절을	-11749
카르	-11750
통화	-11751
해져	-11752
ces	-11753
ino	-11754
ugh	-11755
▁ev	-11756
▁간섭	-11757
▁감추	-11758
▁개월	-11759
▁건립	-11760
▁걷는	-11761
▁격추	-11762
▁경신	-11763
▁고정	-11764
▁공략	-11765
▁교내	-11766
▁군용	-11767
▁그날	-11768
▁김계	-11769
▁꿈을	-11770
▁나쁘	-11771
▁냉동	-11772
▁넣어	-11773
▁노왁	-11774
▁농부	-11775
▁닉슨	-11776
▁다짐	-11777
▁돕고	-11778
▁동점	-11779
▁딸인	-11780
▁라틴	-11781
▁러셀	-11782
▁리치	-11783
▁마주	-11784
▁매수	-11785
▁메뉴	-11786
▁미망	-11787
▁미트	-11788
▁미하	-11789
▁방북	-11790
▁방식	-11791
▁백화	-11792
▁번영	-11793
▁복부	-11794
▁복지	-11795
▁볼리	-11796
▁불행	-11797
▁브레	-11798
▁산소	-11799
▁생일	-11800
▁서버	-11801
▁선생	-11802
▁세균	-11803
▁세이	-11804
▁식이	-11805
▁아미	-11806
▁악성	-11807
▁안겨	-11808
▁않자	-11809
▁애도	-11810
▁얼리	-11811
▁연대	-11812
▁예보	-11813
▁오직	-11814
▁오차	-11815
▁완공	-11816
▁요하	-11817
▁운하	-11818
▁월터	-11819
▁웨이	-11820
▁이내	-11821
▁잃지	-11822
▁장갑	-11823
▁전과	-11824
▁전미	-11825
▁전비	-11826
▁정체	-11827
▁정한	-11828
▁지킬	-11829
▁책정	-11830
▁초고	-11831
▁초과	-11832
▁켈리	-11833
▁크누	-11834
▁타입	-11835
▁토양	-11836
▁펼칠	-11837
▁포유	-11838
▁폭도	-11839
▁폭등	-11840
▁하반	-11841
▁합참	-11842
▁해석	-11843
▁후쿠	-11844
▁흥행	-11845
겼으며	-11846
계획을	-11847
기적인	-11848
되지는	-11849
력으로	-11850
렸다는	-11851
문제에	-11852
선으로	-11853
세포를	-11854
소시에	-11855
시간이	-11856
시키다	-11857
어가고	-11858
에이커	-11859
였다는	-11860
이트는	-11861
인들과	-11862
코비치	-11863
하다며	-11864
혔다고	-11865
acks	-11866
ploy	-11867
▁110	-11868
▁750	-11869
▁bmw	-11870
▁est	-11871
▁eta	-11872
▁fts	-11873
▁pak	-11874
▁sen	-11875
▁가정에	-11876
▁가하고	-11877
▁걸렸다	-11878
▁경보를	-11879
▁경선이	-11880
▁경향이	-11881
▁경호원	-11882
▁고립된	-11883
▁공격할	-11884
▁공항은	-11885
▁과반수	-11886
▁과학자	-11887
▁교수가	-11888
▁구스마	-11889
▁국왕은	-11890
▁국왕이	-11891
▁그래미	-11892
▁그런가	-11893
▁기술은	-11894
▁기준을	-11895
▁나란히	-11896
▁나타낸	-11897
▁네덜란	-11898
▁뇌물을	-11899
▁대단히	-11900
▁대학은	-11901
▁도시에	-11902
▁동물의	-11903
▁마침내	-11904
▁만장일	-11905
▁메시지	-11906
▁명으로	-11907
▁모니터	-11908
▁모르고	-11909
▁목격한	-11910
▁몸무게	-11911
▁법정에	-11912
▁보안을	-11913
▁불안한	-11914
▁비영리	-11915
▁빠질까	-11916
▁사랑에	-11917
▁사적인	-11918
▁살해할	-11919
▁샘플을	-11920
▁석방할	-11921
▁선데이	-11922
▁수용소	-11923
▁시도한	-11924
▁시작해	-11925
▁신속한	-11926
▁아들은	-11927
▁아이티	-11928
▁아틀란	-11929
▁않았을	-11930
▁어려워	-11931
▁엔데버	-11932
▁여배우	-11933
▁여사와	-11934
▁오리건	-11935
▁위기로	-11936
▁유니버	-11937
▁유럽을	-11938
▁유리한	-11939
▁음모를	-11940
▁의식을	-11941
▁의약품	-11942
▁이사는	-11943
▁이상한	-11944
▁이의를	-11945
▁이틀간	-11946
▁일정은	-11947
▁자메이	-11948
▁잡았다	-11949
▁장관급	-11950
▁장관을	-11951
▁장기간	-11952
▁장악한	-11953
▁재개될	-11954
▁재배치	-11955
▁저희는	-11956
▁전망을	-11957
▁제너럴	-11958
▁주목을	-11959
▁준장은	-11960
▁지원한	-11961
▁진행할	-11962
▁질환을	-11963
▁출동한	-11964
▁출전을	-11965
▁취임한	-11966
▁캔자스	-11967
▁캥거루	-11968
▁코커스	-11969
▁크로커	-11970
▁타임스	-11971
▁탈라바	-11972
▁터미널	-11973
▁파병을	-11974
▁패스를	-11975
▁페리노	-11976
▁폐쇄를	-11977
▁하여금	-11978
▁학대를	-11979
▁행동은	-11980
▁협의를	-11981
▁화장실	-11982
▁회장의	-11983
▁후에도	-11984
▁휴대용	-11985
으로서의	-11986
▁1800	-11987
▁1982	-11988
▁8000	-11989
▁down	-11990
▁said	-11991
▁this	-11992
▁강조하고	-11993
▁거부하고	-11994
▁건물에서	-11995
▁것이지만	-11996
▁경찰관은	-11997
▁공원에서	-11998
▁국영방송	-11999
▁국토안보	-12000
▁금메달을	-12001
▁기소했다	-12002
▁뉴멕시코	-12003
▁담당하고	-12004
▁돌아왔다	-12005
▁동쪽으로	-12006
▁들어있는	-12007
▁따뜻하면	-12008
▁매케인을	-12009
▁모르겠다	-12010
▁목소리로	-12011
▁무시하고	-12012
▁미얀마를	-12013
▁민주변화	-12014
▁보수주의	-12015
▁부사장은	-12016
▁브라질의	-12017
▁사람들에	-12018
▁사용하기	-12019
▁사원에서	-12020
▁산사태로	-12021
▁산타클로	-12022
▁상태라고	-12023
▁선수들의	-12024
▁성폭행을	-12025
▁세실리아	-12026
▁스미스는	-12027
▁스파이스	-12028
▁스피어스	-12029
▁싶어한다	-12030
▁알베르토	-12031
▁여기에는	-12032
▁오토바이	-12033
▁오픈에서	-12034
▁올랐으며	-12035
▁왔습니다	-12036
▁움직이고	-12037
▁움직임에	-12038
▁이상으로	-12039
▁자리잡고	-12040
▁전적으로	-12041
▁조선중앙	-12042
▁주도하는	-12043
▁주지사의	-12044
▁지역이다	-12045
▁지원하기	-12046
▁착용하고	-12047
▁충격으로	-12048
▁컬럼비아	-12049
▁팬들에게	-12050
▁평양에서	-12051
▁표현했다	-12052
▁플레이어	-12053
▁피추시킨	-12054
▁하겠다고	-12055
▁하나이다	-12056
▁하락세를	-12057
▁하락하며	-12058
▁하원의원	-12059
▁해외에서	-12060
▁환영했다	-12061
▁후보에게	-12062
위원회에서	-12063
으로부터의	-12064
minist	-12065
▁prime	-12066
▁동계올림픽	-12067
▁무샤라프의	-12068
▁샤라포바는	-12069
▁슈워제네거	-12070
▁아이들에게	-12071
▁엘리베이터	-12072
▁월드시리즈	-12073
▁이슬람교도	-12074
▁전반적으로	-12075
▁체포되었다	-12076
▁클리블랜드	-12077
▁테러지원국	-12078
▁파키스탄은	-12079
▁평화적으로	-12080
▁market	-12081
▁police	-12082
▁prosec	-12083
▁united	-12084
▁자유무역협정	-12085
titution	-12086
▁administ	-12087
▁economic	-12088
▁election	-12089
24	-12090
27	-12091
we	-12092
xt	-12093
▁람	-12094
▁쉴	-12095
▁탓	-12096
▁톱	-12097
▁픽	-12098
▁혐	-12099
노는	-12100
능을	-12101
달간	-12102
동영	-12103
류가	-12104
멘토	-12105
물질	-12106
분한	-12107
브로	-12108
사람	-12109
살이	-12110
살인	-12111
세요	-12112
수수	-12113
심은	-12114
야만	-12115
오가	-12116
오프	-12117
웠던	-12118
이저	-12119
인권	-12120
일인	-12121
있지	-12122
자고	-12123
자르	-12124
잡을	-12125
장암	-12126
쟁을	-12127
지리	-12128
질러	-12129
카를	-12130
카스	-12131
쿼터	-12132
테랑	-12133
해로	-12134
호른	-12135
ads	-12136
als	-12137
ged	-12138
lam	-12139
ock	-12140
ron	-12141
unc	-12142
▁84	-12143
▁ps	-12144
▁강의	-12145
▁갤럭	-12146
▁고아	-12147
▁공통	-12148
▁구름	-12149
▁궁극	-12150
▁권한	-12151
▁그냥	-12152
▁기권	-12153
▁나치	-12154
▁낙찰	-12155
▁납세	-12156
▁낭비	-12157
▁내장	-12158
▁넓은	-12159
▁농작	-12160
▁닌텐	-12161
▁다녔	-12162
▁다뤄	-12163
▁달에	-12164
▁대담	-12165
▁라인	-12166
▁많지	-12167
▁말은	-12168
▁맹세	-12169
▁밀림	-12170
▁밀집	-12171
▁바가	-12172
▁바오	-12173
▁발부	-12174
▁불매	-12175
▁사직	-12176
▁색깔	-12177
▁서약	-12178
▁선을	-12179
▁성경	-12180
▁세대	-12181
▁셔츠	-12182
▁수마	-12183
▁수잔	-12184
▁수지	-12185
▁시한	-12186
▁아크	-12187
▁앗아	-12188
▁어휘	-12189
▁에미	-12190
▁여유	-12191
▁열쇠	-12192
▁예로	-12193
▁올드	-12194
▁올릴	-12195
▁요인	-12196
▁용인	-12197
▁원격	-12198
▁위법	-12199
▁유골	-12200
▁유태	-12201
▁이겨	-12202
▁이벤	-12203
▁인지	-12204
▁자매	-12205
▁정규	-12206
▁죄수	-12207
▁주관	-12208
▁주일	-12209
▁죽을	-12210
▁지내	-12211
▁지미	-12212
▁지저	-12213
▁직장	-12214
▁차에	-12215
▁참배	-12216
▁체스	-12217
▁출범	-12218
▁측의	-12219
▁코트	-12220
▁크기	-12221
▁터치	-12222
▁토지	-12223
▁통역	-12224
▁특사	-12225
▁편지	-12226
▁허위	-12227
▁헤르	-12228
▁혁신	-12229
▁홈런	-12230
▁확고	-12231
▁후계	-12232
계에서	-12233
기록을	-12234
레스테	-12235
레이션	-12236
명이다	-12237
방송의	-12238
버렸다	-12239
법원에	-12240
브리지	-12241
슬러는	-12242
정책을	-12243
층에서	-12244
테니스	-12245
ally	-12246
ious	-12247
ound	-12248
reak	-12249
umer	-12250
▁101	-12251
▁190	-12252
▁230	-12253
▁bag	-12254
▁det	-12255
▁lee	-12256
▁각국의	-12257
▁감옥에	-12258
▁건강을	-12259
▁걸었다	-12260
▁검찰에	-12261
▁겁니다	-12262
▁고려할	-12263
▁고문을	-12264
▁곧바로	-12265
▁공항의	-12266
▁과도한	-12267
▁규제를	-12268
▁그쳤다	-12269
▁급속히	-12270
▁기온이	-12271
▁남편을	-12272
▁달한다	-12273
▁돌려보	-12274
▁때로는	-12275
▁뛰어난	-12276
▁뛰어들	-12277
▁레이더	-12278
▁로딕은	-12279
▁린제이	-12280
▁마호메	-12281
▁만남을	-12282
▁명성을	-12283
▁모델을	-12284
▁모바일	-12285
▁무기한	-12286
▁무책임	-12287
▁물질을	-12288
▁믿는다	-12289
▁반군에	-12290
▁받았고	-12291
▁벨몬트	-12292
▁보내기	-12293
▁봤다고	-12294
▁부근에	-12295
▁부상한	-12296
▁비자를	-12297
▁빠르면	-12298
▁사람도	-12299
▁사전에	-12300
▁사태로	-12301
▁생중계	-12302
▁선거법	-12303
▁성관계	-12304
▁아끼지	-12305
▁아니고	-12306
▁아이슬	-12307
▁악화될	-12308
▁않다는	-12309
▁알리기	-12310
▁알았다	-12311
▁암살된	-12312
▁어려울	-12313
▁에이미	-12314
▁여동생	-12315
▁연관된	-12316
▁연합은	-12317
▁열렸던	-12318
▁올바른	-12319
▁요구가	-12320
▁운전을	-12321
▁유가족	-12322
▁유엔과	-12323
▁은행이	-12324
▁의료진	-12325
▁이른바	-12326
▁이씨는	-12327
▁인권을	-12328
▁인식을	-12329
▁임명된	-12330
▁재산을	-12331
▁저렴한	-12332
▁전화로	-12333
▁정권은	-12334
▁정당이	-12335
▁정보부	-12336
▁정책은	-12337
▁제공해	-12338
▁제이미	-12339
▁제품에	-12340
▁주민이	-12341
▁주석은	-12342
▁주치의	-12343
▁지중해	-12344
▁진단을	-12345
▁진실을	-12346
▁초대형	-12347
▁초래할	-12348
▁총리에	-12349
▁최우수	-12350
▁태양열	-12351
▁파견된	-12352
▁펼치고	-12353
▁피난민	-12354
▁하기로	-12355
▁학교를	-12356
▁행위가	-12357
▁헤럴드	-12358
▁협상은	-12359
▁홍수가	-12360
▁홍콩의	-12361
▁확인한	-12362
▁확인해	-12363
해달라고	-12364
icial	-12365
▁back	-12366
▁open	-12367
▁가능하게	-12368
▁공격하는	-12369
▁국민에게	-12370
▁기자들의	-12371
▁끊임없이	-12372
▁다운로드	-12373
▁다음으로	-12374
▁독일에서	-12375
▁매케인에	-12376
▁모르지만	-12377
▁모하마드	-12378
▁발생했던	-12379
▁본격적인	-12380
▁부총리는	-12381
▁승려들이	-12382
▁신용카드	-12383
▁아버지와	-12384
▁아흐마디	-12385
▁악영향을	-12386
▁애틀랜타	-12387
▁엔지니어	-12388
▁엔터테인	-12389
▁여성들을	-12390
▁오키나와	-12391
▁오피니언	-12392
▁워싱턴에	-12393
▁의료진이	-12394
▁의원들의	-12395
▁이용하여	-12396
▁자선단체	-12397
▁전형적인	-12398
▁진행중인	-12399
▁초등학교	-12400
▁포기하지	-12401
▁포함하고	-12402
▁폭발물을	-12403
▁프리메라	-12404
▁협상에서	-12405
▁희망하고	-12406
자회담에서	-12407
▁chief	-12408
▁under	-12409
▁교통사고로	-12410
▁기록했다고	-12411
▁내무장관은	-12412
▁무샤라프가	-12413
▁바이러스에	-12414
▁생각합니다	-12415
▁생방송으로	-12416
▁선거운동을	-12417
▁수색작업을	-12418
▁스피어스가	-12419
▁알카에다를	-12420
▁어린이들을	-12421
▁이스라엘군	-12422
▁일부에서는	-12423
▁토네이도가	-12424
▁구조대원들이	-12425
▁베네수엘라의	-12426
▁사이클론으로	-12427
▁살해하겠다고	-12428
▁유권자들에게	-12429
▁퍼트레이어스	-12430
▁chinese	-12431
▁general	-12432
▁웨스트버지니아	-12433
91	-12434
ij	-12435
la	-12436
▁겐	-12437
▁깜	-12438
▁댐	-12439
▁삽	-12440
▁섞	-12441
▁웅	-12442
▁첨	-12443
▁첸	-12444
▁쾌	-12445
▁팩	-12446
▁팰	-12447
것을	-12448
관광	-12449
년째	-12450
달라	-12451
데르	-12452
등급	-12453
레즈	-12454
류에	-12455
머스	-12456
무니	-12457
속에	-12458
수산	-12459
수출	-12460
신문	-12461
알라	-12462
연상	-12463
연설	-12464
였을	-12465
와이	-12466
요원	-12467
운트	-12468
원들	-12469
의약	-12470
이면	-12471
인당	-12472
인치	-12473
있게	-12474
잡이	-12475
재로	-12476
전시	-12477
주며	-12478
주택	-12479
지길	-12480
지스	-12481
지않	-12482
차전	-12483
채를	-12484
총리	-12485
티컷	-12486
anu	-12487
gra	-12488
ile	-12489
mit	-12490
ool	-12491
tim	-12492
▁dc	-12493
▁hd	-12494
▁가뭄	-12495
▁가볍	-12496
▁감량	-12497
▁걸프	-12498
▁검출	-12499
▁고생	-12500
▁고심	-12501
▁과다	-12502
▁과잉	-12503
▁과테	-12504
▁구타	-12505
▁군복	-12506
▁그로	-12507
▁기쁨	-12508
▁기적	-12509
▁꾸준	-12510
▁날개	-12511
▁넣은	-12512
▁녹화	-12513
▁농산	-12514
▁뇌졸	-12515
▁단백	-12516
▁당뇨	-12517
▁독점	-12518
▁뒤로	-12519
▁레인	-12520
▁리틀	-12521
▁링컨	-12522
▁마닐	-12523
▁말고	-12524
▁맞을	-12525
▁맡게	-12526
▁맺은	-12527
▁무리	-12528
▁무어	-12529
▁밀리	-12530
▁바퀴	-12531
▁발을	-12532
▁배럭	-12533
▁베니	-12534
▁별로	-12535
▁병역	-12536
▁보드	-12537
▁부각	-12538
▁비싼	-12539
▁뿌리	-12540
▁삼림	-12541
▁선적	-12542
▁세컨	-12543
▁쇼에	-12544
▁수만	-12545
▁시의	-12546
▁심판	-12547
▁안고	-12548
▁야간	-12549
▁없기	-12550
▁연립	-12551
▁열정	-12552
▁오락	-12553
▁와서	-12554
▁왕자	-12555
▁위장	-12556
▁유동	-12557
▁유물	-12558
▁유포	-12559
▁유혹	-12560
▁육상	-12561
▁의구	-12562
▁이브	-12563
▁재발	-12564
▁재생	-12565
▁전례	-12566
▁종업	-12567
▁좌익	-12568
▁준다	-12569
▁중소	-12570
▁증진	-12571
▁지폐	-12572
▁짝짓	-12573
▁체인	-12574
▁클래	-12575
▁테크	-12576
▁톰슨	-12577
▁파울	-12578
▁피어	-12579
▁피오	-12580
▁해가	-12581
▁혼합	-12582
▁홀리	-12583
▁화석	-12584
▁환수	-12585
개국이	-12586
거리가	-12587
관으로	-12588
났지만	-12589
되도록	-12590
라이프	-12591
사건이	-12592
선고를	-12593
성으로	-12594
월에도	-12595
웨스트	-12596
일만에	-12597
자들로	-12598
자로서	-12599
카드를	-12600
트로터	-12601
편으로	-12602
해진다	-12603
행위에	-12604
hdad	-12605
▁450	-12606
▁911	-12607
▁bbk	-12608
▁bri	-12609
▁env	-12610
▁mic	-12611
▁pow	-12612
▁sex	-12613
▁ufo	-12614
▁was	-12615
▁you	-12616
▁감소를	-12617
▁강경한	-12618
▁건설을	-12619
▁경관은	-12620
▁공개할	-12621
▁공군기	-12622
▁공장을	-12623
▁과학적	-12624
▁구멍을	-12625
▁국정원	-12626
▁근소한	-12627
▁남편의	-12628
▁노리에	-12629
▁달러화	-12630
▁당분간	-12631
▁당수는	-12632
▁대결을	-12633
▁대체할	-12634
▁도로에	-12635
▁독일은	-12636
▁되면서	-12637
▁마리가	-12638
▁마을을	-12639
▁맨유는	-12640
▁문제다	-12641
▁미국발	-12642
▁미치지	-12643
▁발견돼	-12644
▁방송이	-12645
▁배터리	-12646
▁베테랑	-12647
▁변화의	-12648
▁부인과	-12649
▁부인이	-12650
▁부토가	-12651
▁블로거	-12652
▁비롯해	-12653
▁비율이	-12654
▁사이로	-12655
▁새겨진	-12656
▁새끼를	-12657
▁생활에	-12658
▁세상을	-12659
▁소년의	-12660
▁소방관	-12661
▁소방대	-12662
▁솔로몬	-12663
▁수요가	-12664
▁수준을	-12665
▁스카이	-12666
▁스타일	-12667
▁시기를	-12668
▁시한을	-12669
▁식으로	-12670
▁신청을	-12671
▁실종자	-12672
▁싱가폴	-12673
▁안타까	-12674
▁애쓰고	-12675
▁에넹은	-12676
▁에서는	-12677
▁여진이	-12678
▁역사의	-12679
▁연이어	-12680
▁열렬한	-12681
▁영화로	-12682
▁예산을	-12683
▁예수의	-12684
▁오늘은	-12685
▁위반한	-12686
▁위치에	-12687
▁이들에	-12688
▁이베이	-12689
▁이정인	-12690
▁인도와	-12691
▁임신한	-12692
▁입원한	-12693
▁작업은	-12694
▁작품은	-12695
▁장소를	-12696
▁장착된	-12697
▁전략적	-12698
▁전원이	-12699
▁정동영	-12700
▁정상에	-12701
▁제기한	-12702
▁제도를	-12703
▁제안에	-12704
▁주도의	-12705
▁주식은	-12706
▁지구로	-12707
▁지명을	-12708
▁직면한	-12709
▁집행유	-12710
▁처음에	-12711
▁추수감	-12712
▁콘서트	-12713
▁탈북자	-12714
▁터키가	-12715
▁토론회	-12716
▁판정을	-12717
▁퍼레이	-12718
▁평범한	-12719
▁평화상	-12720
▁포스터	-12721
▁학교의	-12722
▁항소할	-12723
▁해주는	-12724
▁헬기니	-12725
▁확률이	-12726
개월간의	-12727
과정에서	-12728
적으로는	-12729
투표에서	-12730
▁1984	-12731
▁1985	-12732
▁fund	-12733
▁into	-12734
▁결승전에	-12735
▁결의안은	-12736
▁공개되지	-12737
▁교회에서	-12738
▁국가대표	-12739
▁규정하고	-12740
▁나타내고	-12741
▁내무부가	-12742
▁논의하고	-12743
▁논의했다	-12744
▁대표단이	-12745
▁대표들은	-12746
▁도움으로	-12747
▁말했으며	-12748
▁미네소타	-12749
▁민간인이	-12750
▁배제하지	-12751
▁백악관의	-12752
▁보건복지	-12753
▁보여주기	-12754
▁사용한다	-12755
▁살아있는	-12756
▁선수들을	-12757
▁수만명의	-12758
▁시작하는	-12759
▁없었지만	-12760
▁연합군은	-12761
▁연합군이	-12762
▁예정대로	-12763
▁우주선이	-12764
▁우주에서	-12765
▁유지하기	-12766
▁유지하는	-12767
▁응답자의	-12768
▁의료보험	-12769
▁의료진은	-12770
▁이란에서	-12771
▁인도에서	-12772
▁인플루엔	-12773
▁자신들을	-12774
▁장기적인	-12775
▁재판관은	-12776
▁줄어들고	-12777
▁지목했다	-12778
▁진행하는	-12779
▁참석하기	-12780
▁코미디언	-12781
▁콘서트를	-12782
▁쿠데타를	-12783
▁탈라바니	-12784
▁터키군은	-12785
▁틸트로터	-12786
▁학생들을	-12787
▁행동으로	-12788
▁확보했다	-12789
▁환경보호	-12790
▁휴대폰을	-12791
▁희망한다	-12792
ission	-12793
▁journ	-12794
▁관계당국은	-12795
▁구체적으로	-12796
▁국제사회가	-12797
▁만장일치로	-12798
▁무장단체가	-12799
▁바그다드에	-12800
▁바그다드의	-12801
▁바이러스가	-12802
▁사무실에서	-12803
▁사살했다고	-12804
▁시작되었다	-12805
▁추수감사절	-12806
▁크리스티아	-12807
▁agency	-12808
▁health	-12809
▁leader	-12810
▁결과에따르면	-12811
▁웹사이트에서	-12812
▁baghdad	-12813
▁consumer	-12814
▁pakistan	-12815
63	-12816
64	-12817
be	-12818
gs	-12819
pt	-12820
tc	-12821
▁q	-12822
▁됐	-12823
▁펌	-12824
▁횟	-12825
▁힉	-12826
각이	-12827
건에	-12828
국제	-12829
놀드	-12830
라나	-12831
란다	-12832
레아	-12833
만인	-12834
먼이	-12835
문화	-12836
방위	-12837
비오	-12838
살상	-12839
서도	-12840
스포	-12841
씨를	-12842
온난	-12843
익을	-12844
인한	-12845
주재	-12846
즈에	-12847
처에	-12848
척이	-12849
체와	-12850
탕카	-12851
티드	-12852
파이	-12853
패로	-12854
피크	-12855
학년	-12856
ger	-12857
pro	-12858
vie	-12859
vis	-12860
▁ma	-12861
▁os	-12862
▁감안	-12863
▁갤러	-12864
▁결렬	-12865
▁결별	-12866
▁고백	-12867
▁곤돌	-12868
▁공직	-12869
▁군수	-12870
▁궁금	-12871
▁그랜	-12872
▁기둥	-12873
▁나간	-12874
▁난폭	-12875
▁냉각	-12876
▁노선	-12877
▁녹아	-12878
▁당첨	-12879
▁동쪽	-12880
▁드문	-12881
▁땅에	-12882
▁라크	-12883
▁루마	-12884
▁리브	-12885
▁리트	-12886
▁마샤	-12887
▁막는	-12888
▁맥코	-12889
▁명인	-12890
▁모닝	-12891
▁뮤직	-12892
▁미들	-12893
▁밀매	-12894
▁바위	-12895
▁밖의	-12896
▁받던	-12897
▁밝은	-12898
▁배터	-12899
▁버린	-12900
▁범람	-12901
▁벽에	-12902
▁보류	-12903
▁부추	-12904
▁붙어	-12905
▁브란	-12906
▁브뤼	-12907
▁비방	-12908
▁비싸	-12909
▁사장	-12910
▁새해	-12911
▁수직	-12912
▁술에	-12913
▁스틸	-12914
▁식물	-12915
▁썼다	-12916
▁앤디	-12917
▁앨라	-12918
▁앵커	-12919
▁야심	-12920
▁어울	-12921
▁억압	-12922
▁엔진	-12923
▁역을	-12924
▁연임	-12925
▁온천	-12926
▁요격	-12927
▁요소	-12928
▁운이	-12929
▁월경	-12930
▁윈프	-12931
▁유예	-12932
▁이건	-12933
▁이끈	-12934
▁이데	-12935
▁이룬	-12936
▁인력	-12937
▁인원	-12938
▁입지	-12939
▁입찰	-12940
▁자격	-12941
▁잠정	-12942
▁잡기	-12943
▁제국	-12944
▁주를	-12945
▁지수	-12946
▁지에	-12947
▁지칭	-12948
▁창립	-12949
▁컨퍼	-12950
▁타운	-12951
▁탐지	-12952
▁퇴장	-12953
▁파고	-12954
▁퍼져	-12955
▁페퍼	-12956
▁펠리	-12957
▁평생	-12958
▁하려	-12959
▁한쪽	-12960
▁항복	-12961
▁행한	-12962
▁헌신	-12963
는지를	-12964
떨어진	-12965
로서는	-12966
면서도	-12967
문제가	-12968
상태가	-12969
수술을	-12970
스트를	-12971
심으로	-12972
안으로	-12973
여명을	-12974
연승을	-12975
크에서	-12976
하려면	-12977
혁명군	-12978
회담을	-12979
ated	-12980
ator	-12981
form	-12982
orts	-12983
reet	-12984
▁arm	-12985
▁cal	-12986
▁mad	-12987
▁pop	-12988
▁sol	-12989
▁suv	-12990
▁갖는다	-12991
▁같았다	-12992
▁거라고	-12993
▁격차로	-12994
▁경우에	-12995
▁공군은	-12996
▁공무원	-12997
▁공습이	-12998
▁그린스	-12999
▁극적인	-13000
▁기간이	-13001
▁긴밀한	-13002
▁김계관	-13003
▁끝났다	-13004
▁나가고	-13005
▁논란을	-13006
▁높이고	-13007
▁뉴스를	-13008
▁대답을	-13009
▁대사를	-13010
▁대학살	-13011
▁더보기	-13012
▁도로가	-13013
▁동안에	-13014
▁동원해	-13015
▁라왈핀	-13016
▁로맨틱	-13017
▁로한이	-13018
▁리서치	-13019
▁맥도날	-13020
▁면담을	-13021
▁면에서	-13022
▁밀란은	-13023
▁바스크	-13024
▁발견은	-13025
▁발표가	-13026
▁범행을	-13027
▁보고는	-13028
▁부당한	-13029
▁부대가	-13030
▁부딪혀	-13031
▁분명한	-13032
▁불길이	-13033
▁비핵화	-13034
▁비행사	-13035
▁사인을	-13036
▁상승을	-13037
▁상승할	-13038
▁상품을	-13039
▁서로를	-13040
▁세력의	-13041
▁세우고	-13042
▁소유의	-13043
▁수단을	-13044
▁숨지게	-13045
▁승부를	-13046
▁앙겔라	-13047
▁앞에서	-13048
▁얘기를	-13049
▁어렵게	-13050
▁어렵다	-13051
▁업체인	-13052
▁에탄올	-13053
▁오르며	-13054
▁오스틴	-13055
▁왔으며	-13056
▁외치며	-13057
▁우려로	-13058
▁우즈는	-13059
▁원장은	-13060
▁은행은	-13061
▁이메일	-13062
▁이하의	-13063
▁인접한	-13064
▁일기로	-13065
▁자이툰	-13066
▁저질렀	-13067
▁전달한	-13068
▁전역의	-13069
▁전체를	-13070
▁점수를	-13071
▁점에서	-13072
▁접근을	-13073
▁접근할	-13074
▁정보는	-13075
▁주장해	-13076
▁중점을	-13077
▁지니고	-13078
▁지원이	-13079
▁질병을	-13080
▁창문을	-13081
▁취임식	-13082
▁취해야	-13083
▁카리스	-13084
▁카톨릭	-13085
▁터무니	-13086
▁터키를	-13087
▁토마토	-13088
▁투탕카	-13089
▁폭발은	-13090
▁폴라로	-13091
▁표적이	-13092
▁프랑크	-13093
▁피해는	-13094
▁하원은	-13095
▁학생들	-13096
▁해결에	-13097
▁해군은	-13098
▁해안을	-13099
▁향하던	-13100
▁허커비	-13101
▁협회는	-13102
▁확신을	-13103
▁활용할	-13104
▁후보자	-13105
기때문에	-13106
레스테롤	-13107
리우드의	-13108
세트에서	-13109
자회담이	-13110
지리스탄	-13111
했는지는	-13112
▁1600	-13113
▁1979	-13114
▁cand	-13115
▁conc	-13116
▁ftse	-13117
▁star	-13118
▁stri	-13119
▁wild	-13120
▁year	-13121
▁가자시티	-13122
▁것인지에	-13123
▁게임에서	-13124
▁결승에서	-13125
▁공장에서	-13126
▁관광객이	-13127
▁그루지아	-13128
▁기념하기	-13129
▁기다리는	-13130
▁기록적인	-13131
▁기업들이	-13132
▁기울이고	-13133
▁나머지는	-13134
▁노력으로	-13135
▁담겨있다	-13136
▁대중교통	-13137
▁대한민국	-13138
▁도착했을	-13139
▁돌아가는	-13140
▁루마니아	-13141
▁리얼리티	-13142
▁말입니다	-13143
▁보스니아	-13144
▁부정선거	-13145
▁북한으로	-13146
▁블룸버그	-13147
▁사건에서	-13148
▁사망했고	-13149
▁살해했다	-13150
▁서명했다	-13151
▁석방됐다	-13152
▁소개했다	-13153
▁소수민족	-13154
▁수행하고	-13155
▁승리하는	-13156
▁승리하며	-13157
▁언론과의	-13158
▁오케스트	-13159
▁외교부는	-13160
▁원인으로	-13161
▁이끌었던	-13162
▁이데올로	-13163
▁이뤄지지	-13164
▁이자율을	-13165
▁자메이카	-13166
▁장악하고	-13167
▁정보기관	-13168
▁제공하기	-13169
▁중앙은행	-13170
▁지지율로	-13171
▁총격전이	-13172
▁추구하는	-13173
▁친구들과	-13174
▁파파라치	-13175
▁페르난도	-13176
▁페일린은	-13177
▁포함된다	-13178
▁푸에르토	-13179
▁한반도의	-13180
▁항공사는	-13181
▁해변에서	-13182
▁핵시설을	-13183
통합민주신	-13184
▁peace	-13185
▁soldi	-13186
▁가자지구의	-13187
▁고위관리는	-13188
▁노동자들이	-13189
▁동남아시아	-13190
▁러시아에서	-13191
▁메드베데프	-13192
▁살모넬라균	-13193
▁상태입니다	-13194
▁생각한다고	-13195
▁용의자들이	-13196
▁유권자들의	-13197
▁전통적으로	-13198
▁정부로부터	-13199
▁정상적으로	-13200
▁참가자들은	-13201
▁파키스탄을	-13202
▁희생자들을	-13203
▁달라이라마는	-13204
▁대통합민주신	-13205
▁이라크에서의	-13206
▁이스라엘군은	-13207
▁america	-13208
14	-13209
90	-13210
gb	-13211
ty	-13212
▁갓	-13213
▁놔	-13214
▁닮	-13215
▁쉐	-13216
▁싣	-13217
▁컸	-13218
▁퓨	-13219
감과	-13220
과를	-13221
기상	-13222
노프	-13223
느라	-13224
둘러	-13225
라트	-13226
마에	-13227
맨은	-13228
모는	-13229
미국	-13230
바리	-13231
북한	-13232
빌에	-13233
사진	-13234
샤는	-13235
선언	-13236
세탁	-13237
셀러	-13238
소연	-13239
야드	-13240
여야	-13241
연대	-13242
예방	-13243
인해	-13244
자치	-13245
잡지	-13246
줄기	-13247
츠를	-13248
타로	-13249
편을	-13250
폭력	-13251
해의	-13252
헤드	-13253
aim	-13254
air	-13255
day	-13256
ecd	-13257
hed	-13258
ned	-13259
▁ed	-13260
▁간첩	-13261
▁감면	-13262
▁감원	-13263
▁검정	-13264
▁계절	-13265
▁고집	-13266
▁공안	-13267
▁공조	-13268
▁군을	-13269
▁권유	-13270
▁극장	-13271
▁글렌	-13272
▁금년	-13273
▁급파	-13274
▁기번	-13275
▁나뉘	-13276
▁나자	-13277
▁낙하	-13278
▁날을	-13279
▁남지	-13280
▁농장	-13281
▁농촌	-13282
▁단기	-13283
▁도박	-13284
▁돕는	-13285
▁됐던	-13286
▁두목	-13287
▁두자	-13288
▁뒤덮	-13289
▁디아	-13290
▁랜드	-13291
▁레젭	-13292
▁로열	-13293
▁마가	-13294
▁마오	-13295
▁마텔	-13296
▁머피	-13297
▁모토	-13298
▁무려	-13299
▁보아	-13300
▁본래	-13301
▁볼튼	-13302
▁분출	-13303
▁불명	-13304
▁빌리	-13305
▁뽑아	-13306
▁사제	-13307
▁산유	-13308
▁산토	-13309
▁상정	-13310
▁섬에	-13311
▁성당	-13312
▁속해	-13313
▁싸울	-13314
▁아로	-13315
▁약품	-13316
▁얼어	-13317
▁여야	-13318
▁연애	-13319
▁예일	-13320
▁올랜	-13321
▁요금	-13322
▁유네	-13323
▁유아	-13324
▁이길	-13325
▁임산	-13326
▁자부	-13327
▁자위	-13328
▁재차	-13329
▁저격	-13330
▁정글	-13331
▁정직	-13332
▁제퍼	-13333
▁조그	-13334
▁조카	-13335
▁줬다	-13336
▁지식	-13337
▁지표	-13338
▁질식	-13339
▁집이	-13340
▁쫓겨	-13341
▁채권	-13342
▁처럼	-13343
▁체제	-13344
▁추도	-13345
▁카나	-13346
▁칼로	-13347
▁키우	-13348
▁타는	-13349
▁터진	-13350
▁퇴치	-13351
▁팔루	-13352
▁펼쳤	-13353
▁피델	-13354
▁한글	-13355
▁현직	-13356
▁혐오	-13357
▁호위	-13358
▁황교	-13359
가스를	-13360
거래를	-13361
국들의	-13362
내용을	-13363
년동안	-13364
들에서	-13365
르에서	-13366
방으로	-13367
법안을	-13368
보다도	-13369
사고가	-13370
성에서	-13371
센터의	-13372
센트럴	-13373
연하게	-13374
원서를	-13375
웠다고	-13376
작업에	-13377
지거나	-13378
지수도	-13379
지었다	-13380
차례나	-13381
차례의	-13382
탈리아	-13383
하기에	-13384
reen	-13385
▁103	-13386
▁can	-13387
▁cur	-13388
▁del	-13389
▁gir	-13390
▁pet	-13391
▁wwf	-13392
▁가볍게	-13393
▁가속화	-13394
▁가스를	-13395
▁가졌던	-13396
▁가톨릭	-13397
▁강에서	-13398
▁건물로	-13399
▁결정될	-13400
▁결정한	-13401
▁경력을	-13402
▁경보가	-13403
▁고래를	-13404
▁광장에	-13405
▁구매할	-13406
▁끌어들	-13407
▁끝내고	-13408
▁나라가	-13409
▁날짜를	-13410
▁남자아	-13411
▁노조는	-13412
▁논쟁의	-13413
▁누구든	-13414
▁니제르	-13415
▁다하고	-13416
▁당신을	-13417
▁대선이	-13418
▁데니스	-13419
▁동부에	-13420
▁뜨거운	-13421
▁마르코	-13422
▁마을의	-13423
▁마음이	-13424
▁만나는	-13425
▁몬타나	-13426
▁무차별	-13427
▁물러날	-13428
▁반군과	-13429
▁발사된	-13430
▁발사한	-13431
▁버시바	-13432
▁변화는	-13433
▁보고가	-13434
▁복용한	-13435
▁부모는	-13436
▁부시가	-13437
▁부시와	-13438
▁부정부	-13439
▁부족을	-13440
▁분석가	-13441
▁불편한	-13442
▁브뤼셀	-13443
▁빙하가	-13444
▁빨간색	-13445
▁사카쉬	-13446
▁산업이	-13447
▁상반기	-13448
▁생각은	-13449
▁석방에	-13450
▁선택한	-13451
▁설립한	-13452
▁성범죄	-13453
▁세번째	-13454
▁세워진	-13455
▁세컨드	-13456
▁센터는	-13457
▁소감을	-13458
▁소아과	-13459
▁수익이	-13460
▁승객을	-13461
▁시기가	-13462
▁시대에	-13463
▁신경을	-13464
▁싸움을	-13465
▁아내가	-13466
▁앨범을	-13467
▁야후가	-13468
▁억류된	-13469
▁엄마가	-13470
▁업체가	-13471
▁여자아	-13472
▁열리고	-13473
▁오르는	-13474
▁우주로	-13475
▁의견에	-13476
▁의원과	-13477
▁이동할	-13478
▁이었다	-13479
▁이유에	-13480
▁작전에	-13481
▁전기를	-13482
▁정권의	-13483
▁제조사	-13484
▁조언을	-13485
▁중서부	-13486
▁증거로	-13487
▁지금이	-13488
▁지나친	-13489
▁지위를	-13490
▁지점에	-13491
▁직면해	-13492
▁첼시는	-13493
▁첼시의	-13494
▁촬영을	-13495
▁충돌을	-13496
▁치르는	-13497
▁쿠바의	-13498
▁크리켓	-13499
▁통과한	-13500
▁파업이	-13501
▁페인트	-13502
▁포기할	-13503
▁폭동이	-13504
▁폭발해	-13505
▁한번도	-13506
▁합참의	-13507
▁해제할	-13508
▁행위로	-13509
▁협정에	-13510
▁호르타	-13511
▁화재는	-13512
▁확실시	-13513
코비치는	-13514
▁2014	-13515
▁6000	-13516
▁call	-13517
▁face	-13518
▁good	-13519
▁oecd	-13520
▁that	-13521
▁zanu	-13522
▁강력하게	-13523
▁경고하고	-13524
▁공급하는	-13525
▁그라운드	-13526
▁근무하는	-13527
▁금융제재	-13528
▁나타나고	-13529
▁내용이다	-13530
▁내전으로	-13531
▁다큐멘터	-13532
▁대량살상	-13533
▁대처하기	-13534
▁동물들이	-13535
▁득표율을	-13536
▁레바논의	-13537
▁마련했다	-13538
▁미국인의	-13539
▁반대했다	-13540
▁발생한지	-13541
▁벌어지는	-13542
▁보수적인	-13543
▁불가능한	-13544
▁불과했다	-13545
▁비행기는	-13546
▁사상자는	-13547
▁상징적인	-13548
▁상태였다	-13549
▁선택했다	-13550
▁소요사태	-13551
▁수마트라	-13552
▁시스템에	-13553
▁식품의약	-13554
▁신속하게	-13555
▁앤더슨은	-13556
▁여객기를	-13557
▁여러가지	-13558
▁여성에게	-13559
▁여성으로	-13560
▁연속으로	-13561
▁움직이는	-13562
▁원한다고	-13563
▁은신처를	-13564
▁이끌었다	-13565
▁이루어질	-13566
▁인용하여	-13567
▁인정하고	-13568
▁잃었다고	-13569
▁있겠지만	-13570
▁전설적인	-13571
▁조사했다	-13572
▁주지사와	-13573
▁지도자를	-13574
▁진행됐다	-13575
▁최저치를	-13576
▁추락했다	-13577
▁콘크리트	-13578
▁킬로미터	-13579
▁타임스가	-13580
▁테스트를	-13581
▁특파원이	-13582
▁판매하는	-13583
▁풀려났다	-13584
▁피라미드	-13585
▁하마스와	-13586
▁한국으로	-13587
▁한국은행	-13588
▁항공기가	-13589
▁환자들이	-13590
▁희생자가	-13591
▁about	-13592
▁group	-13593
▁union	-13594
▁white	-13595
▁국방장관이	-13596
▁도착했다고	-13597
▁미국인들의	-13598
▁바르셀로나	-13599
▁받아들였다	-13600
▁발견했으며	-13601
▁브로드웨이	-13602
▁스피어스의	-13603
▁아웅산수지	-13604
▁에드워즈는	-13605
▁연방수사국	-13606
▁이루어지고	-13607
▁콜레스테롤	-13608
▁파키스탄과	-13609
▁프로그램과	-13610
▁필요하다는	-13611
▁해리포터와	-13612
▁홈페이지에	-13613
▁희생자들의	-13614
▁희생자들이	-13615
▁office	-13616
▁rights	-13617
▁천문학자들은	-13618
▁프리메라리가	-13619
23	-13620
cd	-13621
wn	-13622
▁꿀	-13623
▁낡	-13624
▁멘	-13625
▁뭉	-13626
▁쏜	-13627
▁왈	-13628
▁젖	-13629
▁젠	-13630
▁족	-13631
▁짙	-13632
▁켐	-13633
▁훈	-13634
▁휠	-13635
강을	-13636
과이	-13637
나르	-13638
락이	-13639
렐은	-13640
리즘	-13641
배나	-13642
벌리	-13643
범이	-13644
변을	-13645
살된	-13646
상업	-13647
석방	-13648
세스	-13649
센티	-13650
시다	-13651
시미	-13652
시스	-13653
씨와	-13654
액이	-13655
요한	-13656
우가	-13657
우조	-13658
월말	-13659
웰은	-13660
이게	-13661
자문	-13662
적의	-13663
질환	-13664
쿠버	-13665
탄과	-13666
투스	-13667
포로	-13668
해준	-13669
ank	-13670
hes	-13671
ord	-13672
tig	-13673
▁gr	-13674
▁ip	-13675
▁가이	-13676
▁간접	-13677
▁걸고	-13678
▁곡물	-13679
▁공부	-13680
▁괴롭	-13681
▁굉장	-13682
▁깨달	-13683
▁남을	-13684
▁남측	-13685
▁농구	-13686
▁누설	-13687
▁능력	-13688
▁당장	-13689
▁대조	-13690
▁더글	-13691
▁더블	-13692
▁덩어	-13693
▁데비	-13694
▁동요	-13695
▁동일	-13696
▁동해	-13697
▁됐고	-13698
▁롱고	-13699
▁루시	-13700
▁리사	-13701
▁맞출	-13702
▁맡아	-13703
▁매체	-13704
▁맨하	-13705
▁모자	-13706
▁몬테	-13707
▁무서	-13708
▁문학	-13709
▁미치	-13710
▁밀러	-13711
▁바비	-13712
▁바시	-13713
▁발송	-13714
▁발자	-13715
▁법에	-13716
▁보트	-13717
▁보행	-13718
▁볼드	-13719
▁부당	-13720
▁부의	-13721
▁분기	-13722
▁분양	-13723
▁불태	-13724
▁비어	-13725
▁상임	-13726
▁생기	-13727
▁생후	-13728
▁샤론	-13729
▁서해	-13730
▁세라	-13731
▁섹시	-13732
▁수습	-13733
▁수염	-13734
▁순교	-13735
▁시몬	-13736
▁시키	-13737
▁신생	-13738
▁신설	-13739
▁신종	-13740
▁십대	-13741
▁싱글	-13742
▁아리	-13743
▁아웃	-13744
▁애널	-13745
▁언색	-13746
▁에밀	-13747
▁에바	-13748
▁영부	-13749
▁영입	-13750
▁예금	-13751
▁온건	-13752
▁외각	-13753
▁우드	-13754
▁의지	-13755
▁인천	-13756
▁일곱	-13757
▁일대	-13758
▁잃게	-13759
▁잃을	-13760
▁임박	-13761
▁임원	-13762
▁잡을	-13763
▁잡힌	-13764
▁장군	-13765
▁적힌	-13766
▁전세	-13767
▁전의	-13768
▁점은	-13769
▁접한	-13770
▁정비	-13771
▁제보	-13772
▁제인	-13773
▁조달	-13774
▁졸릭	-13775
▁죽어	-13776
▁진공	-13777
▁차고	-13778
▁채로	-13779
▁초콜	-13780
▁테헤	-13781
▁토끼	-13782
▁트랜	-13783
▁팀에	-13784
▁팀은	-13785
▁파워	-13786
▁편의	-13787
▁평창	-13788
▁표면	-13789
▁풍력	-13790
▁풍자	-13791
▁향년	-13792
▁호킨	-13793
▁후안	-13794
개국의	-13795
개월이	-13796
고했다	-13797
뉴스는	-13798
라이브	-13799
렸으나	-13800
릴랜드	-13801
문으로	-13802
미사일	-13803
변인은	-13804
부들이	-13805
석에서	-13806
시간의	-13807
았으나	-13808
어지고	-13809
연패를	-13810
운드를	-13811
월드컵	-13812
임이사	-13813
터바흐	-13814
회사가	-13815
ould	-13816
▁117	-13817
▁240	-13818
▁280	-13819
▁cro	-13820
▁dep	-13821
▁glo	-13822
▁gnp	-13823
▁hot	-13824
▁six	-13825
▁tax	-13826
▁가이드	-13827
▁거머쥐	-13828
▁거짓말	-13829
▁게임에	-13830
▁경사는	-13831
▁경우는	-13832
▁경의를	-13833
▁계기가	-13834
▁고어는	-13835
▁공동성	-13836
▁관리를	-13837
▁교수인	-13838
▁교황의	-13839
▁구성할	-13840
▁국기를	-13841
▁군복을	-13842
▁그림을	-13843
▁금융시	-13844
▁기관의	-13845
▁기술에	-13846
▁기존의	-13847
▁꾸준히	-13848
▁끌어올	-13849
▁끝나지	-13850
▁나라는	-13851
▁남겼다	-13852
▁높였다	-13853
▁누구나	-13854
▁늘어난	-13855
▁능력이	-13856
▁다르게	-13857
▁더이상	-13858
▁도전을	-13859
▁독일과	-13860
▁들어보	-13861
▁등에서	-13862
▁따뜻한	-13863
▁리더십	-13864
▁말았다	-13865
▁목표가	-13866
▁못하면	-13867
▁문화를	-13868
▁발전소	-13869
▁법적인	-13870
▁베이비	-13871
▁별도로	-13872
▁병력은	-13873
▁보낸다	-13874
▁보도된	-13875
▁사냥꾼	-13876
▁사망에	-13877
▁살았던	-13878
▁생각할	-13879
▁서부의	-13880
▁선수는	-13881
▁설명을	-13882
▁성적을	-13883
▁소방서	-13884
▁속으로	-13885
▁수반이	-13886
▁수행한	-13887
▁순례객	-13888
▁슈나이	-13889
▁스텔스	-13890
▁식사를	-13891
▁신부는	-13892
▁신행정	-13893
▁실수로	-13894
▁실험에	-13895
▁아놀드	-13896
▁아이만	-13897
▁아직은	-13898
▁애플은	-13899
▁앨라배	-13900
▁어디에	-13901
▁여권을	-13902
▁여사의	-13903
▁열린다	-13904
▁오래전	-13905
▁올해는	-13906
▁용납할	-13907
▁운행이	-13908
▁원조를	-13909
▁위성을	-13910
▁유망주	-13911
▁이득을	-13912
▁이소연	-13913
▁이어진	-13914
▁자사의	-13915
▁자신도	-13916
▁작용할	-13917
▁작전이	-13918
▁장례식	-13919
▁장면은	-13920
▁장소에	-13921
▁장애가	-13922
▁저녁식	-13923
▁적당한	-13924
▁전문의	-13925
▁전통을	-13926
▁전투가	-13927
▁정말로	-13928
▁정보에	-13929
▁정부청	-13930
▁제목의	-13931
▁주머니	-13932
▁주변을	-13933
▁주유소	-13934
▁줄어든	-13935
▁증거는	-13936
▁지구를	-13937
▁지난밤	-13938
▁지명에	-13939
▁지속된	-13940
▁지시를	-13941
▁지정된	-13942
▁지켜보	-13943
▁지키지	-13944
▁진출에	-13945
▁차지할	-13946
▁추진할	-13947
▁친구인	-13948
▁케냐의	-13949
▁태어나	-13950
▁파괴된	-13951
▁하기도	-13952
▁합의된	-13953
▁해결책	-13954
▁향했다	-13955
▁허드슨	-13956
▁회장과	-13957
▁휴식을	-13958
리스트인	-13959
항공우주	-13960
했음에도	-13961
▁aust	-13962
▁host	-13963
▁next	-13964
▁wind	-13965
▁가졌다고	-13966
▁가족들을	-13967
▁가했다고	-13968
▁강화했다	-13969
▁경쟁에서	-13970
▁고객들이	-13971
▁공항으로	-13972
▁관광산업	-13973
▁구호품을	-13974
▁그렇다면	-13975
▁그루지야	-13976
▁그린스펀	-13977
▁기념하는	-13978
▁내비쳤다	-13979
▁다국적군	-13980
▁답변했다	-13981
▁대변인의	-13982
▁도쿄에서	-13983
▁동부에서	-13984
▁들어오는	-13985
▁러시아를	-13986
▁롱고리아	-13987
▁무크타다	-13988
▁무하메드	-13989
▁받았다는	-13990
▁발표하지	-13991
▁방콕에서	-13992
▁변호사를	-13993
▁보였지만	-13994
▁부적절한	-13995
▁불과하다	-13996
▁불법적인	-13997
▁사령관이	-13998
▁생각했던	-13999
▁서비스가	-14000
▁서식하는	-14001
▁서쪽으로	-14002
▁선거캠페	-14003
▁선관위는	-14004
▁선보였다	-14005
▁소지하고	-14006
▁시민들의	-14007
▁시작했고	-14008
▁신고했다	-14009
▁실업수당	-14010
▁아이디어	-14011
▁악화되고	-14012
▁안보리의	-14013
▁어려움이	-14014
▁어머니인	-14015
▁억만장자	-14016
▁에너지를	-14017
▁여객기의	-14018
▁여겨지는	-14019
▁연결하는	-14020
▁외교정책	-14021
▁원한다면	-14022
▁이야기가	-14023
▁이야기는	-14024
▁입장이다	-14025
▁자본주의	-14026
▁자살폭탄	-14027
▁자유로운	-14028
▁전투기가	-14029
▁전투에서	-14030
▁전해지고	-14031
▁정식으로	-14032
▁주도하고	-14033
▁줄리아니	-14034
▁중태라고	-14035
▁증권거래	-14036
▁지구온난	-14037
▁직원들의	-14038
▁참가하는	-14039
▁컴퓨터와	-14040
▁클럽에서	-14041
▁클레이코	-14042
▁탈레반에	-14043
▁탑승하고	-14044
▁태국에서	-14045
▁파업으로	-14046
▁한국전쟁	-14047
▁한반도에	-14048
▁행정부에	-14049
▁허용하는	-14050
▁호나우두	-14051
▁효과적인	-14052
ancial	-14053
▁earth	-14054
▁islam	-14055
▁국경지역에	-14056
▁노대통령의	-14057
▁당국자들은	-14058
▁대량살상무	-14059
▁대선주자인	-14060
▁라우터바흐	-14061
▁리히터규모	-14062
▁목격했다고	-14063
▁바이러스는	-14064
▁받았습니다	-14065
▁부상했으며	-14066
▁상대적으로	-14067
▁수용소에서	-14068
▁승무원들은	-14069
▁실종됐다고	-14070
▁여론조사를	-14071
▁오바마에게	-14072
▁요청했다고	-14073
▁이라크전을	-14074
▁인터넷에서	-14075
▁코리아타임	-14076
▁프로젝트에	-14077
eration	-14078
ization	-14079
▁school	-14080
▁threat	-14081
▁보도했습니다	-14082
▁austral	-14083
▁관계자에따르면	-14084
▁인도네시아에서	-14085
▁financial	-14086
▁constitution	-14087
▁administration	-14088
97	-14089
br	-14090
so	-14091
▁곁	-14092
▁낫	-14093
▁딴	-14094
▁샀	-14095
▁솜	-14096
▁숭	-14097
▁콤	-14098
▁퀴	-14099
▁킴	-14100
▁틈	-14101
▁펴	-14102
가게	-14103
고는	-14104
글리	-14105
기념	-14106
기증	-14107
나드	-14108
낸셜	-14109
네트	-14110
델타	-14111
레드	-14112
렬히	-14113
로그	-14114
리히	-14115
링턴	-14116
마가	-14117
마드	-14118
마켓	-14119
모어	-14120
몬드	-14121
무라	-14122
바의	-14123
반응	-14124
받게	-14125
배에	-14126
버는	-14127
버린	-14128
버스	-14129
법과	-14130
별로	-14131
봐야	-14132
수술	-14133
스케	-14134
슬램	-14135
시께	-14136
시픽	-14137
신저	-14138
아리	-14139
액을	-14140
액의	-14141
어에	-14142
오밍	-14143
용의	-14144
원도	-14145
이익	-14146
점의	-14147
조의	-14148
중국	-14149
중을	-14150
지나	-14151
지오	-14152
직원	-14153
차이	-14154
천옹	-14155
청을	-14156
트만	-14157
튼을	-14158
폰테	-14159
폴로	-14160
햄은	-14161
협상	-14162
화학	-14163
100	-14164
act	-14165
ame	-14166
app	-14167
bal	-14168
erg	-14169
its	-14170
mex	-14171
ony	-14172
ues	-14173
ult	-14174
▁jp	-14175
▁sg	-14176
▁가금	-14177
▁가두	-14178
▁강아	-14179
▁개념	-14180
▁객실	-14181
▁건의	-14182
▁경유	-14183
▁구급	-14184
▁그럴	-14185
▁극히	-14186
▁기름	-14187
▁낡은	-14188
▁납부	-14189
▁낮게	-14190
▁내야	-14191
▁넬슨	-14192
▁노숙	-14193
▁놀랍	-14194
▁다룰	-14195
▁다툼	-14196
▁단축	-14197
▁달할	-14198
▁동행	-14199
▁땅콩	-14200
▁라자	-14201
▁레노	-14202
▁로보	-14203
▁리스	-14204
▁리타	-14205
▁린다	-14206
▁만델	-14207
▁맞춘	-14208
▁매트	-14209
▁먹을	-14210
▁명명	-14211
▁목에	-14212
▁몰디	-14213
▁무관	-14214
▁무의	-14215
▁무중	-14216
▁물려	-14217
▁반다	-14218
▁발명	-14219
▁발의	-14220
▁배달	-14221
▁보르	-14222
▁부수	-14223
▁비로	-14224
▁비만	-14225
▁빈번	-14226
▁살펴	-14227
▁상속	-14228
▁서류	-14229
▁서열	-14230
▁서한	-14231
▁선동	-14232
▁세기	-14233
▁순회	-14234
▁스릴	-14235
▁시체	-14236
▁시트	-14237
▁신시	-14238
▁실용	-14239
▁안심	-14240
▁연맹	-14241
▁연상	-14242
▁예외	-14243
▁오페	-14244
▁왕궁	-14245
▁외신	-14246
▁우익	-14247
▁위크	-14248
▁육성	-14249
▁이반	-14250
▁일기	-14251
▁일삼	-14252
▁있길	-14253
▁잊지	-14254
▁자란	-14255
▁자와	-14256
▁잡스	-14257
▁장성	-14258
▁재단	-14259
▁제라	-14260
▁제어	-14261
▁조차	-14262
▁중대	-14263
▁진료	-14264
▁진열	-14265
▁진원	-14266
▁출간	-14267
▁키티	-14268
▁탑재	-14269
▁퇴진	-14270
▁투기	-14271
▁투항	-14272
▁트루	-14273
▁팔을	-14274
▁패널	-14275
▁포옹	-14276
▁폭넓	-14277
▁푸켓	-14278
▁하비	-14279
▁해명	-14280
▁해협	-14281
▁현수	-14282
▁호박	-14283
▁호의	-14284
▁화폐	-14285
▁황박	-14286
▁후속	-14287
▁휴일	-14288
감으로	-14289
나갔다	-14290
들간의	-14291
라인을	-14292
리면서	-14293
범으로	-14294
법으로	-14295
사들의	-14296
사진을	-14297
에서만	-14298
위기에	-14299
자마자	-14300
주었다	-14301
하지도	-14302
협정을	-14303
ater	-14304
stem	-14305
▁220	-14306
▁bet	-14307
▁che	-14308
▁end	-14309
▁fil	-14310
▁gps	-14311
▁har	-14312
▁mem	-14313
▁가라앉	-14314
▁가방을	-14315
▁가석방	-14316
▁가슴에	-14317
▁감독과	-14318
▁거두며	-14319
▁걸리는	-14320
▁결승전	-14321
▁결심을	-14322
▁결정된	-14323
▁결함이	-14324
▁경기후	-14325
▁경로를	-14326
▁경우를	-14327
▁계획과	-14328
▁관여한	-14329
▁교황이	-14330
▁구조를	-14331
▁군정은	-14332
▁군정이	-14333
▁권한이	-14334
▁궤도를	-14335
▁균형을	-14336
▁그룹은	-14337
▁극심한	-14338
▁급상승	-14339
▁기리기	-14340
▁기업에	-14341
▁기자를	-14342
▁김경준	-14343
▁나타내	-14344
▁남았다	-14345
▁내리지	-14346
▁노선을	-14347
▁노조가	-14348
▁논평을	-14349
▁놓았다	-14350
▁니스텔	-14351
▁대도시	-14352
▁대신해	-14353
▁대출을	-14354
▁대표와	-14355
▁대화가	-14356
▁도착해	-14357
▁돈세탁	-14358
▁되어야	-14359
▁두려움	-14360
▁떨어뜨	-14361
▁라일라	-14362
▁로널드	-14363
▁마련된	-14364
▁만나고	-14365
▁말하지	-14366
▁메르세	-14367
▁못하다	-14368
▁무너지	-14369
▁문화적	-14370
▁물러난	-14371
▁미국내	-14372
▁미하일	-14373
▁바람에	-14374
▁발언이	-14375
▁방안에	-14376
▁배우인	-14377
▁버렸다	-14378
▁버스에	-14379
▁벌이던	-14380
▁병원의	-14381
▁보리스	-14382
▁부모의	-14383
▁부분에	-14384
▁부상은	-14385
▁부유한	-14386
▁불안정	-14387
▁비정부	-14388
▁비틀즈	-14389
▁사기를	-14390
▁사랑을	-14391
▁사항이	-14392
▁삼엄한	-14393
▁상세한	-14394
▁상원은	-14395
▁선박에	-14396
▁선박을	-14397
▁선택을	-14398
▁소니는	-14399
▁소문이	-14400
▁손해배	-14401
▁시점에	-14402
▁식이요	-14403
▁신천옹	-14404
▁심리학	-14405
▁심슨은	-14406
▁아라파	-14407
▁아이다	-14408
▁아이팟	-14409
▁애플의	-14410
▁언론을	-14411
▁에서도	-14412
▁역할에	-14413
▁연관이	-14414
▁열차는	-14415
▁오토바	-14416
▁외국의	-14417
▁요인이	-14418
▁우비넨	-14419
▁운영을	-14420
▁운전사	-14421
▁웃으며	-14422
▁윌리암	-14423
▁유가가	-14424
▁유람선	-14425
▁유럽에	-14426
▁이른다	-14427
▁이전의	-14428
▁이틀째	-14429
▁인디언	-14430
▁일정에	-14431
▁자금은	-14432
▁작성된	-14433
▁잠재적	-14434
▁저자인	-14435
▁전에도	-14436
▁전통적	-14437
▁접어들	-14438
▁정책의	-14439
▁제시할	-14440
▁중단된	-14441
▁증가로	-14442
▁지방에	-14443
▁지배를	-14444
▁지불할	-14445
▁지수도	-14446
▁지진의	-14447
▁지하드	-14448
▁차량의	-14449
▁착륙을	-14450
▁찬사를	-14451
▁철수할	-14452
▁체제를	-14453
▁총으로	-14454
▁커피를	-14455
▁코스타	-14456
▁코카인	-14457
▁크기가	-14458
▁클레멘	-14459
▁타블로	-14460
▁타이거	-14461
▁탁신은	-14462
▁테헤란	-14463
▁통과할	-14464
▁통화를	-14465
▁투쟁을	-14466
▁트레킹	-14467
▁파업은	-14468
▁파티를	-14469
▁폭설로	-14470
▁표한다	-14471
▁프라임	-14472
▁하는지	-14473
▁하에서	-14474
▁한국계	-14475
▁해리왕	-14476
▁해준다	-14477
▁확산을	-14478
▁힌두교	-14479
그로폰테	-14480
시간으로	-14481
이었으며	-14482
하겠지만	-14483
하였다고	-14484
ijing	-14485
iness	-14486
ivers	-14487
ology	-14488
tical	-14489
▁1400	-14490
▁1975	-14491
▁hsbc	-14492
▁post	-14493
▁russ	-14494
▁soci	-14495
▁stud	-14496
▁갑작스런	-14497
▁게이츠는	-14498
▁결의안이	-14499
▁경찰관이	-14500
▁고양이를	-14501
▁고조되고	-14502
▁공격하기	-14503
▁구스마오	-14504
▁구호단체	-14505
▁국제사면	-14506
▁기업들은	-14507
▁기업들의	-14508
▁끌어들이	-14509
▁나오면서	-14510
▁나타나는	-14511
▁내다봤다	-14512
▁노력했다	-14513
▁높아졌다	-14514
▁뉴욕상업	-14515
▁당선자가	-14516
▁당신에게	-14517
▁대표들이	-14518
▁돌아갔다	-14519
▁돌아오는	-14520
▁돌입했다	-14521
▁마련하기	-14522
▁말했었다	-14523
▁매들린의	-14524
▁무너졌다	-14525
▁무엇인지	-14526
▁미얀마에	-14527
▁발생하자	-14528
▁발언으로	-14529
▁방문하고	-14530
▁방침이다	-14531
▁백악관을	-14532
▁버시바우	-14533
▁베이징에	-14534
▁베탕쿠르	-14535
▁분명하다	-14536
▁분석가는	-14537
▁분석가인	-14538
▁비극적인	-14539
▁비핵화를	-14540
▁사람으로	-14541
▁사실이다	-14542
▁삼성그룹	-14543
▁생산량을	-14544
▁선거캠프	-14545
▁성공적인	-14546
▁세계무역	-14547
▁수행하는	-14548
▁시민들을	-14549
▁시위대에	-14550
▁시작하기	-14551
▁싶어하는	-14552
▁양국간의	-14553
▁어소시에	-14554
▁여객기에	-14555
▁여겨지고	-14556
▁외곽에서	-14557
▁요청하는	-14558
▁요하네스	-14559
▁용의자인	-14560
▁우려하는	-14561
▁위원회가	-14562
▁이송됐다	-14563
▁이전에는	-14564
▁일요일에	-14565
▁잃어버린	-14566
▁재미있는	-14567
▁정권인수	-14568
▁정보통신	-14569
▁제공한다	-14570
▁지켜보는	-14571
▁직원들을	-14572
▁진지하게	-14573
▁처음에는	-14574
▁총격전을	-14575
▁총기난사	-14576
▁컴퓨터에	-14577
▁테네시주	-14578
▁텔레비전	-14579
▁특파원은	-14580
▁폐쇄하고	-14581
▁하원에서	-14582
▁해결하는	-14583
▁헬리콥터	-14584
▁확실하다	-14585
▁환영한다	-14586
▁후임으로	-14587
들에따르면	-14588
vestig	-14589
▁break	-14590
▁claim	-14591
▁democ	-14592
▁movie	-14593
▁nymex	-14594
▁start	-14595
▁결과에따라	-14596
▁경제적으로	-14597
▁골든글로브	-14598
▁긍정적으로	-14599
▁기록했으며	-14600
▁떨어졌다고	-14601
▁발견됐으며	-14602
▁발표하면서	-14603
▁베를린에서	-14604
▁베스트셀러	-14605
▁사르코지가	-14606
▁선거캠프는	-14607
▁시작했으며	-14608
▁아파트에서	-14609
▁여론조사는	-14610
▁예상된다고	-14611
▁올림픽에서	-14612
▁일시적으로	-14613
▁자발적으로	-14614
▁전문가들의	-14615
▁주식시장이	-14616
▁주차장에서	-14617
▁중앙일보가	-14618
▁타블로이드	-14619
▁플로리다의	-14620
▁하원의장은	-14621
▁한국인들은	-14622
▁현지경찰이	-14623
▁arrest	-14624
▁candid	-14625
▁resign	-14626
▁street	-14627
▁summit	-14628
▁system	-14629
▁로드리게스는	-14630
▁매사추세츠주	-14631
▁크라이슬러는	-14632
▁팔레스타인과	-14633
▁푸에르토리코	-14634
▁프라이머리를	-14635
▁beijing	-14636
▁defense	-14637
▁society	-14638
▁국가비상사태를	-14639
▁investig	-14640
15	-14641
95	-14642
lp	-14643
▁랩	-14644
▁뭔	-14645
▁봅	-14646
▁샬	-14647
▁션	-14648
▁췌	-14649
▁핫	-14650
강산	-14651
강한	-14652
경색	-14653
구는	-14654
그리	-14655
꺼이	-14656
나갈	-14657
년은	-14658
능한	-14659
데자	-14660
라니	-14661
럽게	-14662
리학	-14663
막을	-14664
묘한	-14665
문서	-14666
바에	-14667
벌을	-14668
변에	-14669
보나	-14670
식량	-14671
에트	-14672
여명	-14673
우드	-14674
운영	-14675
워즈	-14676
자키	-14677
제인	-14678
조가	-14679
지요	-14680
측과	-14681
퀘어	-14682
토록	-14683
투어	-14684
파르	-14685
파에	-14686
팍스	-14687
펀드	-14688
평을	-14689
함과	-14690
함에	-14691
합을	-14692
행동	-14693
황을	-14694
ely	-14695
ied	-14696
▁fc	-14697
▁wr	-14698
▁각기	-14699
▁갖춰	-14700
▁개조	-14701
▁갱신	-14702
▁거센	-14703
▁걸음	-14704
▁견해	-14705
▁경주	-14706
▁공주	-14707
▁공표	-14708
▁광대	-14709
▁구상	-14710
▁귀를	-14711
▁김영	-14712
▁깜짝	-14713
▁끝내	-14714
▁나르	-14715
▁나체	-14716
▁납북	-14717
▁내달	-14718
▁노란	-14719
▁노엘	-14720
▁다카	-14721
▁당이	-14722
▁대공	-14723
▁데는	-14724
▁돌며	-14725
▁될지	-14726
▁들며	-14727
▁등급	-14728
▁때도	-14729
▁때에	-14730
▁라마	-14731
▁루디	-14732
▁마터	-14733
▁맞교	-14734
▁맞설	-14735
▁매리	-14736
▁메가	-14737
▁면허	-14738
▁반짝	-14739
▁방코	-14740
▁법의	-14741
▁본거	-14742
▁부착	-14743
▁불거	-14744
▁불필	-14745
▁빼고	-14746
▁사로	-14747
▁사모	-14748
▁사촌	-14749
▁상무	-14750
▁상세	-14751
▁스탤	-14752
▁스필	-14753
▁심어	-14754
▁쓰지	-14755
▁씨를	-14756
▁아브	-14757
▁아유	-14758
▁안다	-14759
▁양은	-14760
▁어리	-14761
▁여덟	-14762
▁옮기	-14763
▁완수	-14764
▁외딴	-14765
▁외출	-14766
▁울머	-14767
▁위헌	-14768
▁은폐	-14769
▁이성	-14770
▁인적	-14771
▁인준	-14772
▁자고	-14773
▁자진	-14774
▁작별	-14775
▁장래	-14776
▁적게	-14777
▁적지	-14778
▁전념	-14779
▁절단	-14780
▁접경	-14781
▁제주	-14782
▁졌다	-14783
▁조세	-14784
▁죄를	-14785
▁주권	-14786
▁주력	-14787
▁쫓아	-14788
▁처분	-14789
▁첫째	-14790
▁청중	-14791
▁카림	-14792
▁탄약	-14793
▁투옥	-14794
▁판명	-14795
▁팔려	-14796
▁팽팽	-14797
▁평방	-14798
▁하퍼	-14799
▁합리	-14800
▁행방	-14801
▁행해	-14802
▁혼다	-14803
▁흡수	-14804
년대에	-14805
다니는	-14806
대서양	-14807
되기를	-14808
렌스탐	-14809
부장은	-14810
분기에	-14811
살짜리	-14812
시부터	-14813
억원의	-14814
업체가	-14815
여부를	-14816
왔다는	-14817
으로의	-14818
이기도	-14819
이치로	-14820
일러는	-14821
자들도	-14822
자에서	-14823
장에게	-14824
조사에	-14825
지원을	-14826
프라이	-14827
하우스	-14828
하이머	-14829
회사는	-14830
9000	-14831
eren	-14832
head	-14833
turn	-14834
▁112	-14835
▁270	-14836
▁aut	-14837
▁bro	-14838
▁ecb	-14839
▁faa	-14840
▁hol	-14841
▁per	-14842
▁str	-14843
▁unh	-14844
▁wid	-14845
▁wti	-14846
▁가동을	-14847
▁가이트	-14848
▁가하는	-14849
▁감추지	-14850
▁감축할	-14851
▁강세를	-14852
▁개인의	-14853
▁개정을	-14854
▁검토할	-14855
▁것과는	-14856
▁경쟁이	-14857
▁공격해	-14858
▁구입한	-14859
▁국가와	-14860
▁궤도에	-14861
▁근처의	-14862
▁금강산	-14863
▁기금을	-14864
▁기꺼이	-14865
▁기다려	-14866
▁깃발을	-14867
▁나폴리	-14868
▁내년에	-14869
▁내부의	-14870
▁놀라게	-14871
▁다루는	-14872
▁단거리	-14873
▁대응할	-14874
▁대표단	-14875
▁데이브	-14876
▁도덕적	-14877
▁동생인	-14878
▁두개골	-14879
▁디에고	-14880
▁떠나지	-14881
▁똑같은	-14882
▁라스무	-14883
▁레드삭	-14884
▁로드맵	-14885
▁마누엘	-14886
▁마시는	-14887
▁마찰을	-14888
▁만나기	-14889
▁많았다	-14890
▁망명을	-14891
▁맺었다	-14892
▁먹이를	-14893
▁메디컬	-14894
▁명단을	-14895
▁모하메	-14896
▁목록을	-14897
▁무너뜨	-14898
▁무료로	-14899
▁무중력	-14900
▁물질이	-14901
▁물품을	-14902
▁바다에	-14903
▁바이든	-14904
▁밝히기	-14905
▁방송국	-14906
▁버스는	-14907
▁변호인	-14908
▁북측의	-14909
▁비난이	-14910
▁비용은	-14911
▁비율은	-14912
▁빈라덴	-14913
▁산업의	-14914
▁삼았다	-14915
▁생겼다	-14916
▁서명한	-14917
▁석유를	-14918
▁선생님	-14919
▁선정된	-14920
▁선포한	-14921
▁설립된	-14922
▁설치한	-14923
▁성공할	-14924
▁성장이	-14925
▁세계가	-14926
▁수비수	-14927
▁수색을	-14928
▁수준에	-14929
▁수치가	-14930
▁순간에	-14931
▁스콜세	-14932
▁시민이	-14933
▁시험을	-14934
▁아들과	-14935
▁아로요	-14936
▁알자지	-14937
▁약물을	-14938
▁언급도	-14939
▁언론과	-14940
▁얼어붙	-14941
▁없도록	-14942
▁없었고	-14943
▁여왕이	-14944
▁영어를	-14945
▁올랜도	-14946
▁와중에	-14947
▁요구해	-14948
▁우려해	-14949
▁우주의	-14950
▁의사와	-14951
▁의사의	-14952
▁이건희	-14953
▁이바노	-14954
▁이행할	-14955
▁인터내	-14956
▁임무에	-14957
▁잘못을	-14958
▁전반에	-14959
▁점이다	-14960
▁조직은	-14961
▁주변의	-14962
▁죽음의	-14963
▁지나가	-14964
▁지내고	-14965
▁징역형	-14966
▁참석을	-14967
▁초부터	-14968
▁친구와	-14969
▁캠페인	-14970
▁테러와	-14971
▁테이블	-14972
▁텔레콤	-14973
▁트럭이	-14974
▁파도가	-14975
▁팬들의	-14976
▁폐쇄할	-14977
▁폭격을	-14978
▁피해여	-14979
▁필리스	-14980
▁하려는	-14981
▁학부모	-14982
▁함유된	-14983
▁혐의와	-14984
▁호날두	-14985
▁호주는	-14986
▁혼란이	-14987
▁화해를	-14988
▁확보에	-14989
▁회의는	-14990
▁후쿠다	-14991
▁휴전을	-14992
되었으나	-14993
법원에서	-14994
회견에서	-14995
▁1973	-14996
▁char	-14997
▁euro	-14998
▁head	-14999
▁make	-15000
▁park	-15001
▁가로질러	-15002
▁가졌으며	-15003
▁강화하는	-15004
▁격돌한다	-15005
▁결정하기	-15006
▁경찰에게	-15007
▁고양이가	-15008
▁곳곳에서	-15009
▁공화당은	-15010
▁관계자와	-15011
▁구조대가	-15012
▁국가들과	-15013
▁급속도로	-15014
▁기후변화	-15015
▁나스닥은	-15016
▁나타나지	-15017
▁뉴저지주	-15018
▁대통령궁	-15019
▁동물보호	-15020
▁동영상에	-15021
▁드레스를	-15022
▁루아얄은	-15023
▁리버풀은	-15024
▁마터호른	-15025
▁매릴랜드	-15026
▁매케인과	-15027
▁메시지가	-15028
▁멸종위기	-15029
▁모른다는	-15030
▁못했으며	-15031
▁무대에서	-15032
▁미국인이	-15033
▁발생한다	-15034
▁보고되지	-15035
▁보조금을	-15036
▁부모들이	-15037
▁부통령의	-15038
▁사생활을	-15039
▁살해하고	-15040
▁소렌스탐	-15041
▁소속으로	-15042
▁수단으로	-15043
▁스스로를	-15044
▁시리아와	-15045
▁시사했다	-15046
▁신용경색	-15047
▁실종됐다	-15048
▁안젤리나	-15049
▁압도적인	-15050
▁연구하는	-15051
▁올림픽에	-15052
▁올해들어	-15053
▁요원들이	-15054
▁우승자인	-15055
▁위원장의	-15056
▁유네스코	-15057
▁의미하는	-15058
▁의존하고	-15059
▁이뤄져야	-15060
▁이뤄지고	-15061
▁이후에도	-15062
▁인정하는	-15063
▁일이었다	-15064
▁입원했다	-15065
▁있었는지	-15066
▁자전거를	-15067
▁재무부는	-15068
▁적극적인	-15069
▁정확하게	-15070
▁조사하는	-15071
▁중국으로	-15072
▁지도자의	-15073
▁집회에서	-15074
▁최근까지	-15075
▁최루탄을	-15076
▁코네티컷	-15077
▁테러범이	-15078
▁텍사스와	-15079
▁토로했다	-15080
▁투탕카멘	-15081
▁평화로운	-15082
▁폐쇄했다	-15083
▁포기했다	-15084
▁포틀랜드	-15085
▁푸에르타	-15086
▁프랑스가	-15087
▁하마스를	-15088
▁합법적인	-15089
▁해안경비	-15090
▁현지에서	-15091
▁교착상태에	-15092
▁국제적으로	-15093
▁그랜드슬램	-15094
▁기준금리를	-15095
▁나타났다고	-15096
▁뉴스입니다	-15097
▁무장세력을	-15098
▁배심원단은	-15099
▁보고서에는	-15100
▁비평가들은	-15101
▁사망자수는	-15102
▁스트레스를	-15103
▁시작됐으며	-15104
▁아니었다고	-15105
▁와지리스탄	-15106
▁자르다리는	-15107
▁자체적으로	-15108
▁젊은이들이	-15109
▁직접적으로	-15110
▁추가적으로	-15111
▁추정된다고	-15112
▁코커스에서	-15113
▁콜롬비아의	-15114
▁플로리다에	-15115
▁할리우드의	-15116
▁효과적으로	-15117
▁forces	-15118
▁public	-15119
▁달라이라마가	-15120
▁주장했습니다	-15121
▁프로그램에서	-15122
▁committ	-15123
▁journal	-15124
▁소식통에따르면	-15125
▁official	-15126
▁prosecut	-15127
▁commission	-15128
21	-15129
45	-15130
fk	-15131
▁둥	-15132
▁띠	-15133
▁럭	-15134
▁롭	-15135
▁맑	-15136
▁멍	-15137
▁뻔	-15138
▁셔	-15139
▁싼	-15140
▁씻	-15141
▁잦	-15142
▁째	-15143
▁튜	-15144
가량	-15145
감에	-15146
감한	-15147
개는	-15148
게임	-15149
결혼	-15150
경의	-15151
고등	-15152
구와	-15153
권과	-15154
귀한	-15155
그레	-15156
끼를	-15157
넷소	-15158
대출	-15159
럴드	-15160
려져	-15161
로써	-15162
류는	-15163
마이	-15164
마저	-15165
망에	-15166
모델	-15167
바가	-15168
바닥	-15169
바를	-15170
바인	-15171
방의	-15172
방한	-15173
배로	-15174
베키	-15175
비안	-15176
비츠	-15177
스팅	-15178
어서	-15179
없다	-15180
오를	-15181
와르	-15182
왔고	-15183
이에	-15184
인하	-15185
있어	-15186
자리	-15187
자산	-15188
자유	-15189
작가	-15190
적일	-15191
제한	-15192
중독	-15193
질의	-15194
차에	-15195
취를	-15196
치료	-15197
코가	-15198
코드	-15199
크레	-15200
타스	-15201
탄이	-15202
티노	-15203
팀에	-15204
팅을	-15205
펠러	-15206
폰을	-15207
표로	-15208
프와	-15209
한한	-15210
혈을	-15211
ale	-15212
leg	-15213
uge	-15214
ush	-15215
▁fe	-15216
▁fi	-15217
▁sm	-15218
▁가야	-15219
▁가혹	-15220
▁개회	-15221
▁게놈	-15222
▁겪은	-15223
▁경이	-15224
▁공범	-15225
▁과장	-15226
▁구분	-15227
▁구해	-15228
▁국유	-15229
▁그랬	-15230
▁금전	-15231
▁길게	-15232
▁날카	-15233
▁낳은	-15234
▁넣고	-15235
▁농담	-15236
▁눈보	-15237
▁단절	-15238
▁대단	-15239
▁대원	-15240
▁더미	-15241
▁델라	-15242
▁도피	-15243
▁독특	-15244
▁돌풍	-15245
▁되살	-15246
▁든다	-15247
▁딜런	-15248
▁뚜렷	-15249
▁라드	-15250
▁라싸	-15251
▁로렌	-15252
▁로얄	-15253
▁루스	-15254
▁마루	-15255
▁만회	-15256
▁말도	-15257
▁말아	-15258
▁맞지	-15259
▁메흐	-15260
▁멜리	-15261
▁명시	-15262
▁목을	-15263
▁묻혀	-15264
▁물라	-15265
▁미수	-15266
▁미화	-15267
▁바랍	-15268
▁바랬	-15269
▁바바	-15270
▁발리	-15271
▁밤을	-15272
▁백과	-15273
▁벤처	-15274
▁봉인	-15275
▁봉착	-15276
▁불리	-15277
▁비리	-15278
▁비율	-15279
▁비참	-15280
▁사의	-15281
▁상실	-15282
▁상트	-15283
▁서머	-15284
▁섬유	-15285
▁성지	-15286
▁쇼를	-15287
▁숨겨	-15288
▁스몰	-15289
▁시리	-15290
▁신병	-15291
▁싣고	-15292
▁실감	-15293
▁아티	-15294
▁야외	-15295
▁양조	-15296
▁에르	-15297
▁연못	-15298
▁영유	-15299
▁오디	-15300
▁오지	-15301
▁오클	-15302
▁와일	-15303
▁왕복	-15304
▁왜냐	-15305
▁용기	-15306
▁용서	-15307
▁우파	-15308
▁의상	-15309
▁인텔	-15310
▁일환	-15311
▁자민	-15312
▁자수	-15313
▁자정	-15314
▁잘라	-15315
▁재결	-15316
▁재계	-15317
▁재앙	-15318
▁재해	-15319
▁점심	-15320
▁점에	-15321
▁정박	-15322
▁조립	-15323
▁존엄	-15324
▁좁은	-15325
▁주입	-15326
▁중립	-15327
▁지향	-15328
▁척추	-15329
▁철거	-15330
▁청색	-15331
▁첼시	-15332
▁초당	-15333
▁춤을	-15334
▁카펠	-15335
▁캠퍼	-15336
▁쿠르	-15337
▁쿼터	-15338
▁토드	-15339
▁투여	-15340
▁투하	-15341
▁트위	-15342
▁파커	-15343
▁팔아	-15344
▁퍼뜨	-15345
▁평결	-15346
▁포도	-15347
▁표기	-15348
▁프란	-15349
▁하누	-15350
▁하위	-15351
▁햇볕	-15352
▁행크	-15353
▁허리	-15354
▁홈구	-15355
▁황폐	-15356
▁회상	-15357
▁후인	-15358
▁훔쳐	-15359
검사를	-15360
계선을	-15361
관계에	-15362
레이터	-15363
리라고	-15364
만에서	-15365
방안을	-15366
보나레	-15367
상황을	-15368
센터에	-15369
소시엄	-15370
스럽고	-15371
스에게	-15372
시한을	-15373
안에는	-15374
어사전	-15375
었었다	-15376
여사는	-15377
월에서	-15378
이라크	-15379
있다는	-15380
줬다고	-15381
지역은	-15382
차관은	-15383
측에서	-15384
카메라	-15385
케이션	-15386
텍사스	-15387
품으로	-15388
하기가	-15389
하에서	-15390
하자고	-15391
했거나	-15392
협회는	-15393
ones	-15394
reed	-15395
ries	-15396
week	-15397
▁104	-15398
▁126	-15399
▁128	-15400
▁135	-15401
▁210	-15402
▁360	-15403
▁ben	-15404
▁hal	-15405
▁low	-15406
▁sun	-15407
▁uae	-15408
▁ump	-15409
▁wom	-15410
▁www	-15411
▁감행한	-15412
▁강화된	-15413
▁거리가	-15414
▁거슬러	-15415
▁게임은	-15416
▁격차가	-15417
▁격차를	-15418
▁계획된	-15419
▁고유가	-15420
▁공개될	-15421
▁공동의	-15422
▁공연은	-15423
▁관계로	-15424
▁교수의	-15425
▁교회에	-15426
▁군부는	-15427
▁그래픽	-15428
▁그래함	-15429
▁기관인	-15430
▁기준에	-15431
▁길이의	-15432
▁까지는	-15433
▁깨끗한	-15434
▁나아갈	-15435
▁나이에	-15436
▁나중에	-15437
▁나토의	-15438
▁남자와	-15439
▁내각을	-15440
▁내놓은	-15441
▁내부에	-15442
▁넘어서	-15443
▁놀랐다	-15444
▁누군가	-15445
▁느꼈다	-15446
▁다이앤	-15447
▁다이어	-15448
▁당선된	-15449
▁당시의	-15450
▁당하는	-15451
▁대가를	-15452
▁대령은	-15453
▁데에는	-15454
▁독재자	-15455
▁동북아	-15456
▁돼있다	-15457
▁뒤이어	-15458
▁드레스	-15459
▁등록된	-15460
▁디얄라	-15461
▁마리화	-15462
▁매카트	-15463
▁면밀히	-15464
▁명확한	-15465
▁목사가	-15466
▁목사의	-15467
▁몰려들	-15468
▁몰아넣	-15469
▁무기와	-15470
▁물의를	-15471
▁미소를	-15472
▁미확인	-15473
▁반대의	-15474
▁반응이	-15475
▁반하는	-15476
▁발견해	-15477
▁발표될	-15478
▁방송사	-15479
▁버려진	-15480
▁법안의	-15481
▁병사가	-15482
▁보고된	-15483
▁분야의	-15484
▁불만이	-15485
▁비공개	-15486
▁사라질	-15487
▁사진기	-15488
▁사회를	-15489
▁상태는	-15490
▁서울대	-15491
▁선거인	-15492
▁선고를	-15493
▁성향을	-15494
▁성화를	-15495
▁세포를	-15496
▁센트럴	-15497
▁소녀는	-15498
▁소년은	-15499
▁소니의	-15500
▁소행성	-15501
▁손상된	-15502
▁손으로	-15503
▁수반과	-15504
▁스타가	-15505
▁승객과	-15506
▁식량과	-15507
▁신문의	-15508
▁실었다	-15509
▁쓰러져	-15510
▁아내는	-15511
▁안락사	-15512
▁암스테	-15513
▁애도의	-15514
▁얼굴에	-15515
▁없이는	-15516
▁여기서	-15517
▁여기에	-15518
▁염두에	-15519
▁예상한	-15520
▁예언자	-15521
▁오늘의	-15522
▁우연히	-15523
▁운항을	-15524
▁운항이	-15525
▁위기의	-15526
▁은행인	-15527
▁음와이	-15528
▁의문이	-15529
▁의장의	-15530
▁의혹이	-15531
▁이곳의	-15532
▁이르게	-15533
▁이상은	-15534
▁인도는	-15535
▁입장에	-15536
▁있을까	-15537
▁자체가	-15538
▁잠비아	-15539
▁장식된	-15540
▁전당대	-15541
▁제품이	-15542
▁제한을	-15543
▁조약을	-15544
▁좋았다	-15545
▁주위를	-15546
▁지금의	-15547
▁지도부	-15548
▁직원은	-15549
▁진지한	-15550
▁찍었다	-15551
▁차원의	-15552
▁차질이	-15553
▁체계를	-15554
▁초안을	-15555
▁초콜릿	-15556
▁촉발된	-15557
▁총리도	-15558
▁총선이	-15559
▁추락해	-15560
▁축제를	-15561
▁출마를	-15562
▁충돌한	-15563
▁충돌해	-15564
▁치료에	-15565
▁친구를	-15566
▁카르발	-15567
▁카이로	-15568
▁커플은	-15569
▁클라크	-15570
▁통신에	-15571
▁통제를	-15572
▁통증을	-15573
▁파손된	-15574
▁판매가	-15575
▁포드는	-15576
▁폭격기	-15577
▁폭풍이	-15578
▁프로디	-15579
▁프리츨	-15580
▁피고인	-15581
▁하나다	-15582
▁하락을	-15583
▁하반기	-15584
▁하지는	-15585
▁해결될	-15586
▁해외로	-15587
▁해제를	-15588
▁환자는	-15589
났습니다	-15590
스타인은	-15591
인이었다	-15592
잉글랜드	-15593
하였으나	-15594
함으로서	-15595
▁1945	-15596
▁1965	-15597
▁2050	-15598
▁food	-15599
▁home	-15600
▁rctv	-15601
▁some	-15602
▁than	-15603
▁가르시아	-15604
▁가정에서	-15605
▁감소했다	-15606
▁것인지는	-15607
▁결정하지	-15608
▁경찰들이	-15609
▁고마움을	-15610
▁공격하고	-15611
▁구조대는	-15612
▁국가들에	-15613
▁국민투표	-15614
▁근본적인	-15615
▁금융감독	-15616
▁나왔다고	-15617
▁늘어나고	-15618
▁달한다고	-15619
▁당선자의	-15620
▁대사관이	-15621
▁도착하자	-15622
▁등장하는	-15623
▁마스터스	-15624
▁말했으나	-15625
▁매니저인	-15626
▁머레이는	-15627
▁못한다고	-15628
▁민주적인	-15629
▁발생하기	-15630
▁비서실장	-15631
▁사드르가	-15632
▁사형집행	-15633
▁상승하며	-15634
▁소송에서	-15635
▁수감됐다	-15636
▁수준이다	-15637
▁수행했다	-15638
▁스튜어트	-15639
▁승객들은	-15640
▁시도했다	-15641
▁시민권을	-15642
▁시민단체	-15643
▁식당에서	-15644
▁신중하게	-15645
▁실시됐다	-15646
▁심사위원	-15647
▁아이다호	-15648
▁아프간의	-15649
▁않았다면	-15650
▁앞서있다	-15651
▁어렵다고	-15652
▁어린이가	-15653
▁억류되어	-15654
▁없었으며	-15655
▁여성들의	-15656
▁연구하고	-15657
▁연기됐다	-15658
▁연말까지	-15659
▁연방정부	-15660
▁영향으로	-15661
▁와이오밍	-15662
▁완화하기	-15663
▁왜냐하면	-15664
▁위원회에	-15665
▁위험성을	-15666
▁유엔사무	-15667
▁유전자를	-15668
▁의구심을	-15669
▁의원들과	-15670
▁이라크군	-15671
▁이뤄지는	-15672
▁이제까지	-15673
▁이혼했다	-15674
▁인권단체	-15675
▁인질들은	-15676
▁인터폴은	-15677
▁일주일에	-15678
▁있는지에	-15679
▁있음에도	-15680
▁저질렀다	-15681
▁전까지는	-15682
▁전당대회	-15683
▁제기됐다	-15684
▁조사결과	-15685
▁조종사가	-15686
▁주문했다	-15687
▁주인공인	-15688
▁즈보나레	-15689
▁지지했다	-15690
▁지켜보고	-15691
▁촉구하고	-15692
▁취소됐다	-15693
▁측에서는	-15694
▁쿠즈넷소	-15695
▁태어났다	-15696
▁통신과의	-15697
▁트로피를	-15698
▁파견했다	-15699
▁파예드의	-15700
▁포괄적인	-15701
▁포기하고	-15702
▁폭발물이	-15703
▁프로듀서	-15704
▁하루종일	-15705
▁함부르크	-15706
▁항의했다	-15707
▁확신하고	-15708
▁회복하고	-15709
▁획득했다	-15710
▁후세인은	-15711
▁힐러리의	-15712
폴리스에서	-15713
▁heart	-15714
▁가능하다고	-15715
▁경기장에서	-15716
▁관계당국이	-15717
▁나이트클럽	-15718
▁네그로폰테	-15719
▁뉴올리언스	-15720
▁대선후보가	-15721
▁미얀마에서	-15722
▁민간인들을	-15723
▁바스라에서	-15724
▁밝혀졌다고	-15725
▁본격적으로	-15726
▁불가능하다	-15727
▁사르코지의	-15728
▁아프리카의	-15729
▁예정이지만	-15730
▁이라크군이	-15731
▁중앙정보국	-15732
▁지시했다고	-15733
▁집중적으로	-15734
▁체포됐으며	-15735
▁평론가들은	-15736
▁합법적으로	-15737
▁france	-15738
▁window	-15739
▁떨어졌습니다	-15740
▁소프트웨어를	-15741
▁아프리카에서	-15742
▁어린이들에게	-15743
▁와인하우스가	-15744
▁인도네시아는	-15745
▁핵프로그램을	-15746
ployment	-15747
▁express	-15748
▁마터호른에서의	-15749
29	-15750
ca	-15751
ox	-15752
▁굽	-15753
▁돋	-15754
▁몫	-15755
▁뻗	-15756
▁슐	-15757
▁왓	-15758
▁죠	-15759
▁찔	-15760
▁캡	-15761
▁퀘	-15762
건강	-15763
계와	-15764
고에	-15765
나왓	-15766
다의	-15767
다피	-15768
당할	-15769
더드	-15770
독립	-15771
되다	-15772
드르	-15773
디다	-15774
라기	-15775
라브	-15776
레티	-15777
르담	-15778
릭스	-15779
매설	-15780
먼의	-15781
면허	-15782
목이	-15783
물과	-15784
발이	-15785
방향	-15786
배럴	-15787
설이	-15788
솔린	-15789
신원	-15790
안토	-15791
연패	-15792
열차	-15793
운하	-15794
월로	-15795
을때	-15796
쟁이	-15797
저우	-15798
전과	-15799
전인	-15800
전한	-15801
정과	-15802
정희	-15803
제와	-15804
증권	-15805
차관	-15806
천후	-15807
철도	-15808
치다	-15809
카라	-15810
카이	-15811
크와	-15812
킨스	-15813
테이	-15814
통은	-15815
투아	-15816
트랙	-15817
튼이	-15818
파일	-15819
판매	-15820
판은	-15821
풋볼	-15822
호프	-15823
히지	-15824
att	-15825
iam	-15826
ich	-15827
ics	-15828
ink	-15829
ple	-15830
▁mp	-15831
▁sl	-15832
▁가계	-15833
▁감수	-15834
▁값싼	-15835
▁강연	-15836
▁같아	-15837
▁개구	-15838
▁개리	-15839
▁거행	-15840
▁건스	-15841
▁겪을	-15842
▁고독	-15843
▁고맙	-15844
▁곤란	-15845
▁골로	-15846
▁공백	-15847
▁공적	-15848
▁관제	-15849
▁교역	-15850
▁굶주	-15851
▁급히	-15852
▁기용	-15853
▁끄는	-15854
▁나포	-15855
▁난처	-15856
▁날려	-15857
▁날에	-15858
▁남긴	-15859
▁났다	-15860
▁낳을	-15861
▁내기	-15862
▁노린	-15863
▁놀랐	-15864
▁놓인	-15865
▁늘릴	-15866
▁다닐	-15867
▁다스	-15868
▁다할	-15869
▁다해	-15870
▁단언	-15871
▁돌진	-15872
▁동기	-15873
▁동아	-15874
▁들려	-15875
▁때와	-15876
▁러브	-15877
▁레비	-15878
▁로브	-15879
▁로젠	-15880
▁로즈	-15881
▁루고	-15882
▁르완	-15883
▁리베	-15884
▁마츠	-15885
▁막바	-15886
▁많을	-15887
▁매설	-15888
▁명절	-15889
▁모나	-15890
▁몸싸	-15891
▁미안	-15892
▁믿지	-15893
▁바우	-15894
▁법규	-15895
▁변형	-15896
▁병을	-15897
▁보궐	-15898
▁복수	-15899
▁부를	-15900
▁분주	-15901
▁분화	-15902
▁불빛	-15903
▁블래	-15904
▁블리	-15905
▁비춰	-15906
▁빨라	-15907
▁사귀	-15908
▁사립	-15909
▁상아	-15910
▁생길	-15911
▁선교	-15912
▁세골	-15913
▁세관	-15914
▁소란	-15915
▁속출	-15916
▁스즈	-15917
▁시모	-15918
▁식수	-15919
▁신기	-15920
▁실내	-15921
▁쌓인	-15922
▁아드	-15923
▁아세	-15924
▁안을	-15925
▁약을	-15926
▁양이	-15927
▁어드	-15928
▁어미	-15929
▁에워	-15930
▁연습	-15931
▁오닐	-15932
▁오퍼	-15933
▁올림	-15934
▁왔던	-15935
▁외모	-15936
▁워커	-15937
▁유독	-15938
▁이빨	-15939
▁잉그	-15940
▁자가	-15941
▁장이	-15942
▁재규	-15943
▁적도	-15944
▁전술	-15945
▁져야	-15946
▁조율	-15947
▁종의	-15948
▁주니	-15949
▁주된	-15950
▁주소	-15951
▁주어	-15952
▁죽고	-15953
▁증폭	-15954
▁지대	-15955
▁지어	-15956
▁직무	-15957
▁진도	-15958
▁찍힌	-15959
▁철강	-15960
▁체첸	-15961
▁총살	-15962
▁총회	-15963
▁최다	-15964
▁추기	-15965
▁충청	-15966
▁치르	-15967
▁칠면	-15968
▁침대	-15969
▁카누	-15970
▁카렌	-15971
▁캐시	-15972
▁컨셉	-15973
▁탔다	-15974
▁터져	-15975
▁템파	-15976
▁토레	-15977
▁토튼	-15978
▁트래	-15979
▁트러	-15980
▁패러	-15981
▁퍼부	-15982
▁페어	-15983
▁푸미	-15984
▁프렌	-15985
▁핑크	-15986
▁한창	-15987
▁할로	-15988
▁해줄	-15989
▁헤어	-15990
▁활주	-15991
▁횡단	-15992
▁휘말	-15993
갔지만	-15994
네이루	-15995
되었을	-15996
라이트	-15997
러시아	-15998
렀으며	-15999
레이트	-16000
로에서	-16001
루스코	-16002
목으로	-16003
바이잔	-16004
사건과	-16005
사로서	-16006
석으로	-16007
습니까	-16008
영장을	-16009
왔지만	-16010
이라면	-16011
인민당	-16012
장관을	-16013
정이다	-16014
정책에	-16015
조직을	-16016
테이프	-16017
포스트	-16018
프레드	-16019
하였고	-16020
협회의	-16021
화하고	-16022
회사를	-16023
ands	-16024
goti	-16025
ives	-16026
roll	-16027
tain	-16028
urch	-16029
ving	-16030
▁320	-16031
▁570	-16032
▁but	-16033
▁ent	-16034
▁inv	-16035
▁mid	-16036
▁pal	-16037
▁sad	-16038
▁san	-16039
▁toe	-16040
▁가깝게	-16041
▁가담한	-16042
▁가솔린	-16043
▁가정집	-16044
▁강풍을	-16045
▁개정된	-16046
▁개최될	-16047
▁거래에	-16048
▁거부할	-16049
▁건물은	-16050
▁것들을	-16051
▁게임의	-16052
▁결혼한	-16053
▁계약이	-16054
▁고르바	-16055
▁고릴라	-16056
▁공약을	-16057
▁과정이	-16058
▁관절염	-16059
▁광우병	-16060
▁교전은	-16061
▁교회의	-16062
▁구속된	-16063
▁그런데	-16064
▁그려진	-16065
▁그리핀	-16066
▁그린존	-16067
▁금지된	-16068
▁금지를	-16069
▁급격한	-16070
▁급속한	-16071
▁기업체	-16072
▁기원전	-16073
▁기자인	-16074
▁기회로	-16075
▁나갔다	-16076
▁나온다	-16077
▁농산물	-16078
▁뉴델리	-16079
▁단장은	-16080
▁대만에	-16081
▁대열에	-16082
▁대운하	-16083
▁대학에	-16084
▁대학이	-16085
▁댈러스	-16086
▁도메인	-16087
▁도시는	-16088
▁동료인	-16089
▁동맹을	-16090
▁동의를	-16091
▁들어서	-16092
▁로날드	-16093
▁리치는	-16094
▁마련해	-16095
▁마리의	-16096
▁마스크	-16097
▁마을로	-16098
▁맥주를	-16099
▁메신저	-16100
▁며칠간	-16101
▁모델로	-16102
▁모두는	-16103
▁모였다	-16104
▁목격자	-16105
▁목록에	-16106
▁무거운	-16107
▁무대에	-16108
▁무혐의	-16109
▁미스터	-16110
▁밀라노	-16111
▁밀란의	-16112
▁밀접한	-16113
▁바리케	-16114
▁바이에	-16115
▁박사의	-16116
▁박신원	-16117
▁박정희	-16118
▁반대를	-16119
▁반대해	-16120
▁밝혔고	-16121
▁방침을	-16122
▁방화를	-16123
▁버틀러	-16124
▁벌어들	-16125
▁벌이다	-16126
▁보건부	-16127
▁보안군	-16128
▁복장을	-16129
▁부담을	-16130
▁부드러	-16131
▁부인은	-16132
▁부정적	-16133
▁북쪽에	-16134
▁불안을	-16135
▁불행한	-16136
▁비난의	-16137
▁산업에	-16138
▁상금을	-16139
▁샤리아	-16140
▁서류를	-16141
▁선거유	-16142
▁선언을	-16143
▁성공회	-16144
▁성매매	-16145
▁세레나	-16146
▁소령은	-16147
▁소유주	-16148
▁손실이	-16149
▁쇼핑을	-16150
▁수년간	-16151
▁수상은	-16152
▁수상자	-16153
▁수입이	-16154
▁수집한	-16155
▁스테판	-16156
▁승객이	-16157
▁승리가	-16158
▁승인한	-16159
▁시신의	-16160
▁시위자	-16161
▁신문이	-16162
▁신선한	-16163
▁신원은	-16164
▁실업률	-16165
▁싶다는	-16166
▁쏟아져	-16167
▁아이튠	-16168
▁아제르	-16169
▁아지즈	-16170
▁아폴로	-16171
▁악화된	-16172
▁않았기	-16173
▁암으로	-16174
▁업계의	-16175
▁업무에	-16176
▁여당이	-16177
▁여론이	-16178
▁연구원	-16179
▁열리기	-16180
▁영상은	-16181
▁영어로	-16182
▁예산이	-16183
▁올라온	-16184
▁올스타	-16185
▁왕복선	-16186
▁외곽에	-16187
▁외국계	-16188
▁원칙을	-16189
▁위원장	-16190
▁은행을	-16191
▁의도가	-16192
▁이들과	-16193
▁이외의	-16194
▁이자율	-16195
▁인공위	-16196
▁인물로	-16197
▁인물이	-16198
▁인수가	-16199
▁인수를	-16200
▁일했다	-16201
▁임시로	-16202
▁입원해	-16203
▁자르카	-16204
▁잔혹한	-16205
▁장기를	-16206
▁재건축	-16207
▁저소득	-16208
▁저작권	-16209
▁전국의	-16210
▁전달할	-16211
▁절반이	-16212
▁정교회	-16213
▁정부군	-16214
▁정치가	-16215
▁제이슨	-16216
▁제작자	-16217
▁조선일	-16218
▁조용히	-16219
▁조직이	-16220
▁조직인	-16221
▁존슨은	-16222
▁졸업생	-16223
▁주목할	-16224
▁주석이	-16225
▁주장인	-16226
▁주제로	-16227
▁주최한	-16228
▁죽음이	-16229
▁중동의	-16230
▁중령은	-16231
▁증가에	-16232
▁증상을	-16233
▁지명된	-16234
▁지역과	-16235
▁직원과	-16236
▁진압을	-16237
▁질병에	-16238
▁차세대	-16239
▁착용한	-16240
▁체중이	-16241
▁초드리	-16242
▁총재가	-16243
▁촬영된	-16244
▁최상의	-16245
▁친구의	-16246
▁케이스	-16247
▁쿠알라	-16248
▁크메르	-16249
▁탈출한	-16250
▁파리의	-16251
▁팔렸다	-16252
▁편안한	-16253
▁평했다	-16254
▁폭우가	-16255
▁푸틴의	-16256
▁하늘을	-16257
▁하이킹	-16258
▁학교는	-16259
▁한가지	-16260
▁한통이	-16261
▁항의를	-16262
▁핸드폰	-16263
▁헌법에	-16264
▁헝가리	-16265
▁현상을	-16266
▁혐의도	-16267
▁화산이	-16268
▁화성의	-16269
▁확보해	-16270
▁환자를	-16271
▁회복을	-16272
▁흐름을	-16273
▁희생을	-16274
민주당은	-16275
받았다고	-16276
아메리카	-16277
억달러에	-16278
업자들은	-16279
조사에서	-16280
크라멘토	-16281
퍼센트가	-16282
하면서도	-16283
ather	-16284
ected	-16285
gress	-16286
▁1949	-16287
▁1983	-16288
▁bill	-16289
▁expl	-16290
▁spec	-16291
▁usgs	-16292
▁가이트너	-16293
▁가족들의	-16294
▁강화하기	-16295
▁거부하는	-16296
▁걱정하고	-16297
▁결혼했다	-16298
▁경쟁력을	-16299
▁계속됐다	-16300
▁고위관리	-16301
▁관광객을	-16302
▁국가안전	-16303
▁국경지역	-16304
▁국내에서	-16305
▁군사력을	-16306
▁군인들을	-16307
▁극장에서	-16308
▁극적으로	-16309
▁금요일에	-16310
▁기각했다	-16311
▁기록됐다	-16312
▁기자들과	-16313
▁남자아이	-16314
▁납치됐다	-16315
▁내놓았다	-16316
▁단체들이	-16317
▁담당자인	-16318
▁당선됐다	-16319
▁대학교의	-16320
▁도로매설	-16321
▁동성결혼	-16322
▁두번째로	-16323
▁들어주지	-16324
▁로비스트	-16325
▁리트비넨	-16326
▁멕시코의	-16327
▁목격했다	-16328
▁무가베는	-16329
▁무너지고	-16330
▁민간인을	-16331
▁민족주의	-16332
▁밀리밴드	-16333
▁바랍니다	-16334
▁발표되지	-16335
▁방문했을	-16336
▁방코델타	-16337
▁배경으로	-16338
▁배아줄기	-16339
▁벌였으며	-16340
▁베이루트	-16341
▁병사들은	-16342
▁보고서의	-16343
▁보였으며	-16344
▁보이지만	-16345
▁불쾌감을	-16346
▁사망했을	-16347
▁사용자가	-16348
▁상황으로	-16349
▁생각된다	-16350
▁서비스는	-16351
▁석방했다	-16352
▁선수들과	-16353
▁성명서를	-16354
▁수용소에	-16355
▁스트리트	-16356
▁시간으로	-16357
▁시리즈의	-16358
▁시상식은	-16359
▁시스템의	-16360
▁시위대의	-16361
▁심리에서	-16362
▁아버지를	-16363
▁아시아와	-16364
▁안보리는	-16365
▁앨라배마	-16366
▁양곤에서	-16367
▁연구소는	-16368
▁영국군은	-16369
▁영어사전	-16370
▁우승으로	-16371
▁유권자가	-16372
▁유니세프	-16373
▁유명인사	-16374
▁이사회는	-16375
▁이틀간의	-16376
▁일상적인	-16377
▁자이언트	-16378
▁전문가는	-16379
▁전시작전	-16380
▁제한하는	-16381
▁주지사를	-16382
▁중앙일보	-16383
▁지지자들	-16384
▁참석하는	-16385
▁총리와의	-16386
▁총회에서	-16387
▁추정되고	-16388
▁충돌했다	-16389
▁카불에서	-16390
▁크리스틴	-16391
▁탈출했다	-16392
▁통과하는	-16393
▁티셔츠를	-16394
▁파손됐다	-16395
▁파악하고	-16396
▁파예드는	-16397
▁패션계의	-16398
▁포기하는	-16399
▁폭락했다	-16400
▁폭발했다	-16401
▁프랑스를	-16402
▁환경에서	-16403
▁환자들은	-16404
▁회사에서	-16405
▁획기적인	-16406
데자네이루	-16407
▁child	-16408
▁found	-16409
▁organ	-16410
▁구조작업을	-16411
▁국제올림픽	-16412
▁다우지수가	-16413
▁디스플레이	-16414
▁만들어졌다	-16415
▁미항공우주	-16416
▁바에따르면	-16417
▁베를루스코	-16418
▁소식통들은	-16419
▁신행정수도	-16420
▁압도적으로	-16421
▁애틀랜티스	-16422
▁외무장관이	-16423
▁운동가들은	-16424
▁재정경제부	-16425
▁정상회담에	-16426
▁조사에서는	-16427
▁주장했다고	-16428
▁주장했었다	-16429
▁줄리아니는	-16430
▁중국에서는	-16431
▁중앙일보는	-16432
▁탈레반측은	-16433
▁토론회에서	-16434
▁페널티킥을	-16435
▁플레이오프	-16436
▁플로리다와	-16437
▁피해자들을	-16438
▁희망한다고	-16439
▁report	-16440
▁travel	-16441
▁관광객들에게	-16442
▁아제르바이잔	-16443
▁열린우리당은	-16444
▁예정이었으나	-16445
▁요하네스버그	-16446
▁이슬라마바드	-16447
▁캘리포니아에	-16448
▁economy	-16449
▁방코델타아시아	-16450
▁오사마빈라덴의	-16451
▁캘리포니아에서	-16452
▁soldiers	-16453
34	-16454
65	-16455
75	-16456
85	-16457
ci	-16458
de	-16459
fc	-16460
▁긱	-16461
▁눌	-16462
▁룩	-16463
▁릴	-16464
▁썩	-16465
▁쐈	-16466
▁쭉	-16467
▁홉	-16468
가루	-16469
개와	-16470
고로	-16471
고의	-16472
골에	-16473
군데	-16474
그러	-16475
금의	-16476
난을	-16477
다를	-16478
더미	-16479
더와	-16480
됐기	-16481
랜더	-16482
럼을	-16483
레오	-16484
루즈	-16485
르다	-16486
린이	-16487
린트	-16488
마뱀	-16489
목에	-16490
민순	-16491
박물	-16492
반이	-16493
병원	-16494
보드	-16495
보지	-16496
석현	-16497
수비	-16498
슬링	-16499
시마	-16500
시킴	-16501
애를	-16502
에겐	-16503
예프	-16504
유는	-16505
인들	-16506
자나	-16507
자루	-16508
지사	-16509
차의	-16510
최초	-16511
탄의	-16512
탐사	-16513
터에	-16514
테스	-16515
토야	-16516
토프	-16517
티네	-16518
팀인	-16519
파와	-16520
패닉	-16521
행은	-16522
히기	-16523
히드	-16524
600	-16525
ady	-16526
ago	-16527
emy	-16528
ges	-16529
gin	-16530
ism	-16531
lar	-16532
ner	-16533
ote	-16534
uss	-16535
▁el	-16536
▁가루	-16537
▁가시	-16538
▁각성	-16539
▁강에	-16540
▁강철	-16541
▁거울	-16542
▁걸림	-16543
▁겪게	-16544
▁결장	-16545
▁경력	-16546
▁고층	-16547
▁공업	-16548
▁과속	-16549
▁과일	-16550
▁규명	-16551
▁그외	-16552
▁그저	-16553
▁금치	-16554
▁깨고	-16555
▁끝낼	-16556
▁나뭇	-16557
▁날로	-16558
▁누출	-16559
▁늦추	-16560
▁다나	-16561
▁다둘	-16562
▁달고	-16563
▁당연	-16564
▁대성	-16565
▁도구	-16566
▁독극	-16567
▁드미	-16568
▁디젤	-16569
▁디카	-16570
▁때를	-16571
▁로야	-16572
▁로키	-16573
▁로하	-16574
▁룰라	-16575
▁리비	-16576
▁먼지	-16577
▁명과	-16578
▁무척	-16579
▁물과	-16580
▁미식	-16581
▁반경	-16582
▁발작	-16583
▁방금	-16584
▁배에	-16585
▁배정	-16586
▁보니	-16587
▁북경	-16588
▁불꽃	-16589
▁불사	-16590
▁산체	-16591
▁살상	-16592
▁삼각	-16593
▁서기	-16594
▁서던	-16595
▁서두	-16596
▁선사	-16597
▁설교	-16598
▁섬의	-16599
▁성실	-16600
▁성행	-16601
▁셰르	-16602
▁소더	-16603
▁숨져	-16604
▁스펙	-16605
▁스폰	-16606
▁아쿠	-16607
▁애슐	-16608
▁액션	-16609
▁야만	-16610
▁어윈	-16611
▁어쩔	-16612
▁언젠	-16613
▁에반	-16614
▁엠마	-16615
▁온도	-16616
▁우체	-16617
▁원심	-16618
▁유머	-16619
▁유언	-16620
▁육박	-16621
▁음향	-16622
▁의거	-16623
▁의논	-16624
▁의류	-16625
▁이타	-16626
▁인접	-16627
▁일일	-16628
▁자궁	-16629
▁자는	-16630
▁잠겨	-16631
▁잠깐	-16632
▁저가	-16633
▁저하	-16634
▁적혀	-16635
▁전두	-16636
▁정원	-16637
▁제왕	-16638
▁조업	-16639
▁좌우	-16640
▁죽게	-16641
▁중개	-16642
▁중장	-16643
▁즐겁	-16644
▁즐겨	-16645
▁증산	-16646
▁진짜	-16647
▁집결	-16648
▁짙은	-16649
▁참수	-16650
▁창업	-16651
▁출항	-16652
▁출현	-16653
▁치타	-16654
▁친미	-16655
▁카니	-16656
▁칼데	-16657
▁컨설	-16658
▁키르	-16659
▁타개	-16660
▁탈퇴	-16661
▁티나	-16662
▁파는	-16663
▁파편	-16664
▁페리	-16665
▁품질	-16666
▁피그	-16667
▁피를	-16668
▁하르	-16669
▁한꺼	-16670
▁할인	-16671
▁해발	-16672
▁핵을	-16673
▁헬만	-16674
▁현저	-16675
▁현존	-16676
▁형을	-16677
▁혼인	-16678
▁화상	-16679
▁희박	-16680
객들이	-16681
과정을	-16682
기관인	-16683
기구가	-16684
기구를	-16685
나이트	-16686
됐는지	-16687
라이너	-16688
리아스	-16689
명하게	-16690
법안에	-16691
분으로	-16692
사건의	-16693
센터를	-16694
여행을	-16695
임에도	-16696
자라고	-16697
졌는데	-16698
졌었다	-16699
주의를	-16700
친구를	-16701
판에서	-16702
하게도	-16703
해주고	-16704
회사의	-16705
회의가	-16706
bass	-16707
ison	-16708
ting	-16709
tish	-16710
▁007	-16711
▁145	-16712
▁770	-16713
▁big	-16714
▁den	-16715
▁epl	-16716
▁lib	-16717
▁nhc	-16718
▁rem	-16719
▁set	-16720
▁uci	-16721
▁가옥이	-16722
▁가치는	-16723
▁가혹한	-16724
▁갈수록	-16725
▁감소할	-16726
▁개막식	-16727
▁개성공	-16728
▁개인적	-16729
▁개최할	-16730
▁검사가	-16731
▁게임이	-16732
▁경선에	-16733
▁경영자	-16734
▁고객을	-16735
▁과정은	-16736
▁구조조	-16737
▁국가적	-16738
▁국회는	-16739
▁군부의	-16740
▁군인을	-16741
▁그래도	-16742
▁그룹이	-16743
▁기네스	-16744
▁기념행	-16745
▁기사에	-16746
▁기존에	-16747
▁기지에	-16748
▁나타날	-16749
▁난동을	-16750
▁날씨는	-16751
▁남우주	-16752
▁납치를	-16753
▁낳았다	-16754
▁내각의	-16755
▁노리는	-16756
▁눈으로	-16757
▁뉴욕과	-16758
▁다윈은	-16759
▁달했다	-16760
▁당선이	-16761
▁대니얼	-16762
▁대선은	-16763
▁대우를	-16764
▁대응을	-16765
▁대표로	-16766
▁던지는	-16767
▁도달할	-16768
▁도요타	-16769
▁독립한	-16770
▁독특한	-16771
▁됐지만	-16772
▁되는데	-16773
▁들어갔	-16774
▁들어올	-16775
▁따르지	-16776
▁때부터	-16777
▁라덴은	-16778
▁라시드	-16779
▁롤링은	-16780
▁만델라	-16781
▁만든다	-16782
▁말라는	-16783
▁머리가	-16784
▁목표에	-16785
▁무게가	-16786
▁물체가	-16787
▁바다가	-16788
▁바오로	-16789
▁반면에	-16790
▁반응은	-16791
▁반지를	-16792
▁받기도	-16793
▁받도록	-16794
▁발간된	-16795
▁발견할	-16796
▁발레리	-16797
▁밝혀질	-16798
▁버리고	-16799
▁버스가	-16800
▁벌어질	-16801
▁본사가	-16802
▁볼티모	-16803
▁부담이	-16804
▁부모님	-16805
▁분쟁에	-16806
▁불과한	-16807
▁불길에	-16808
▁불참을	-16809
▁붙였다	-16810
▁비난해	-16811
▁비스타	-16812
▁사망할	-16813
▁사업은	-16814
▁사업의	-16815
▁사용이	-16816
▁사용자	-16817
▁사이를	-16818
▁사진에	-16819
▁산업을	-16820
▁샌안토	-16821
▁생산된	-16822
▁서둘러	-16823
▁성장률	-16824
▁센터에	-16825
▁소동이	-16826
▁소유즈	-16827
▁소재로	-16828
▁소지한	-16829
▁송민순	-16830
▁수개월	-16831
▁수단이	-16832
▁수하물	-16833
▁승리의	-16834
▁승부차	-16835
▁승인할	-16836
▁시간은	-16837
▁시대가	-16838
▁시에서	-16839
▁신생아	-16840
▁실적을	-16841
▁실행에	-16842
▁실험이	-16843
▁심리를	-16844
▁싶다면	-16845
▁아내인	-16846
▁아디다	-16847
▁아르메	-16848
▁아름다	-16849
▁아메드	-16850
▁아브라	-16851
▁아시안	-16852
▁아프카	-16853
▁악천후	-16854
▁안에는	-16855
▁않을까	-16856
▁알아야	-16857
▁어렸을	-16858
▁얻는데	-16859
▁없음을	-16860
▁여행할	-16861
▁역할이	-16862
▁연합의	-16863
▁영국을	-16864
▁영업이	-16865
▁영토를	-16866
▁예술가	-16867
▁오디오	-16868
▁오르고	-16869
▁오사카	-16870
▁요소가	-16871
▁운동이	-16872
▁운명을	-16873
▁윌슨은	-16874
▁유용한	-16875
▁유조선	-16876
▁음베키	-16877
▁의사인	-16878
▁이겼다	-16879
▁이미지	-16880
▁이어져	-16881
▁이와는	-16882
▁인구는	-16883
▁인질이	-16884
▁일부다	-16885
▁일종의	-16886
▁일하던	-16887
▁자국민	-16888
▁자전거	-16889
▁작품이	-16890
▁장군이	-16891
▁장벽을	-16892
▁재건을	-16893
▁전쟁은	-16894
▁전투로	-16895
▁정권에	-16896
▁정당은	-16897
▁정치를	-16898
▁정통한	-16899
▁정해진	-16900
▁제의를	-16901
▁제품의	-16902
▁즐거운	-16903
▁증상이	-16904
▁지방을	-16905
▁지분을	-16906
▁지시한	-16907
▁지지한	-16908
▁지켜본	-16909
▁직원을	-16910
▁쪽으로	-16911
▁차량과	-16912
▁처음엔	-16913
▁천문학	-16914
▁철회할	-16915
▁추방된	-16916
▁추측이	-16917
▁췌장암	-16918
▁취하는	-16919
▁카르자	-16920
▁키티호	-16921
▁타이어	-16922
▁탐사선	-16923
▁통과된	-16924
▁통치를	-16925
▁트럭에	-16926
▁트럭을	-16927
▁파란색	-16928
▁팬들을	-16929
▁퍼센트	-16930
▁평양에	-16931
▁포기한	-16932
▁포즈를	-16933
▁폭동을	-16934
▁표결에	-16935
▁표현을	-16936
▁푸미폰	-16937
▁프레슬	-16938
▁학교와	-16939
▁학생은	-16940
▁학생의	-16941
▁합류할	-16942
▁해변에	-16943
▁해안의	-16944
▁했는지	-16945
▁행복한	-16946
▁혐의는	-16947
▁협력해	-16948
▁협상의	-16949
▁홀에서	-16950
▁홍석현	-16951
▁화성에	-16952
▁화재를	-16953
▁화합을	-16954
▁확정될	-16955
▁흡연을	-16956
관계자는	-16957
니케이션	-16958
랜드에서	-16959
로부터의	-16960
연설에서	-16961
자회담을	-16962
중앙은행	-16963
하기에는	-16964
ences	-16965
iforn	-16966
▁1300	-16967
▁1930	-16968
▁4500	-16969
▁case	-16970
▁dead	-16971
▁deal	-16972
▁four	-16973
▁grow	-16974
▁isaf	-16975
▁kill	-16976
▁move	-16977
▁rock	-16978
▁tech	-16979
▁감소하고	-16980
▁개체수가	-16981
▁결심했다	-16982
▁결정하는	-16983
▁경기후퇴	-16984
▁경우에는	-16985
▁공격적인	-16986
▁과도하게	-16987
▁관광객은	-16988
▁관리들과	-16989
▁국무총리	-16990
▁그녀에게	-16991
▁글로리아	-16992
▁금융기관	-16993
▁기점으로	-16994
▁노력하는	-16995
▁늘어났다	-16996
▁대법원에	-16997
▁대사관에	-16998
▁대표적인	-16999
▁동료들은	-17000
▁동점골을	-17001
▁드미트리	-17002
▁들어가기	-17003
▁들었다고	-17004
▁떠오르던	-17005
▁라왈핀디	-17006
▁매들린이	-17007
▁메시지는	-17008
▁모색하고	-17009
▁목소리가	-17010
▁무하마드	-17011
▁미시간주	-17012
▁바탕으로	-17013
▁박물관에	-17014
▁박물관은	-17015
▁받았었다	-17016
▁발표하는	-17017
▁방문한다	-17018
▁백과사전	-17019
▁벗어나기	-17020
▁베이징의	-17021
▁변호사와	-17022
▁보도자료	-17023
▁불필요한	-17024
▁사드르의	-17025
▁사무실에	-17026
▁사살하고	-17027
▁사용하여	-17028
▁사직서를	-17029
▁사회에서	-17030
▁상임이사	-17031
▁선거기부	-17032
▁센터에서	-17033
▁수십명의	-17034
▁수치이다	-17035
▁스프레이	-17036
▁시리아는	-17037
▁시상식을	-17038
▁압수했다	-17039
▁에스트라	-17040
▁엑스파일	-17041
▁연구진이	-17042
▁영향력이	-17043
▁영화제작	-17044
▁왕세자의	-17045
▁외교관은	-17046
▁요구한다	-17047
▁요청으로	-17048
▁우리당은	-17049
▁우승했다	-17050
▁위협적인	-17051
▁이해하고	-17052
▁인사들과	-17053
▁임명했다	-17054
▁장례식에	-17055
▁전세계의	-17056
▁정부에게	-17057
▁정상들이	-17058
▁주둔중인	-17059
▁중심부에	-17060
▁지도부가	-17061
▁지불하고	-17062
▁지역에는	-17063
▁지지자의	-17064
▁지질조사	-17065
▁진압하기	-17066
▁진행자인	-17067
▁집권당인	-17068
▁차량에서	-17069
▁참여하고	-17070
▁청와대는	-17071
▁충돌하는	-17072
▁측면에서	-17073
▁캐나다의	-17074
▁태풍으로	-17075
▁토요일에	-17076
▁통제하는	-17077
▁트레이드	-17078
▁파예드가	-17079
▁파이낸셜	-17080
▁페르난데	-17081
▁포함하는	-17082
▁피해자가	-17083
▁한꺼번에	-17084
▁항공사가	-17085
▁항구도시	-17086
▁해적들이	-17087
▁홀랜드는	-17088
▁확보해야	-17089
▁확인하지	-17090
▁환자들을	-17091
▁환자에게	-17092
▁히스패닉	-17093
라운드에서	-17094
평균지수는	-17095
▁after	-17096
▁green	-17097
▁paris	-17098
▁right	-17099
▁their	-17100
▁고속도로를	-17101
▁관계자들의	-17102
▁관광객들을	-17103
▁국무장관과	-17104
▁국제사회는	-17105
▁기대한다고	-17106
▁뉴잉글랜드	-17107
▁당국자들이	-17108
▁동물원에서	-17109
▁동의했다고	-17110
▁레바논에서	-17111
▁무장단체의	-17112
▁비상사태가	-17113
▁비행기에서	-17114
▁새크라멘토	-17115
▁서부텍사스	-17116
▁성공시켰다	-17117
▁소비자들은	-17118
▁소탕작전을	-17119
▁소행이라고	-17120
▁시민들에게	-17121
▁실질적으로	-17122
▁싱가포르의	-17123
▁아이슬란드	-17124
▁오래전부터	-17125
▁외국인들이	-17126
▁위원회에서	-17127
▁제조업체인	-17128
▁조심스럽게	-17129
▁지지자들을	-17130
▁청문회에서	-17131
▁캐나다에서	-17132
▁하락했다고	-17133
▁헌법재판소	-17134
ifornia	-17135
▁negoti	-17136
▁return	-17137
▁국제축구연맹	-17138
▁마드리드에서	-17139
▁미항공우주국	-17140
▁소비자들에게	-17141
▁아프카니스탄	-17142
▁알자와히리는	-17143
▁엔터테인먼트	-17144
▁크리스티아누	-17145
▁플로리다에서	-17146
▁attacks	-17147
▁british	-17148
▁million	-17149
▁service	-17150
▁자살폭탄테러로	-17151
▁business	-17152
▁newsweek	-17153
▁이슬라마바드에서	-17154
▁committee	-17155
▁california	-17156
22	-17157
39	-17158
68	-17159
dm	-17160
do	-17161
ex	-17162
hs	-17163
ys	-17164
▁꾀	-17165
▁낚	-17166
▁놈	-17167
▁딱	-17168
▁뭐	-17169
▁뮬	-17170
▁뷰	-17171
▁셈	-17172
▁쇄	-17173
▁윗	-17174
▁율	-17175
▁춘	-17176
▁콴	-17177
▁탕	-17178
▁흠	-17179
가락	-17180
고리	-17181
고문	-17182
곳이	-17183
교회	-17184
군요	-17185
낸다	-17186
뉴얼	-17187
대기	-17188
더가	-17189
든지	-17190
들만	-17191
때로	-17192
로워	-17193
록을	-17194
마라	-17195
면이	-17196
반을	-17197
버릴	-17198
범을	-17199
본이	-17200
분석	-17201
블리	-17202
사찰	-17203
상도	-17204
선박	-17205
세르	-17206
셨다	-17207
손은	-17208
수아	-17209
시민	-17210
식간	-17211
실의	-17212
심에	-17213
업계	-17214
오던	-17215
이치	-17216
자다	-17217
잡한	-17218
젠은	-17219
조는	-17220
중생	-17221
증에	-17222
지휘	-17223
천히	-17224
초를	-17225
충돌	-17226
층과	-17227
층은	-17228
쿠스	-17229
크에	-17230
타노	-17231
타닉	-17232
토바	-17233
티리	-17234
판무	-17235
포럼	-17236
플리	-17237
하의	-17238
학적	-17239
행에	-17240
행이	-17241
cil	-17242
eep	-17243
ful	-17244
let	-17245
ror	-17246
uck	-17247
▁tg	-17248
▁가오	-17249
▁간다	-17250
▁갈망	-17251
▁감동	-17252
▁강대	-17253
▁강탈	-17254
▁갖기	-17255
▁격분	-17256
▁결백	-17257
▁경색	-17258
▁계승	-17259
▁고령	-17260
▁고전	-17261
▁공영	-17262
▁공작	-17263
▁과실	-17264
▁관례	-17265
▁교량	-17266
▁구소	-17267
▁구직	-17268
▁권장	-17269
▁규탄	-17270
▁그어	-17271
▁금주	-17272
▁까다	-17273
▁꿈이	-17274
▁끝이	-17275
▁난투	-17276
▁내륙	-17277
▁내외	-17278
▁냉장	-17279
▁넘기	-17280
▁넘길	-17281
▁넘쳐	-17282
▁농림	-17283
▁뇌의	-17284
▁누워	-17285
▁다름	-17286
▁다저	-17287
▁당수	-17288
▁당직	-17289
▁대거	-17290
▁대배	-17291
▁동거	-17292
▁됐을	-17293
▁되자	-17294
▁뒤쳐	-17295
▁듣게	-17296
▁따르	-17297
▁딸은	-17298
▁라벨	-17299
▁래드	-17300
▁로게	-17301
▁리옹	-17302
▁리츠	-17303
▁마신	-17304
▁마우	-17305
▁마자	-17306
▁마테	-17307
▁만드	-17308
▁매진	-17309
▁메탄	-17310
▁명단	-17311
▁몰린	-17312
▁무언	-17313
▁묶여	-17314
▁미용	-17315
▁민영	-17316
▁바닷	-17317
▁바락	-17318
▁방을	-17319
▁버려	-17320
▁법이	-17321
▁변함	-17322
▁병이	-17323
▁보라	-17324
▁본선	-17325
▁봤을	-17326
▁부친	-17327
▁분개	-17328
▁불량	-17329
▁비관	-17330
▁비전	-17331
▁사교	-17332
▁사료	-17333
▁사하	-17334
▁살던	-17335
▁상기	-17336
▁새우	-17337
▁생겼	-17338
▁서포	-17339
▁세울	-17340
▁속도	-17341
▁속의	-17342
▁수성	-17343
▁수에	-17344
▁순조	-17345
▁슬픈	-17346
▁시급	-17347
▁시술	-17348
▁식별	-17349
▁신흥	-17350
▁십년	-17351
▁십자	-17352
▁씨앗	-17353
▁아비	-17354
▁아인	-17355
▁알츠	-17356
▁에비	-17357
▁여사	-17358
▁연일	-17359
▁열광	-17360
▁예고	-17361
▁오델	-17362
▁오찬	-17363
▁옳은	-17364
▁외설	-17365
▁원로	-17366
▁웰스	-17367
▁위배	-17368
▁의대	-17369
▁의정	-17370
▁이병	-17371
▁일광	-17372
▁일조	-17373
▁입힌	-17374
▁있으	-17375
▁자페	-17376
▁재가	-17377
▁적법	-17378
▁적의	-17379
▁전제	-17380
▁전후	-17381
▁정계	-17382
▁정복	-17383
▁제휴	-17384
▁좁혀	-17385
▁종전	-17386
▁주먹	-17387
▁주제	-17388
▁증오	-17389
▁지아	-17390
▁지을	-17391
▁찍어	-17392
▁체험	-17393
▁총파	-17394
▁최장	-17395
▁추운	-17396
▁취업	-17397
▁치뤄	-17398
▁친지	-17399
▁카펫	-17400
▁캐피	-17401
▁콜럼	-17402
▁크랜	-17403
▁클랩	-17404
▁클릭	-17405
▁키팅	-17406
▁타디	-17407
▁타바	-17408
▁태워	-17409
▁투병	-17410
▁트랙	-17411
▁특혜	-17412
▁파기	-17413
▁페라	-17414
▁포크	-17415
▁프랜	-17416
▁피에	-17417
▁필리	-17418
▁하우	-17419
▁할렘	-17420
▁햇빛	-17421
▁헬렌	-17422
▁호프	-17423
▁확립	-17424
▁휘두	-17425
▁휘트	-17426
개월을	-17427
겠는가	-17428
국가로	-17429
나르도	-17430
냈지만	-17431
달러가	-17432
라리온	-17433
명령을	-17434
밀하게	-17435
버스터	-17436
부대를	-17437
비용을	-17438
비치가	-17439
소리가	-17440
스키는	-17441
시설에	-17442
야당인	-17443
억원을	-17444
위원은	-17445
일정을	-17446
자료를	-17447
자리를	-17448
장관의	-17449
장치가	-17450
주일간	-17451
총장이	-17452
평의회	-17453
할머니	-17454
행진을	-17455
협상을	-17456
호에서	-17457
화하기	-17458
book	-17459
ects	-17460
ines	-17461
lest	-17462
line	-17463
omes	-17464
open	-17465
ures	-17466
▁107	-17467
▁115	-17468
▁225	-17469
▁330	-17470
▁550	-17471
▁737	-17472
▁bid	-17473
▁ces	-17474
▁chr	-17475
▁cri	-17476
▁cut	-17477
▁dar	-17478
▁gdp	-17479
▁hit	-17480
▁ill	-17481
▁iwc	-17482
▁kbs	-17483
▁maj	-17484
▁mtv	-17485
▁pen	-17486
▁rev	-17487
▁ser	-17488
▁tak	-17489
▁tsa	-17490
▁ver	-17491
▁way	-17492
▁가격의	-17493
▁가까워	-17494
▁가량이	-17495
▁가져야	-17496
▁간단히	-17497
▁감소한	-17498
▁감시를	-17499
▁강원도	-17500
▁강타해	-17501
▁검정색	-17502
▁것이나	-17503
▁경수로	-17504
▁경제성	-17505
▁곤경에	-17506
▁공격수	-17507
▁공급할	-17508
▁공상과	-17509
▁공원에	-17510
▁공장이	-17511
▁공항이	-17512
▁굉장히	-17513
▁교과서	-17514
▁교육부	-17515
▁구성원	-17516
▁국민은	-17517
▁국방성	-17518
▁국영언	-17519
▁극도로	-17520
▁금메달	-17521
▁기술로	-17522
▁기지로	-17523
▁나아가	-17524
▁남쪽에	-17525
▁내각이	-17526
▁내리기	-17527
▁냄새가	-17528
▁넣으며	-17529
▁노력해	-17530
▁노리고	-17531
▁노벨상	-17532
▁노출된	-17533
▁놀이공	-17534
▁높았다	-17535
▁느끼게	-17536
▁느끼지	-17537
▁다리에	-17538
▁다시는	-17539
▁단계를	-17540
▁단백질	-17541
▁달라는	-17542
▁달성할	-17543
▁대승을	-17544
▁대처할	-17545
▁대표의	-17546
▁대하여	-17547
▁도로는	-17548
▁도왔다	-17549
▁도움의	-17550
▁되도록	-17551
▁떠나는	-17552
▁라덴의	-17553
▁라운드	-17554
▁로리언	-17555
▁로브는	-17556
▁르완다	-17557
▁마을이	-17558
▁만나게	-17559
▁만약에	-17560
▁만토바	-17561
▁말하자	-17562
▁맞교환	-17563
▁맞추고	-17564
▁메릴린	-17565
▁메이도	-17566
▁메트로	-17567
▁모두의	-17568
▁모습은	-17569
▁몰디브	-17570
▁무조건	-17571
▁미쳤다	-17572
▁바나프	-17573
▁박사와	-17574
▁박차를	-17575
▁받기로	-17576
▁버클리	-17577
▁번화가	-17578
▁벌였던	-17579
▁벌이며	-17580
▁범인을	-17581
▁변하지	-17582
▁병원은	-17583
▁보내며	-17584
▁보안에	-17585
▁보았다	-17586
▁볼드윈	-17587
▁부근의	-17588
▁부문에	-17589
▁부위에	-17590
▁부채를	-17591
▁분리된	-17592
▁불안이	-17593
▁불편을	-17594
▁블랙홀	-17595
▁블레이	-17596
▁빠지게	-17597
▁사랑과	-17598
▁사례를	-17599
▁사이먼	-17600
▁사임한	-17601
▁사장이	-17602
▁사진과	-17603
▁상승은	-17604
▁생기는	-17605
▁서서히	-17606
▁서울을	-17607
▁석방될	-17608
▁선관위	-17609
▁선물로	-17610
▁선물을	-17611
▁선보일	-17612
▁선수의	-17613
▁설명할	-17614
▁설치할	-17615
▁성명에	-17616
▁성화가	-17617
▁세골렌	-17618
▁세력과	-17619
▁세상에	-17620
▁섹시한	-17621
▁셰퍼드	-17622
▁소동을	-17623
▁소속된	-17624
▁속도가	-17625
▁솔직히	-17626
▁쇼에서	-17627
▁수술이	-17628
▁수영을	-17629
▁수위를	-17630
▁순간을	-17631
▁순식간	-17632
▁순이익	-17633
▁스타인	-17634
▁시도로	-17635
▁신뢰할	-17636
▁신문을	-17637
▁신시내	-17638
▁신중한	-17639
▁신체적	-17640
▁실적이	-17641
▁심슨의	-17642
▁심슨이	-17643
▁십자가	-17644
▁아내를	-17645
▁안았다	-17646
▁안전이	-17647
▁애도를	-17648
▁앤더슨	-17649
▁언론인	-17650
▁없다면	-17651
▁여중생	-17652
▁연기에	-17653
▁예방접	-17654
▁오르지	-17655
▁오전에	-17656
▁오페라	-17657
▁온난화	-17658
▁올라와	-17659
▁올해로	-17660
▁요청에	-17661
▁용기를	-17662
▁용의가	-17663
▁원인에	-17664
▁유가는	-17665
▁유지될	-17666
▁유지해	-17667
▁유태인	-17668
▁의무가	-17669
▁의식이	-17670
▁의심을	-17671
▁이견을	-17672
▁이목을	-17673
▁이익이	-17674
▁이해를	-17675
▁인류가	-17676
▁인물을	-17677
▁인수제	-17678
▁일부로	-17679
▁입장이	-17680
▁잇따라	-17681
▁있느냐	-17682
▁자녀가	-17683
▁자치구	-17684
▁작곡가	-17685
▁작년에	-17686
▁잡스는	-17687
▁재개를	-17688
▁재단은	-17689
▁잭슨이	-17690
▁적절히	-17691
▁전국에	-17692
▁정당한	-17693
▁정상은	-17694
▁정착촌	-17695
▁정찰위	-17696
▁제보를	-17697
▁제재가	-17698
▁제조한	-17699
▁제한된	-17700
▁조류독	-17701
▁조사해	-17702
▁조용한	-17703
▁종말론	-17704
▁주기로	-17705
▁주민은	-17706
▁죽음과	-17707
▁중심의	-17708
▁지냈던	-17709
▁지켰다	-17710
▁진영의	-17711
▁집권한	-17712
▁찾아야	-17713
▁천천히	-17714
▁총선은	-17715
▁출연할	-17716
▁치안을	-17717
▁친밀한	-17718
▁카드를	-17719
▁카타르	-17720
▁커플이	-17721
▁콜린스	-17722
▁쿼터백	-17723
▁탄압을	-17724
▁투자에	-17725
▁파이어	-17726
▁파티에	-17727
▁판매될	-17728
▁패배한	-17729
▁패트로	-17730
▁퍼시픽	-17731
▁편이다	-17732
▁폭행을	-17733
▁풍선을	-17734
▁하루가	-17735
▁하리리	-17736
▁하토야	-17737
▁학살을	-17738
▁학생을	-17739
▁학위를	-17740
▁한글판	-17741
▁한동안	-17742
▁항공모	-17743
▁행해진	-17744
▁헤드폰	-17745
▁호주에	-17746
▁확고한	-17747
▁확정된	-17748
▁획득한	-17749
▁효력을	-17750
▁후보작	-17751
▁흑인이	-17752
▁흔들며	-17753
▁흔적이	-17754
▁흥미를	-17755
▁흥분한	-17756
▁흩어져	-17757
▁희생된	-17758
▁힘들게	-17759
스테이션	-17760
연구소의	-17761
적이지만	-17762
지대에서	-17763
iance	-17764
illed	-17765
▁1967	-17766
▁1968	-17767
▁1974	-17768
▁2015	-17769
▁acad	-17770
▁aids	-17771
▁clin	-17772
▁eads	-17773
▁free	-17774
▁iran	-17775
▁irna	-17776
▁live	-17777
▁test	-17778
▁감행했다	-17779
▁개발하고	-17780
▁거래에서	-17781
▁검문소를	-17782
▁경기침체	-17783
▁고등학생	-17784
▁고르바초	-17785
▁공약으로	-17786
▁공화당이	-17787
▁관리하고	-17788
▁광장에서	-17789
▁국가들을	-17790
▁국제유가	-17791
▁규정했다	-17792
▁기다렸다	-17793
▁기대된다	-17794
▁나라에서	-17795
▁나타난다	-17796
▁나토군이	-17797
▁납치했다	-17798
▁넘어섰다	-17799
▁노동조합	-17800
▁농장에서	-17801
▁다가오는	-17802
▁대변인을	-17803
▁대항하는	-17804
▁돌고래가	-17805
▁들어왔다	-17806
▁들어있다	-17807
▁마련하고	-17808
▁메모리얼	-17809
▁무자비한	-17810
▁무책임한	-17811
▁문제점을	-17812
▁물리치고	-17813
▁민병대가	-17814
▁민주노동	-17815
▁반발했다	-17816
▁발견하지	-17817
▁발령했다	-17818
▁발생했을	-17819
▁방송과의	-17820
▁백악관이	-17821
▁벌였지만	-17822
▁보건부는	-17823
▁보안군이	-17824
▁본국으로	-17825
▁부양책을	-17826
▁부족하다	-17827
▁부회장은	-17828
▁북대서양	-17829
▁불안정한	-17830
▁블레이크	-17831
▁사람이다	-17832
▁산사태가	-17833
▁상징으로	-17834
▁생물학적	-17835
▁생존자를	-17836
▁석유수출	-17837
▁설명하지	-17838
▁성장률을	-17839
▁성장률이	-17840
▁세계경제	-17841
▁세계최초	-17842
▁수도에서	-17843
▁수직착륙	-17844
▁스타디움	-17845
▁승리해야	-17846
▁시작하고	-17847
▁시작한다	-17848
▁실업률이	-17849
▁심장마비	-17850
▁아들에게	-17851
▁아프간을	-17852
▁어려움에	-17853
▁어머니의	-17854
▁엉덩이는	-17855
▁여러분이	-17856
▁여러차례	-17857
▁연구팀이	-17858
▁예상했던	-17859
▁위태롭게	-17860
▁이동했다	-17861
▁이례적인	-17862
▁이어갔다	-17863
▁이어지고	-17864
▁이전에도	-17865
▁이해하는	-17866
▁인신매매	-17867
▁일으키고	-17868
▁자부심을	-17869
▁자신만의	-17870
▁작가조합	-17871
▁장식했다	-17872
▁적대적인	-17873
▁정부군은	-17874
▁제작했다	-17875
▁조승희가	-17876
▁죽음으로	-17877
▁준이치로	-17878
▁중국과의	-17879
▁중단해야	-17880
▁중소기업	-17881
▁중요하게	-17882
▁지원했다	-17883
▁지적하며	-17884
▁지켜봤다	-17885
▁진행하고	-17886
▁질병통제	-17887
▁집행유예	-17888
▁처음부터	-17889
▁촬영했다	-17890
▁축하하기	-17891
▁충격적인	-17892
▁충분하지	-17893
▁친구들은	-17894
▁타이타닉	-17895
▁투표권을	-17896
▁판매량이	-17897
▁판사에게	-17898
▁프랑스로	-17899
▁프랑스에	-17900
▁피해자의	-17901
▁핵심적인	-17902
▁현장으로	-17903
▁확산되는	-17904
▁활주로를	-17905
▁후보였던	-17906
erence	-17907
▁early	-17908
▁toeic	-17909
▁unhcr	-17910
▁years	-17911
▁구호물품을	-17912
▁국토안보부	-17913
▁근로자들이	-17914
▁기본적으로	-17915
▁다이애나의	-17916
▁마라도나는	-17917
▁모여들었다	-17918
▁무장세력과	-17919
▁바이러스의	-17920
▁받아들이고	-17921
▁법무장관은	-17922
▁법무장관이	-17923
▁북서쪽으로	-17924
▁북아일랜드	-17925
▁불러일으키	-17926
▁사무국장은	-17927
▁석방됐다고	-17928
▁선고받았다	-17929
▁시에라리온	-17930
▁시위자들을	-17931
▁심장마비로	-17932
▁알카에다에	-17933
▁암스테르담	-17934
▁약속했다고	-17935
▁어린이들은	-17936
▁여론조사에	-17937
▁왕세자비가	-17938
▁용의자들은	-17939
▁유권자들을	-17940
▁의미한다고	-17941
▁이루어지는	-17942
▁인터내셔널	-17943
▁인플루엔자	-17944
▁전달했다고	-17945
▁정치인들이	-17946
▁주식시장은	-17947
▁중심부에서	-17948
▁즉각적으로	-17949
▁지역에서도	-17950
▁지지자들의	-17951
▁최고경영자	-17952
▁콜로라도주	-17953
▁파바로티의	-17954
▁폭탄테러는	-17955
▁폭탄테러의	-17956
▁플루토늄을	-17957
▁현대자동차	-17958
▁회원국들은	-17959
위원회에서는	-17960
▁global	-17961
▁height	-17962
▁indust	-17963
▁nation	-17964
▁produc	-17965
▁progra	-17966
▁senate	-17967
▁경제학자들은	-17968
▁고속도로에서	-17969
▁공공장소에서	-17970
▁구조대원들은	-17971
▁국경지역에서	-17972
▁남부지역에서	-17973
▁말레이시아의	-17974
▁발생했습니다	-17975
▁불가능하다고	-17976
▁와인하우스는	-17977
▁우크라이나가	-17978
▁이탈리아에서	-17979
▁주식시장에서	-17980
▁준결승전에서	-17981
▁지도자들에게	-17982
▁workers	-17983
▁뉴욕상업거래소	-17984
▁리우데자네이루	-17985
▁테러리스트들이	-17986
▁japanese	-17987
74	-17988
▁꽂	-17989
▁꽉	-17990
▁늑	-17991
▁락	-17992
▁랭	-17993
▁빔	-17994
▁씩	-17995
▁얇	-17996
▁젤	-17997
▁켜	-17998
▁팻	-17999
▁흙	-18000
가며	-18001
건물	-18002
공을	-18003
교섭	-18004
구성	-18005
군사	-18006
균형	-18007
금에	-18008
기서	-18009
나요	-18010
내용	-18011
네오	-18012
농축	-18013
동에	-18014
두아	-18015
뒀다	-18016
든은	-18017
란은	-18018
러코	-18019
론에	-18020
롭다	-18021
류와	-18022
르노	-18023
르모	-18024
르베	-18025
리안	-18026
린의	-18027
린첨	-18028
만개	-18029
만톤	-18030
모니	-18031
민이	-18032
반은	-18033
버른	-18034
범의	-18035
벨트	-18036
병과	-18037
보관	-18038
보이	-18039
브르	-18040
빌은	-18041
사르	-18042
살에	-18043
살을	-18044
생의	-18045
서비	-18046
설에	-18047
섬에	-18048
세서	-18049
소인	-18050
수이	-18051
슬람	-18052
슬로	-18053
시앙	-18054
신고	-18055
씨로	-18056
압을	-18057
야에	-18058
양이	-18059
여년	-18060
역이	-18061
열로	-18062
위안	-18063
이은	-18064
인자	-18065
인터	-18066
자녀	-18067
자도	-18068
자연	-18069
점인	-18070
종은	-18071
중의	-18072
츠와	-18073
케는	-18074
코프	-18075
키마	-18076
킨은	-18077
타에	-18078
통계	-18079
투자	-18080
특별	-18081
티와	-18082
파는	-18083
평방	-18084
품은	-18085
품의	-18086
피는	-18087
향의	-18088
헤딘	-18089
홍보	-18090
화할	-18091
회복	-18092
회장	-18093
효율	-18094
ada	-18095
ann	-18096
ody	-18097
per	-18098
raw	-18099
rup	-18100
ube	-18101
ump	-18102
usp	-18103
▁bp	-18104
▁om	-18105
▁가방	-18106
▁갖지	-18107
▁겪는	-18108
▁견디	-18109
▁결성	-18110
▁공립	-18111
▁공헌	-18112
▁관통	-18113
▁교정	-18114
▁교훈	-18115
▁구두	-18116
▁권위	-18117
▁귀가	-18118
▁그간	-18119
▁근접	-18120
▁기내	-18121
▁깨닫	-18122
▁꼬리	-18123
▁꾸며	-18124
▁나눈	-18125
▁나도	-18126
▁나미	-18127
▁난무	-18128
▁냉소	-18129
▁넘긴	-18130
▁넣을	-18131
▁네브	-18132
▁농경	-18133
▁늘고	-18134
▁다임	-18135
▁단편	-18136
▁달링	-18137
▁대미	-18138
▁대부	-18139
▁대슐	-18140
▁도둑	-18141
▁돌고	-18142
▁두지	-18143
▁등교	-18144
▁뚫고	-18145
▁랜디	-18146
▁루머	-18147
▁루터	-18148
▁마른	-18149
▁말씀	-18150
▁매번	-18151
▁목사	-18152
▁무작	-18153
▁무패	-18154
▁뭔가	-18155
▁미라	-18156
▁미만	-18157
▁밀수	-18158
▁바꾼	-18159
▁버밍	-18160
▁번식	-18161
▁법사	-18162
▁법은	-18163
▁법조	-18164
▁별칭	-18165
▁본질	-18166
▁봉투	-18167
▁부에	-18168
▁부합	-18169
▁불고	-18170
▁불륜	-18171
▁비축	-18172
▁비키	-18173
▁빚을	-18174
▁뼈가	-18175
▁사안	-18176
▁산시	-18177
▁살기	-18178
▁살라	-18179
▁살레	-18180
▁생생	-18181
▁생선	-18182
▁샤프	-18183
▁섭씨	-18184
▁수신	-18185
▁수학	-18186
▁스머	-18187
▁슬림	-18188
▁시합	-18189
▁신랑	-18190
▁신혼	-18191
▁싸우	-18192
▁쌓여	-18193
▁아델	-18194
▁아서	-18195
▁아타	-18196
▁안된	-18197
▁알릴	-18198
▁알메	-18199
▁압델	-18200
▁압승	-18201
▁양도	-18202
▁양을	-18203
▁어스	-18204
▁어지	-18205
▁엄격	-18206
▁영사	-18207
▁예의	-18208
▁오웬	-18209
▁와코	-18210
▁완구	-18211
▁요트	-18212
▁용이	-18213
▁웃는	-18214
▁원동	-18215
▁위를	-18216
▁유류	-18217
▁이룰	-18218
▁이맘	-18219
▁이모	-18220
▁이의	-18221
▁익사	-18222
▁익숙	-18223
▁일렉	-18224
▁자폭	-18225
▁잠들	-18226
▁장병	-18227
▁적임	-18228
▁전락	-18229
▁전한	-18230
▁정몽	-18231
▁정황	-18232
▁제레	-18233
▁조니	-18234
▁조롱	-18235
▁좋을	-18236
▁주모	-18237
▁주시	-18238
▁주와	-18239
▁주전	-18240
▁주행	-18241
▁죽이	-18242
▁중유	-18243
▁중이	-18244
▁집값	-18245
▁철폐	-18246
▁청산	-18247
▁추돌	-18248
▁추억	-18249
▁추후	-18250
▁츠방	-18251
▁칸은	-18252
▁퀘벡	-18253
▁타격	-18254
▁타당	-18255
▁타워	-18256
▁탈세	-18257
▁태도	-18258
▁텐트	-18259
▁톤의	-18260
▁티켓	-18261
▁팔로	-18262
▁퍼붓	-18263
▁페레	-18264
▁표본	-18265
▁프래	-18266
▁하노	-18267
▁하라	-18268
▁한일	-18269
▁한해	-18270
▁합쳐	-18271
▁해온	-18272
▁헤엄	-18273
▁혹등	-18274
▁환급	-18275
▁회전	-18276
▁휠체	-18277
▁흉내	-18278
▁흑색	-18279
▁흔히	-18280
▁흡입	-18281
가격이	-18282
개월의	-18283
국장이	-18284
권으로	-18285
기관은	-18286
기관이	-18287
기구인	-18288
느냐는	-18289
는다면	-18290
다코타	-18291
닷컴은	-18292
당하고	-18293
당하는	-18294
때보다	-18295
랜드의	-18296
레이는	-18297
로서의	-18298
문제로	-18299
법원이	-18300
베이스	-18301
사들을	-18302
섰다고	-18303
세기에	-18304
스트로	-18305
업체에	-18306
위츠는	-18307
은행의	-18308
일동안	-18309
자원부	-18310
주간의	-18311
즈에서	-18312
치료를	-18313
타니아	-18314
해지는	-18315
행위로	-18316
회사에	-18317
회의는	-18318
ests	-18319
ning	-18320
ters	-18321
tice	-18322
ties	-18323
ying	-18324
▁165	-18325
▁abn	-18326
▁bel	-18327
▁bom	-18328
▁des	-18329
▁gaz	-18330
▁kid	-18331
▁let	-18332
▁num	-18333
▁won	-18334
▁가득한	-18335
▁가정을	-18336
▁갈등을	-18337
▁개최를	-18338
▁거리의	-18339
▁건강검	-18340
▁결승에	-18341
▁계기로	-18342
▁공세를	-18343
▁관리인	-18344
▁광고에	-18345
▁교통부	-18346
▁교회는	-18347
▁구글은	-18348
▁구성에	-18349
▁국경에	-18350
▁국민들	-18351
▁국왕의	-18352
▁군대에	-18353
▁군사작	-18354
▁권총을	-18355
▁권했다	-18356
[...]
